#ifndef SINE_MODEL_H
#define SINE_MODEL_H

unsigned int sine_model_len = 3104;
unsigned char sine_model[] = {
    0x28, 0x00, 0x00, 0x00, 0x54, 0x46, 0x4c, 0x33, 0x00, 0x00, 0x00, 0x00,
    0x00, 0x00, 0x00, 0x00, 0x00, 0x00, 0x00, 0x00, 0x00, 0x00, 0x12, 0x00,
    0x1c, 0x00, 0x04, 0x00, 0x08, 0x00, 0x0c, 0x00, 0x10, 0x00, 0x14, 0x00,
    0x00, 0x00, 0x18, 0x00, 0x12, 0x00, 0x00, 0x00, 0x03, 0x00, 0x00, 0x00,
    0xb0, 0x0b, 0x00, 0x00, 0x68, 0x04, 0x00, 0x00, 0x50, 0x04, 0x00, 0x00,
    0x3c, 0x00, 0x00, 0x00, 0x04, 0x00, 0x00, 0x00, 0x01, 0x00, 0x00, 0x00,
    0x0c, 0x00, 0x00, 0x00, 0x08, 0x00, 0x0c, 0x00, 0x04, 0x00, 0x08, 0x00,
    0x08, 0x00, 0x00, 0x00, 0x08, 0x00, 0x00, 0x00, 0x11, 0x00, 0x00, 0x00,
    0x13, 0x00, 0x00, 0x00, 0x6d, 0x69, 0x6e, 0x5f, 0x72, 0x75, 0x6e, 0x74,
    0x69, 0x6d, 0x65, 0x5f, 0x76, 0x65, 0x72, 0x73, 0x69, 0x6f, 0x6e, 0x00,
    0x12, 0x00, 0x00, 0x00, 0x00, 0x04, 0x00, 0x00, 0xec, 0x03, 0x00, 0x00,
    0xd0, 0x03, 0x00, 0x00, 0x9c, 0x03, 0x00, 0x00, 0x48, 0x03, 0x00, 0x00,
    0x24, 0x03, 0x00, 0x00, 0x00, 0x03, 0x00, 0x00, 0xec, 0x01, 0x00, 0x00,
    0xd8, 0x00, 0x00, 0x00, 0xb4, 0x00, 0x00, 0x00, 0xa8, 0x00, 0x00, 0x00,
    0x94, 0x00, 0x00, 0x00, 0x80, 0x00, 0x00, 0x00, 0x6c, 0x00, 0x00, 0x00,
    0x58, 0x00, 0x00, 0x00, 0x44, 0x00, 0x00, 0x00, 0x30, 0x00, 0x00, 0x00,
    0x04, 0x00, 0x00, 0x00, 0x76, 0xfc, 0xff, 0xff, 0x04, 0x00, 0x00, 0x00,
    0x10, 0x00, 0x00, 0x00, 0x31, 0x2e, 0x31, 0x34, 0x2e, 0x30, 0x00, 0x00,
    0x00, 0x00, 0x00, 0x00, 0x00, 0x00, 0x00, 0x00, 0x00, 0x00, 0x00, 0x00,
    0x00, 0x00, 0x00, 0x00, 0x00, 0x00, 0x00, 0x00, 0x30, 0xf5, 0xff, 0xff,
    0x00, 0x00, 0x00, 0x00, 0x00, 0x00, 0x00, 0x00, 0x00, 0x00, 0x00, 0x00,
    0x40, 0xf5, 0xff, 0xff, 0x00, 0x00, 0x00, 0x00, 0x00, 0x00, 0x00, 0x00,
    0x00, 0x00, 0x00, 0x00, 0x50, 0xf5, 0xff, 0xff, 0x00, 0x00, 0x00, 0x00,
    0x00, 0x00, 0x00, 0x00, 0x00, 0x00, 0x00, 0x00, 0x60, 0xf5, 0xff, 0xff,
    0x00, 0x00, 0x00, 0x00, 0x00, 0x00, 0x00, 0x00, 0x00, 0x00, 0x00, 0x00,
    0x70, 0xf5, 0xff, 0xff, 0x00, 0x00, 0x00, 0x00, 0x00, 0x00, 0x00, 0x00,
    0x00, 0x00, 0x00, 0x00, 0x80, 0xf5, 0xff, 0xff, 0x00, 0x00, 0x00, 0x00,
    0x00, 0x00, 0x00, 0x00, 0x00, 0x00, 0x00, 0x00, 0x90, 0xf5, 0xff, 0xff,
    0x00, 0x00, 0x00, 0x00, 0x06, 0xfd, 0xff, 0xff, 0x04, 0x00, 0x00, 0x00,
    0x10, 0x00, 0x00, 0x00, 0x0b, 0x13, 0xeb, 0x3e, 0xd4, 0x7e, 0x61, 0xbf,
    0x86, 0x49, 0x5c, 0x3f, 0xbe, 0xc2, 0x46, 0x3f, 0x00, 0x00, 0x00, 0x00,
    0x26, 0xfd, 0xff, 0xff, 0x04, 0x00, 0x00, 0x00, 0x00, 0x01, 0x00, 0x00,
    0xce, 0x73, 0xae, 0x3e, 0x64, 0x2f, 0x2e, 0xbf, 0xd3, 0x1f, 0x27, 0xbe,
    0x6e, 0x17, 0x1f, 0xbf, 0xfb, 0x75, 0x4b, 0x3e, 0x73, 0x15, 0x8a, 0xbe,
    0xba, 0xa8, 0x15, 0x3e, 0x5f, 0xeb, 0x3e, 0xbf, 0xd2, 0x5c, 0x9a, 0xbf,
    0x3f, 0x54, 0x22, 0xbf, 0xbd, 0x78, 0xb2, 0x3e, 0x51, 0x0f, 0xb5, 0x3d,
    0x60, 0x92, 0x4e, 0x3f, 0x93, 0xa7, 0x4d, 0x3f, 0xa7, 0xb6, 0xfb, 0xbe,
    0x4c, 0xdf, 0x85, 0x3f, 0x48, 0x19, 0xe4, 0x3d, 0x1a, 0xc6, 0x3d, 0x3f,
    0x00, 0x33, 0xde, 0x3e, 0x4f, 0x21, 0x07, 0x3f, 0xfb, 0x8a, 0xa5, 0xbe,
    0x1b, 0x9f, 0xa6, 0x3e, 0x77, 0x96, 0x97, 0xbe, 0x2d, 0x0f, 0x1f, 0x3f,
    0x12, 0x9b, 0x3e, 0x3f, 0x1e, 0x31, 0xc7, 0x3e, 0xb2, 0xd7, 0x82, 0xbf,
    0x34, 0xa1, 0xd3, 0x3e, 0x20, 0x61, 0x05, 0xbf, 0x7e, 0x14, 0x07, 0xbe,
    0xef, 0x67, 0x71, 0x3e, 0x45, 0x39, 0xc2, 0xbe, 0x3a, 0xbb, 0xca, 0xbe,
    0x92, 0xc6, 0x82, 0x3c, 0xaa, 0xdf, 0xe8, 0xbe, 0x1e, 0x62, 0x04, 0x3f,
    0x3f, 0xa9, 0x93, 0x3e, 0x7f, 0x32, 0xd0, 0xbe, 0xbb, 0xcf, 0x01, 0x3f,
    0x9e, 0x57, 0xaa, 0xbd, 0x38, 0x70, 0x7f, 0x3f, 0xe1, 0x1f, 0x84, 0x3f,
    0xd8, 0x71, 0x30, 0xbf, 0x5c, 0xd8, 0xfc, 0xbc, 0xb3, 0xd9, 0xca, 0xbf,
    0x77, 0xb7, 0x8a, 0x3c, 0x93, 0x89, 0x94, 0x3f, 0x47, 0x3d, 0x98, 0xbf,
    0xdb, 0x5c, 0xe1, 0x3d, 0xd3, 0x49, 0x28, 0x3f, 0x96, 0x3c, 0x3b, 0x3f,
    0xa3, 0xf7, 0x54, 0x3e, 0x09, 0x8a, 0xe0, 0xbe, 0x6f, 0x7f, 0xe6, 0xbd,
    0xf1, 0xb6, 0x3f, 0xbf, 0x48, 0xeb, 0x92, 0x3e, 0x13, 0x81, 0xff, 0x3c,
    0x4c, 0xaa, 0xe8, 0x3d, 0xd9, 0x8a, 0x57, 0xbe, 0x04, 0xed, 0x3c, 0x3d,
    0xa4, 0x70, 0xa4, 0xbe, 0x20, 0x88, 0x12, 0x3c, 0x8c, 0x48, 0xef, 0xbe,
    0x45, 0x26, 0x89, 0x3d, 0x00, 0x00, 0x00, 0x00, 0x36, 0xfe, 0xff, 0xff,
    0x04, 0x00, 0x00, 0x00, 0x00, 0x01, 0x00, 0x00, 0xbb, 0x73, 0x5b, 0x3e,
    0x2c, 0xf8, 0x9d, 0x3d, 0xeb, 0x60, 0xf2, 0xbe, 0xe3, 0xcd, 0xad, 0xbe,
    0x81, 0xdf, 0x72, 0xbf, 0xda, 0x25, 0x9d, 0xbe, 0x13, 0x87, 0x62, 0x3e,
    0x44, 0xd6, 0xc0, 0x3e, 0xec, 0x76, 0x8a, 0xbf, 0x6a, 0x33, 0x04, 0xbf,
    0x6b, 0x2e, 0x86, 0xbe, 0x31, 0x53, 0xa8, 0x3e, 0xfd, 0x95, 0xb3, 0xbd,
    0x8a, 0xb3, 0x4d, 0xbe, 0xee, 0x34, 0x13, 0x3e, 0x71, 0x4c, 0x05, 0x3f,
    0xe4, 0xfd, 0x0f, 0x3f, 0x6f, 0x24, 0xa0, 0x3e, 0x87, 0xc9, 0xbb, 0x3d,
    0x36, 0xa8, 0x69, 0x3e, 0x1e, 0xe4, 0x93, 0xbe, 0x54, 0x76, 0xd9, 0x3e,
    0xee, 0xb5, 0x3c, 0x3f, 0x4c, 0x96, 0x2a, 0xbf, 0x25, 0xfd, 0xe7, 0xbd,
    0xdf, 0x77, 0xa3, 0x3b, 0x7e, 0x22, 0x03, 0x3f, 0x3c, 0x07, 0x77, 0x3e,
    0x9b, 0x2a, 0x0b, 0x3d, 0x5a, 0x98, 0x55, 0xbf, 0xdd, 0xa0, 0x34, 0x3d,
    0x18, 0x0c, 0x60, 0x3e, 0x64, 0x00, 0x00, 0xbf, 0x17, 0x1f, 0x08, 0xbf,
    0x24, 0x65, 0x0c, 0x3f, 0x3d, 0x3e, 0xe1, 0x3e, 0xe5, 0x68, 0xd0, 0xbe,
    0x20, 0x87, 0x98, 0x3c, 0xec, 0x99, 0x2b, 0x3f, 0x8b, 0xd1, 0x73, 0x3f,
    0x5e, 0xa0, 0x3a, 0x3f, 0x75, 0x99, 0xc7, 0x3e, 0xe1, 0x7e, 0x9f, 0xbe,
    0x68, 0x0e, 0x8b, 0xbe, 0xdd, 0x33, 0x2e, 0xbf, 0xbe, 0x36, 0xfa, 0xbd,
    0xa1, 0x2d, 0xbb, 0xbe, 0xc5, 0x45, 0x62, 0x3e, 0x0e, 0x80, 0x68, 0x3f,
    0x35, 0x41, 0x0e, 0x3e, 0xb0, 0xfc, 0x45, 0xbf, 0x18, 0x4d, 0x59, 0xbf,
    0x23, 0xb4, 0xa9, 0x3e, 0x50, 0x66, 0x05, 0x3f, 0xcc, 0x26, 0xb9, 0xbe,
    0x2e, 0xa8, 0x80, 0xbe, 0x06, 0x1c, 0xb3, 0xbd, 0xbd, 0xff, 0xf5, 0xbe,
    0xd9, 0x64, 0xc6, 0x3e, 0x33, 0xfb, 0x61, 0x3e, 0x64, 0xd1, 0x3e, 0x3f,
    0xde, 0xce, 0xb3, 0x3e, 0x61, 0xd0, 0x2a, 0xbf, 0x6b, 0xc9, 0x02, 0xbf,
    0x00, 0x00, 0x00, 0x00, 0x46, 0xff, 0xff, 0xff, 0x04, 0x00, 0x00, 0x00,
    0x10, 0x00, 0x00, 0x00, 0x89, 0xe5, 0x1b, 0xbe, 0x9e, 0x8b, 0x36, 0xbe,
    0xb4, 0xab, 0x78, 0xbf, 0x90, 0x84, 0x20, 0x3e, 0x00, 0x00, 0x00, 0x00,
    0x66, 0xff, 0xff, 0xff, 0x04, 0x00, 0x00, 0x00, 0x10, 0x00, 0x00, 0x00,
    0x64, 0x6f, 0x4a, 0x3e, 0xfa, 0x27, 0x19, 0x3e, 0x34, 0x63, 0xe4, 0x3e,
    0xe9, 0xec, 0x0b, 0xbf, 0x00, 0x00, 0x00, 0x00, 0x86, 0xff, 0xff, 0xff,
    0x04, 0x00, 0x00, 0x00, 0x40, 0x00, 0x00, 0x00, 0x97, 0x78, 0x42, 0xbd,
    0xbd, 0xe0, 0x8d, 0x3d, 0x5d, 0x7b, 0x99, 0x3d, 0xfb, 0x11, 0xd2, 0x3d,
    0x23, 0x24, 0xdc, 0xbe, 0x4e, 0x9e, 0x27, 0x3e, 0x0b, 0x18, 0xcc, 0xbe,
    0xda, 0x25, 0xc0, 0x3d, 0x71, 0xe9, 0xb5, 0x3b, 0x55, 0x62, 0xc1, 0x3d,
    0xaa, 0x32, 0xd8, 0xba, 0x69, 0xd7, 0x16, 0x3d, 0x70, 0xb6, 0x52, 0x3e,
    0x1f, 0x53, 0x96, 0xbe, 0x3e, 0x5e, 0x24, 0xbd, 0xf0, 0x7a, 0x6f, 0x3d,
    0x00, 0x00, 0x00, 0x00, 0xd6, 0xff, 0xff, 0xff, 0x04, 0x00, 0x00, 0x00,
    0x10, 0x00, 0x00, 0x00, 0x72, 0x3f, 0x29, 0xbe, 0xa9, 0x28, 0x05, 0x3e,
    0xd6, 0x90, 0x95, 0xbe, 0xd6, 0x84, 0x5b, 0x3c, 0x00, 0x00, 0x00, 0x00,
    0x00, 0x00, 0x00, 0x00, 0x00, 0x00, 0x00, 0x00, 0x00, 0x00, 0x06, 0x00,
    0x08, 0x00, 0x04, 0x00, 0x06, 0x00, 0x00, 0x00, 0x04, 0x00, 0x00, 0x00,
    0x04, 0x00, 0x00, 0x00, 0x6d, 0xa2, 0x85, 0x3e, 0x00, 0x00, 0x00, 0x00,
    0x00, 0x00, 0x00, 0x00, 0xb0, 0xf8, 0xff, 0xff, 0x00, 0x00, 0x00, 0x00,
    0x00, 0x00, 0x00, 0x00, 0x00, 0x00, 0x00, 0x00, 0xc0, 0xf8, 0xff, 0xff,
    0x00, 0x00, 0x00, 0x00, 0x00, 0x00, 0x00, 0x00, 0x0f, 0x00, 0x00, 0x00,
    0x4d, 0x4c, 0x49, 0x52, 0x20, 0x43, 0x6f, 0x6e, 0x76, 0x65, 0x72, 0x74,
    0x65, 0x64, 0x2e, 0x00, 0x01, 0x00, 0x00, 0x00, 0x14, 0x00, 0x00, 0x00,
    0x00, 0x00, 0x0e, 0x00, 0x18, 0x00, 0x04, 0x00, 0x08, 0x00, 0x0c, 0x00,
    0x10, 0x00, 0x14, 0x00, 0x0e, 0x00, 0x00, 0x00, 0x8c, 0x01, 0x00, 0x00,
    0x80, 0x01, 0x00, 0x00, 0x74, 0x01, 0x00, 0x00, 0x14, 0x00, 0x00, 0x00,
    0x04, 0x00, 0x00, 0x00, 0x04, 0x00, 0x00, 0x00, 0x6d, 0x61, 0x69, 0x6e,
    0x00, 0x00, 0x00, 0x00, 0x07, 0x00, 0x00, 0x00, 0x28, 0x01, 0x00, 0x00,
    0xf4, 0x00, 0x00, 0x00, 0xb4, 0x00, 0x00, 0x00, 0x90, 0x00, 0x00, 0x00,
    0x5c, 0x00, 0x00, 0x00, 0x38, 0x00, 0x00, 0x00, 0x04, 0x00, 0x00, 0x00,
    0x02, 0xff, 0xff, 0xff, 0x00, 0x00, 0x00, 0x08, 0x18, 0x00, 0x00, 0x00,
    0x0c, 0x00, 0x00, 0x00, 0x04, 0x00, 0x00, 0x00, 0x50, 0xf9, 0xff, 0xff,
    0x01, 0x00, 0x00, 0x00, 0x0f, 0x00, 0x00, 0x00, 0x03, 0x00, 0x00, 0x00,
    0x0e, 0x00, 0x00, 0x00, 0x08, 0x00, 0x00, 0x00, 0x01, 0x00, 0x00, 0x00,
    0x5e, 0xff, 0xff, 0xff, 0x01, 0x00, 0x00, 0x00, 0x10, 0x00, 0x00, 0x00,
    0x04, 0x00, 0x00, 0x00, 0x01, 0x00, 0x00, 0x00, 0x0e, 0x00, 0x00, 0x00,
    0x01, 0x00, 0x00, 0x00, 0x0d, 0x00, 0x00, 0x00, 0x52, 0xff, 0xff, 0xff,
    0x00, 0x00, 0x00, 0x08, 0x18, 0x00, 0x00, 0x00, 0x0c, 0x00, 0x00, 0x00,
    0x04, 0x00, 0x00, 0x00, 0xa0, 0xf9, 0xff, 0xff, 0x01, 0x00, 0x00, 0x00,
    0x0d, 0x00, 0x00, 0x00, 0x03, 0x00, 0x00, 0x00, 0x0c, 0x00, 0x00, 0x00,
    0x07, 0x00, 0x00, 0x00, 0x02, 0x00, 0x00, 0x00, 0xae, 0xff, 0xff, 0xff,
    0x01, 0x00, 0x00, 0x00, 0x10, 0x00, 0x00, 0x00, 0x04, 0x00, 0x00, 0x00,
    0x01, 0x00, 0x00, 0x00, 0x0c, 0x00, 0x00, 0x00, 0x01, 0x00, 0x00, 0x00,
    0x0b, 0x00, 0x00, 0x00, 0xa2, 0xff, 0xff, 0xff, 0x00, 0x00, 0x00, 0x08,
    0x18, 0x00, 0x00, 0x00, 0x0c, 0x00, 0x00, 0x00, 0x04, 0x00, 0x00, 0x00,
    0xf0, 0xf9, 0xff, 0xff, 0x01, 0x00, 0x00, 0x00, 0x0b, 0x00, 0x00, 0x00,
    0x03, 0x00, 0x00, 0x00, 0x0a, 0x00, 0x00, 0x00, 0x06, 0x00, 0x00, 0x00,
    0x03, 0x00, 0x00, 0x00, 0x00, 0x00, 0x0a, 0x00, 0x10, 0x00, 0x04, 0x00,
    0x08, 0x00, 0x0c, 0x00, 0x0a, 0x00, 0x00, 0x00, 0x01, 0x00, 0x00, 0x00,
    0x10, 0x00, 0x00, 0x00, 0x04, 0x00, 0x00, 0x00, 0x01, 0x00, 0x00, 0x00,
    0x0a, 0x00, 0x00, 0x00, 0x01, 0x00, 0x00, 0x00, 0x09, 0x00, 0x00, 0x00,
    0x00, 0x00, 0x0e, 0x00, 0x14, 0x00, 0x00, 0x00, 0x08, 0x00, 0x0c, 0x00,
    0x07, 0x00, 0x10, 0x00, 0x0e, 0x00, 0x00, 0x00, 0x00, 0x00, 0x00, 0x08,
    0x18, 0x00, 0x00, 0x00, 0x0c, 0x00, 0x00, 0x00, 0x04, 0x00, 0x00, 0x00,
    0x5c, 0xfa, 0xff, 0xff, 0x01, 0x00, 0x00, 0x00, 0x09, 0x00, 0x00, 0x00,
    0x03, 0x00, 0x00, 0x00, 0x00, 0x00, 0x00, 0x00, 0x05, 0x00, 0x00, 0x00,
    0x04, 0x00, 0x00, 0x00, 0x01, 0x00, 0x00, 0x00, 0x0f, 0x00, 0x00, 0x00,
    0x01, 0x00, 0x00, 0x00, 0x00, 0x00, 0x00, 0x00, 0x10, 0x00, 0x00, 0x00,
    0x50, 0x05, 0x00, 0x00, 0xe0, 0x04, 0x00, 0x00, 0x74, 0x04, 0x00, 0x00,
    0x18, 0x04, 0x00, 0x00, 0xbc, 0x03, 0x00, 0x00, 0x78, 0x03, 0x00, 0x00,
    0x30, 0x03, 0x00, 0x00, 0xe8, 0x02, 0x00, 0x00, 0xa0, 0x02, 0x00, 0x00,
    0x30, 0x02, 0x00, 0x00, 0xdc, 0x01, 0x00, 0x00, 0x68, 0x01, 0x00, 0x00,
    0x14, 0x01, 0x00, 0x00, 0xa0, 0x00, 0x00, 0x00, 0x4c, 0x00, 0x00, 0x00,
    0x04, 0x00, 0x00, 0x00, 0x04, 0xfb, 0xff, 0xff, 0x34, 0x00, 0x00, 0x00,
    0x10, 0x00, 0x00, 0x00, 0x1c, 0x00, 0x00, 0x00, 0x14, 0x00, 0x00, 0x00,
    0x04, 0x00, 0x00, 0x00, 0x02, 0x00, 0x00, 0x00, 0xff, 0xff, 0xff, 0xff,
    0x01, 0x00, 0x00, 0x00, 0xf0, 0xfa, 0xff, 0xff, 0x08, 0x00, 0x00, 0x00,
    0x49, 0x64, 0x65, 0x6e, 0x74, 0x69, 0x74, 0x79, 0x00, 0x00, 0x00, 0x00,
    0x02, 0x00, 0x00, 0x00, 0x01, 0x00, 0x00, 0x00, 0x01, 0x00, 0x00, 0x00,
    0x48, 0xfb, 0xff, 0xff, 0x40, 0x00, 0x00, 0x00, 0x0f, 0x00, 0x00, 0x00,
    0x1c, 0x00, 0x00, 0x00, 0x14, 0x00, 0x00, 0x00, 0x04, 0x00, 0x00, 0x00,
    0x02, 0x00, 0x00, 0x00, 0xff, 0xff, 0xff, 0xff, 0x04, 0x00, 0x00, 0x00,
    0x34, 0xfb, 0xff, 0xff, 0x17, 0x00, 0x00, 0x00, 0x73, 0x65, 0x71, 0x75,
    0x65, 0x6e, 0x74, 0x69, 0x61, 0x6c, 0x2f, 0x64, 0x65, 0x6e, 0x73, 0x65,
    0x5f, 0x32, 0x2f, 0x54, 0x61, 0x6e, 0x68, 0x00, 0x02, 0x00, 0x00, 0x00,
    0x01, 0x00, 0x00, 0x00, 0x04, 0x00, 0x00, 0x00, 0x98, 0xfb, 0xff, 0xff,
    0x60, 0x00, 0x00, 0x00, 0x0e, 0x00, 0x00, 0x00, 0x1c, 0x00, 0x00, 0x00,
    0x14, 0x00, 0x00, 0x00, 0x04, 0x00, 0x00, 0x00, 0x02, 0x00, 0x00, 0x00,
    0xff, 0xff, 0xff, 0xff, 0x04, 0x00, 0x00, 0x00, 0x84, 0xfb, 0xff, 0xff,
    0x34, 0x00, 0x00, 0x00, 0x73, 0x65, 0x71, 0x75, 0x65, 0x6e, 0x74, 0x69,
    0x61, 0x6c, 0x2f, 0x64, 0x65, 0x6e, 0x73, 0x65, 0x5f, 0x32, 0x2f, 0x4d,
    0x61, 0x74, 0x4d, 0x75, 0x6c, 0x3b, 0x73, 0x65, 0x71, 0x75, 0x65, 0x6e,
    0x74, 0x69, 0x61, 0x6c, 0x2f, 0x64, 0x65, 0x6e, 0x73, 0x65, 0x5f, 0x32,
    0x2f, 0x42, 0x69, 0x61, 0x73, 0x41, 0x64, 0x64, 0x00, 0x00, 0x00, 0x00,
    0x02, 0x00, 0x00, 0x00, 0x01, 0x00, 0x00, 0x00, 0x04, 0x00, 0x00, 0x00,
    0x08, 0xfc, 0xff, 0xff, 0x40, 0x00, 0x00, 0x00, 0x0d, 0x00, 0x00, 0x00,
    0x1c, 0x00, 0x00, 0x00, 0x14, 0x00, 0x00, 0x00, 0x04, 0x00, 0x00, 0x00,
    0x02, 0x00, 0x00, 0x00, 0xff, 0xff, 0xff, 0xff, 0x10, 0x00, 0x00, 0x00,
    0xf4, 0xfb, 0xff, 0xff, 0x17, 0x00, 0x00, 0x00, 0x73, 0x65, 0x71, 0x75,
    0x65, 0x6e, 0x74, 0x69, 0x61, 0x6c, 0x2f, 0x64, 0x65, 0x6e, 0x73, 0x65,
    0x5f, 0x31, 0x2f, 0x54, 0x61, 0x6e, 0x68, 0x00, 0x02, 0x00, 0x00, 0x00,
    0x01, 0x00, 0x00, 0x00, 0x10, 0x00, 0x00, 0x00, 0x58, 0xfc, 0xff, 0xff,
    0x60, 0x00, 0x00, 0x00, 0x0c, 0x00, 0x00, 0x00, 0x1c, 0x00, 0x00, 0x00,
    0x14, 0x00, 0x00, 0x00, 0x04, 0x00, 0x00, 0x00, 0x02, 0x00, 0x00, 0x00,
    0xff, 0xff, 0xff, 0xff, 0x10, 0x00, 0x00, 0x00, 0x44, 0xfc, 0xff, 0xff,
    0x34, 0x00, 0x00, 0x00, 0x73, 0x65, 0x71, 0x75, 0x65, 0x6e, 0x74, 0x69,
    0x61, 0x6c, 0x2f, 0x64, 0x65, 0x6e, 0x73, 0x65, 0x5f, 0x31, 0x2f, 0x4d,
    0x61, 0x74, 0x4d, 0x75, 0x6c, 0x3b, 0x73, 0x65, 0x71, 0x75, 0x65, 0x6e,
    0x74, 0x69, 0x61, 0x6c, 0x2f, 0x64, 0x65, 0x6e, 0x73, 0x65, 0x5f, 0x31,
    0x2f, 0x42, 0x69, 0x61, 0x73, 0x41, 0x64, 0x64, 0x00, 0x00, 0x00, 0x00,
    0x02, 0x00, 0x00, 0x00, 0x01, 0x00, 0x00, 0x00, 0x10, 0x00, 0x00, 0x00,
    0xc8, 0xfc, 0xff, 0xff, 0x40, 0x00, 0x00, 0x00, 0x0b, 0x00, 0x00, 0x00,
    0x1c, 0x00, 0x00, 0x00, 0x14, 0x00, 0x00, 0x00, 0x04, 0x00, 0x00, 0x00,
    0x02, 0x00, 0x00, 0x00, 0xff, 0xff, 0xff, 0xff, 0x04, 0x00, 0x00, 0x00,
    0xb4, 0xfc, 0xff, 0xff, 0x15, 0x00, 0x00, 0x00, 0x73, 0x65, 0x71, 0x75,
    0x65, 0x6e, 0x74, 0x69, 0x61, 0x6c, 0x2f, 0x64, 0x65, 0x6e, 0x73, 0x65,
    0x2f, 0x54, 0x61, 0x6e, 0x68, 0x00, 0x00, 0x00, 0x02, 0x00, 0x00, 0x00,
    0x01, 0x00, 0x00, 0x00, 0x04, 0x00, 0x00, 0x00, 0x18, 0xfd, 0xff, 0xff,
    0x5c, 0x00, 0x00, 0x00, 0x0a, 0x00, 0x00, 0x00, 0x1c, 0x00, 0x00, 0x00,
    0x14, 0x00, 0x00, 0x00, 0x04, 0x00, 0x00, 0x00, 0x02, 0x00, 0x00, 0x00,
    0xff, 0xff, 0xff, 0xff, 0x04, 0x00, 0x00, 0x00, 0x04, 0xfd, 0xff, 0xff,
    0x30, 0x00, 0x00, 0x00, 0x73, 0x65, 0x71, 0x75, 0x65, 0x6e, 0x74, 0x69,
    0x61, 0x6c, 0x2f, 0x64, 0x65, 0x6e, 0x73, 0x65, 0x2f, 0x4d, 0x61, 0x74,
    0x4d, 0x75, 0x6c, 0x3b, 0x73, 0x65, 0x71, 0x75, 0x65, 0x6e, 0x74, 0x69,
    0x61, 0x6c, 0x2f, 0x64, 0x65, 0x6e, 0x73, 0x65, 0x2f, 0x42, 0x69, 0x61,
    0x73, 0x41, 0x64, 0x64, 0x00, 0x00, 0x00, 0x00, 0x02, 0x00, 0x00, 0x00,
    0x01, 0x00, 0x00, 0x00, 0x04, 0x00, 0x00, 0x00, 0xea, 0xfd, 0xff, 0xff,
    0x34, 0x00, 0x00, 0x00, 0x09, 0x00, 0x00, 0x00, 0x0c, 0x00, 0x00, 0x00,
    0x04, 0x00, 0x00, 0x00, 0x60, 0xfd, 0xff, 0xff, 0x19, 0x00, 0x00, 0x00,
    0x73, 0x65, 0x71, 0x75, 0x65, 0x6e, 0x74, 0x69, 0x61, 0x6c, 0x2f, 0x64,
    0x65, 0x6e, 0x73, 0x65, 0x5f, 0x33, 0x2f, 0x4d, 0x61, 0x74, 0x4d, 0x75,
    0x6c, 0x00, 0x00, 0x00, 0x02, 0x00, 0x00, 0x00, 0x01, 0x00, 0x00, 0x00,
    0x04, 0x00, 0x00, 0x00, 0x2e, 0xfe, 0xff, 0xff, 0x34, 0x00, 0x00, 0x00,
    0x08, 0x00, 0x00, 0x00, 0x0c, 0x00, 0x00, 0x00, 0x04, 0x00, 0x00, 0x00,
    0xa4, 0xfd, 0xff, 0xff, 0x19, 0x00, 0x00, 0x00, 0x73, 0x65, 0x71, 0x75,
    0x65, 0x6e, 0x74, 0x69, 0x61, 0x6c, 0x2f, 0x64, 0x65, 0x6e, 0x73, 0x65,
    0x5f, 0x32, 0x2f, 0x4d, 0x61, 0x74, 0x4d, 0x75, 0x6c, 0x00, 0x00, 0x00,
    0x02, 0x00, 0x00, 0x00, 0x04, 0x00, 0x00, 0x00, 0x10, 0x00, 0x00, 0x00,
    0x72, 0xfe, 0xff, 0xff, 0x34, 0x00, 0x00, 0x00, 0x07, 0x00, 0x00, 0x00,
    0x0c, 0x00, 0x00, 0x00, 0x04, 0x00, 0x00, 0x00, 0xe8, 0xfd, 0xff, 0xff,
    0x19, 0x00, 0x00, 0x00, 0x73, 0x65, 0x71, 0x75, 0x65, 0x6e, 0x74, 0x69,
    0x61, 0x6c, 0x2f, 0x64, 0x65, 0x6e, 0x73, 0x65, 0x5f, 0x31, 0x2f, 0x4d,
    0x61, 0x74, 0x4d, 0x75, 0x6c, 0x00, 0x00, 0x00, 0x02, 0x00, 0x00, 0x00,
    0x10, 0x00, 0x00, 0x00, 0x04, 0x00, 0x00, 0x00, 0xb6, 0xfe, 0xff, 0xff,
    0x30, 0x00, 0x00, 0x00, 0x06, 0x00, 0x00, 0x00, 0x0c, 0x00, 0x00, 0x00,
    0x04, 0x00, 0x00, 0x00, 0x2c, 0xfe, 0xff, 0xff, 0x17, 0x00, 0x00, 0x00,
    0x73, 0x65, 0x71, 0x75, 0x65, 0x6e, 0x74, 0x69, 0x61, 0x6c, 0x2f, 0x64,
    0x65, 0x6e, 0x73, 0x65, 0x2f, 0x4d, 0x61, 0x74, 0x4d, 0x75, 0x6c, 0x00,
    0x02, 0x00, 0x00, 0x00, 0x04, 0x00, 0x00, 0x00, 0x01, 0x00, 0x00, 0x00,
    0xf6, 0xfe, 0xff, 0xff, 0x4c, 0x00, 0x00, 0x00, 0x05, 0x00, 0x00, 0x00,
    0x0c, 0x00, 0x00, 0x00, 0x04, 0x00, 0x00, 0x00, 0x6c, 0xfe, 0xff, 0xff,
    0x30, 0x00, 0x00, 0x00, 0x73, 0x65, 0x71, 0x75, 0x65, 0x6e, 0x74, 0x69,
    0x61, 0x6c, 0x2f, 0x64, 0x65, 0x6e, 0x73, 0x65, 0x2f, 0x42, 0x69, 0x61,
    0x73, 0x41, 0x64, 0x64, 0x2f, 0x52, 0x65, 0x61, 0x64, 0x56, 0x61, 0x72,
    0x69, 0x61, 0x62, 0x6c, 0x65, 0x4f, 0x70, 0x2f, 0x72, 0x65, 0x73, 0x6f,
    0x75, 0x72, 0x63, 0x65, 0x00, 0x00, 0x00, 0x00, 0x01, 0x00, 0x00, 0x00,
    0x04, 0x00, 0x00, 0x00, 0x4e, 0xff, 0xff, 0xff, 0x4c, 0x00, 0x00, 0x00,
    0x04, 0x00, 0x00, 0x00, 0x0c, 0x00, 0x00, 0x00, 0x04, 0x00, 0x00, 0x00,
    0xc4, 0xfe, 0xff, 0xff, 0x32, 0x00, 0x00, 0x00, 0x73, 0x65, 0x71, 0x75,
    0x65, 0x6e, 0x74, 0x69, 0x61, 0x6c, 0x2f, 0x64, 0x65, 0x6e, 0x73, 0x65,
    0x5f, 0x31, 0x2f, 0x42, 0x69, 0x61, 0x73, 0x41, 0x64, 0x64, 0x2f, 0x52,
    0x65, 0x61, 0x64, 0x56, 0x61, 0x72, 0x69, 0x61, 0x62, 0x6c, 0x65, 0x4f,
    0x70, 0x2f, 0x72, 0x65, 0x73, 0x6f, 0x75, 0x72, 0x63, 0x65, 0x00, 0x00,
    0x01, 0x00, 0x00, 0x00, 0x10, 0x00, 0x00, 0x00, 0xa6, 0xff, 0xff, 0xff,
    0x4c, 0x00, 0x00, 0x00, 0x03, 0x00, 0x00, 0x00, 0x0c, 0x00, 0x00, 0x00,
    0x04, 0x00, 0x00, 0x00, 0x1c, 0xff, 0xff, 0xff, 0x32, 0x00, 0x00, 0x00,
    0x73, 0x65, 0x71, 0x75, 0x65, 0x6e, 0x74, 0x69, 0x61, 0x6c, 0x2f, 0x64,
    0x65, 0x6e, 0x73, 0x65, 0x5f, 0x32, 0x2f, 0x42, 0x69, 0x61, 0x73, 0x41,
    0x64, 0x64, 0x2f, 0x52, 0x65, 0x61, 0x64, 0x56, 0x61, 0x72, 0x69, 0x61,
    0x62, 0x6c, 0x65, 0x4f, 0x70, 0x2f, 0x72, 0x65, 0x73, 0x6f, 0x75, 0x72,
    0x63, 0x65, 0x00, 0x00, 0x01, 0x00, 0x00, 0x00, 0x04, 0x00, 0x00, 0x00,
    0x00, 0x00, 0x0e, 0x00, 0x14, 0x00, 0x04, 0x00, 0x00, 0x00, 0x08, 0x00,
    0x0c, 0x00, 0x10, 0x00, 0x0e, 0x00, 0x00, 0x00, 0x4c, 0x00, 0x00, 0x00,
    0x02, 0x00, 0x00, 0x00, 0x0c, 0x00, 0x00, 0x00, 0x04, 0x00, 0x00, 0x00,
    0x84, 0xff, 0xff, 0xff, 0x32, 0x00, 0x00, 0x00, 0x73, 0x65, 0x71, 0x75,
    0x65, 0x6e, 0x74, 0x69, 0x61, 0x6c, 0x2f, 0x64, 0x65, 0x6e, 0x73, 0x65,
    0x5f, 0x33, 0x2f, 0x42, 0x69, 0x61, 0x73, 0x41, 0x64, 0x64, 0x2f, 0x52,
    0x65, 0x61, 0x64, 0x56, 0x61, 0x72, 0x69, 0x61, 0x62, 0x6c, 0x65, 0x4f,
    0x70, 0x2f, 0x72, 0x65, 0x73, 0x6f, 0x75, 0x72, 0x63, 0x65, 0x00, 0x00,
    0x01, 0x00, 0x00, 0x00, 0x01, 0x00, 0x00, 0x00, 0x14, 0x00, 0x18, 0x00,
    0x04, 0x00, 0x00, 0x00, 0x08, 0x00, 0x0c, 0x00, 0x10, 0x00, 0x00, 0x00,
    0x00, 0x00, 0x14, 0x00, 0x14, 0x00, 0x00, 0x00, 0x38, 0x00, 0x00, 0x00,
    0x01, 0x00, 0x00, 0x00, 0x20, 0x00, 0x00, 0x00, 0x18, 0x00, 0x00, 0x00,
    0x04, 0x00, 0x00, 0x00, 0x02, 0x00, 0x00, 0x00, 0xff, 0xff, 0xff, 0xff,
    0x01, 0x00, 0x00, 0x00, 0x04, 0x00, 0x04, 0x00, 0x04, 0x00, 0x00, 0x00,
    0x0b, 0x00, 0x00, 0x00, 0x64, 0x65, 0x6e, 0x73, 0x65, 0x5f, 0x69, 0x6e,
    0x70, 0x75, 0x74, 0x00, 0x02, 0x00, 0x00, 0x00, 0x01, 0x00, 0x00, 0x00,
    0x01, 0x00, 0x00, 0x00, 0x02, 0x00, 0x00, 0x00, 0x2c, 0x00, 0x00, 0x00,
    0x10, 0x00, 0x00, 0x00, 0x0c, 0x00, 0x0c, 0x00, 0x07, 0x00, 0x00, 0x00,
    0x00, 0x00, 0x08, 0x00, 0x0c, 0x00, 0x00, 0x00, 0x00, 0x00, 0x00, 0x1c,
    0x1c, 0x00, 0x00, 0x00, 0x0c, 0x00, 0x10, 0x00, 0x07, 0x00, 0x00, 0x00,
    0x08, 0x00, 0x0c, 0x00, 0x0c, 0x00, 0x00, 0x00, 0x00, 0x00, 0x00, 0x09,
    0x09, 0x00, 0x00, 0x00, 0x09, 0x00, 0x00, 0x00};

#endif //SINE_MODEL_H