unsigned char g_model[] = {
  0x1c, 0x00, 0x00, 0x00, 0x54, 0x46, 0x4c, 0x33, 0x00, 0x00, 0x12, 0x00,
  0x1c, 0x00, 0x18, 0x00, 0x14, 0x00, 0x10, 0x00, 0x0c, 0x00, 0x08, 0x00,
  0x00, 0x00, 0x04, 0x00, 0x12, 0x00, 0x00, 0x00, 0x18, 0x00, 0x00, 0x00,
  0x48, 0x00, 0x00, 0x00, 0xc8, 0x29, 0x00, 0x00, 0xd8, 0x29, 0x00, 0x00,
  0xa4, 0x34, 0x00, 0x00, 0x03, 0x00, 0x00, 0x00, 0x01, 0x00, 0x00, 0x00,
  0x0c, 0x00, 0x00, 0x00, 0x08, 0x00, 0x0c, 0x00, 0x08, 0x00, 0x04, 0x00,
  0x08, 0x00, 0x00, 0x00, 0x11, 0x00, 0x00, 0x00, 0x04, 0x00, 0x00, 0x00,
  0x13, 0x00, 0x00, 0x00, 0x6d, 0x69, 0x6e, 0x5f, 0x72, 0x75, 0x6e, 0x74,
  0x69, 0x6d, 0x65, 0x5f, 0x76, 0x65, 0x72, 0x73, 0x69, 0x6f, 0x6e, 0x00,
  0x12, 0x00, 0x00, 0x00, 0x7c, 0x29, 0x00, 0x00, 0x74, 0x29, 0x00, 0x00,
  0xe4, 0x28, 0x00, 0x00, 0x8c, 0x28, 0x00, 0x00, 0x3c, 0x28, 0x00, 0x00,
  0xac, 0x27, 0x00, 0x00, 0x9c, 0x25, 0x00, 0x00, 0x8c, 0x15, 0x00, 0x00,
  0x7c, 0x13, 0x00, 0x00, 0x6c, 0x12, 0x00, 0x00, 0x5c, 0x10, 0x00, 0x00,
  0x4c, 0x00, 0x00, 0x00, 0x44, 0x00, 0x00, 0x00, 0x3c, 0x00, 0x00, 0x00,
  0x34, 0x00, 0x00, 0x00, 0x2c, 0x00, 0x00, 0x00, 0x24, 0x00, 0x00, 0x00,
  0x04, 0x00, 0x00, 0x00, 0x62, 0xd7, 0xff, 0xff, 0x04, 0x00, 0x00, 0x00,
  0x10, 0x00, 0x00, 0x00, 0x31, 0x2e, 0x35, 0x2e, 0x30, 0x00, 0x00, 0x00,
  0x00, 0x00, 0x00, 0x00, 0x00, 0x00, 0x00, 0x00, 0x68, 0xd6, 0xff, 0xff,
  0x6c, 0xd6, 0xff, 0xff, 0x70, 0xd6, 0xff, 0xff, 0x74, 0xd6, 0xff, 0xff,
  0x78, 0xd6, 0xff, 0xff, 0x92, 0xd7, 0xff, 0xff, 0x04, 0x00, 0x00, 0x00,
  0x00, 0x10, 0x00, 0x00, 0xdc, 0x01, 0x04, 0x0a, 0x1d, 0x00, 0x0c, 0x09,
  0xfe, 0x15, 0x15, 0xe6, 0xfa, 0x00, 0x1f, 0xf9, 0xea, 0xde, 0x14, 0xfe,
  0xe3, 0x0a, 0xf5, 0x09, 0x03, 0x1b, 0xf8, 0xf9, 0x0d, 0x1a, 0xf6, 0x0b,
  0xf7, 0xfd, 0xf5, 0x06, 0x14, 0x1d, 0x08, 0xea, 0xfe, 0x0d, 0x15, 0x16,
  0x0e, 0xf7, 0xde, 0x1b, 0xeb, 0x06, 0xf7, 0xda, 0x09, 0x04, 0xf6, 0xf0,
  0x15, 0x02, 0x01, 0x1a, 0x06, 0x16, 0x0b, 0x0b, 0x0d, 0x05, 0x06, 0xfe,
  0x11, 0xf5, 0xfe, 0xf7, 0x1c, 0xe9, 0xfc, 0x04, 0x1b, 0x01, 0x08, 0x08,
  0xfc, 0xf2, 0xf2, 0xf8, 0x10, 0x07, 0xf1, 0x0c, 0x0c, 0x0a, 0x1e, 0xfc,
  0xe8, 0xec, 0xe7, 0xe8, 0xea, 0x19, 0x08, 0xec, 0x18, 0xfd, 0xf4, 0xfb,
  0xfb, 0xe2, 0xe3, 0xed, 0x10, 0xf0, 0x16, 0xee, 0x0d, 0x12, 0x0f, 0xfd,
  0x15, 0xe5, 0xe8, 0x15, 0x0f, 0x00, 0x08, 0xf8, 0xea, 0x19, 0xef, 0xf3,
  0xf7, 0xd9, 0xf5, 0x10, 0xf5, 0xfe, 0x27, 0xc9, 0x0c, 0x1e, 0xe4, 0xf2,
  0x20, 0x0a, 0x08, 0x0b, 0x06, 0x15, 0x11, 0x1b, 0xff, 0x0a, 0xe5, 0x13,
  0xee, 0x0e, 0x15, 0xf0, 0xfb, 0xea, 0xf7, 0x15, 0x16, 0xf2, 0x10, 0x45,
  0xf7, 0xfa, 0x22, 0xfa, 0x29, 0xf1, 0xe5, 0xee, 0xe5, 0xed, 0xf7, 0x23,
  0x00, 0x00, 0xfb, 0xec, 0x14, 0x22, 0x20, 0x1b, 0x26, 0x0b, 0x1b, 0x22,
  0x15, 0x16, 0xf0, 0xe6, 0x19, 0xf7, 0x00, 0xf7, 0x19, 0xe3, 0xe7, 0xe4,
  0x10, 0xfb, 0x07, 0x22, 0xfd, 0xf9, 0x1d, 0x0d, 0x0e, 0xed, 0xea, 0x20,
  0x1d, 0xff, 0xe8, 0xfc, 0xf2, 0x22, 0x16, 0xf7, 0xe1, 0x1a, 0x1a, 0xf0,
  0xf4, 0x08, 0xfe, 0xfd, 0x02, 0xf1, 0x03, 0xec, 0x04, 0x11, 0x0b, 0x05,
  0x02, 0x03, 0x07, 0x00, 0xeb, 0xf9, 0x05, 0xdf, 0x1a, 0xf9, 0xfb, 0xf7,
  0x0c, 0x0b, 0xf3, 0x06, 0xe0, 0xff, 0x13, 0xf2, 0xfa, 0x10, 0x08, 0xfe,
  0x0c, 0x01, 0xfc, 0x14, 0xfe, 0x0b, 0x0f, 0x11, 0x0b, 0xfd, 0x03, 0xe4,
  0xe6, 0x0c, 0x10, 0x14, 0xf9, 0xfa, 0xf6, 0x04, 0x00, 0x06, 0xe6, 0xe8,
  0xdd, 0xf2, 0xe8, 0xf9, 0x10, 0x13, 0x09, 0x1e, 0xf9, 0x1a, 0xf2, 0xf2,
  0x0b, 0xf5, 0x1a, 0x14, 0x12, 0x08, 0x05, 0xf7, 0x25, 0xf2, 0xf8, 0xf3,
  0xfb, 0xe1, 0x16, 0xe8, 0x15, 0xfd, 0x01, 0x10, 0xfc, 0x1c, 0x00, 0x21,
  0x24, 0xe6, 0xf1, 0x1c, 0xed, 0x1c, 0xf8, 0x17, 0xff, 0x0d, 0xe8, 0x01,
  0xea, 0x08, 0x18, 0x09, 0x02, 0xe7, 0x11, 0xed, 0xe3, 0x0f, 0x15, 0xea,
  0x1b, 0x05, 0x13, 0x05, 0xe4, 0xe3, 0x07, 0x06, 0xe9, 0x0c, 0xec, 0x1d,
  0xe4, 0xe1, 0x19, 0x14, 0xf5, 0x1d, 0xfd, 0x16, 0xf7, 0x1e, 0xfe, 0xff,
  0xe4, 0xdb, 0x1f, 0xe3, 0xe1, 0x1e, 0xef, 0xf1, 0xe9, 0xf7, 0xe3, 0x1d,
  0x08, 0x0e, 0xfa, 0x00, 0xea, 0xfd, 0x05, 0xf4, 0xef, 0xf4, 0x00, 0xf4,
  0xfc, 0x02, 0x17, 0x11, 0x08, 0x02, 0xf7, 0x0f, 0xf2, 0xf9, 0xe8, 0xfc,
  0x03, 0x0f, 0xf7, 0x0c, 0xee, 0xf8, 0x03, 0x03, 0x21, 0xec, 0xfe, 0x0d,
  0x20, 0xeb, 0xf6, 0x13, 0x01, 0xdf, 0xee, 0xfc, 0xeb, 0xf6, 0x11, 0x04,
  0x07, 0x06, 0x07, 0x08, 0xf1, 0x15, 0x05, 0x0a, 0xea, 0xfc, 0xf9, 0xe3,
  0x1a, 0xf7, 0x1f, 0xfb, 0x05, 0xfd, 0x09, 0xf1, 0xfd, 0xe3, 0x04, 0xee,
  0xf6, 0x14, 0xfd, 0x03, 0x1f, 0x1f, 0x10, 0xde, 0xf5, 0xfb, 0xfb, 0xf7,
  0xec, 0xff, 0x1e, 0x19, 0xe0, 0x0d, 0xfc, 0x14, 0xef, 0x0e, 0x0a, 0x18,
  0x18, 0x16, 0x00, 0x10, 0xfb, 0xec, 0x03, 0xf8, 0x0f, 0x15, 0xf4, 0xf5,
  0xfe, 0xf9, 0xfb, 0xdf, 0x0c, 0x08, 0xe1, 0x13, 0x05, 0xdd, 0x1a, 0x08,
  0xe5, 0xee, 0x18, 0x0a, 0xef, 0x0d, 0xff, 0xee, 0xe1, 0x11, 0xf9, 0x09,
  0x1f, 0x13, 0x0f, 0x0e, 0x04, 0x08, 0x12, 0xeb, 0x03, 0x16, 0xe6, 0x20,
  0xfa, 0xef, 0x1b, 0xfa, 0x04, 0x06, 0x02, 0xe8, 0xe7, 0x10, 0x17, 0xeb,
  0x0f, 0xe6, 0xf8, 0x1d, 0xe4, 0xf2, 0x1b, 0xe6, 0xe0, 0xee, 0x14, 0x11,
  0xed, 0x1e, 0xe5, 0x23, 0x0f, 0x0a, 0x1b, 0xe9, 0xed, 0xee, 0xfb, 0xf1,
  0x1e, 0x20, 0xf4, 0xfc, 0xf5, 0x18, 0x21, 0xff, 0x11, 0x1e, 0x16, 0x0c,
  0xed, 0x12, 0xf3, 0xf4, 0xe0, 0x1d, 0xe0, 0xf6, 0xfc, 0x11, 0x12, 0xbd,
  0xfa, 0x1f, 0x1f, 0x04, 0x03, 0xe8, 0x1c, 0x25, 0x0a, 0xfe, 0xf7, 0xdf,
  0x16, 0xf0, 0x14, 0xfb, 0xf8, 0xf5, 0x16, 0x19, 0xef, 0xe6, 0x14, 0xee,
  0x1b, 0x18, 0xf3, 0x19, 0x15, 0x27, 0x22, 0xb6, 0xf3, 0xfe, 0xf2, 0x08,
  0xf8, 0x1f, 0x16, 0xfa, 0xfd, 0x11, 0x1e, 0xe3, 0xe7, 0x1b, 0xeb, 0xdb,
  0xe4, 0x1d, 0x23, 0x0f, 0x0e, 0xef, 0x11, 0x19, 0xff, 0xff, 0xfb, 0x0e,
  0x0d, 0x11, 0x05, 0xf6, 0xf8, 0x06, 0x1b, 0xeb, 0x24, 0x06, 0x1b, 0x26,
  0x29, 0xee, 0x14, 0xe3, 0x1b, 0x08, 0x07, 0x08, 0xea, 0xed, 0x0d, 0x22,
  0x24, 0x26, 0xf4, 0x24, 0x04, 0x20, 0x04, 0x52, 0x11, 0xef, 0x1d, 0x1d,
  0x03, 0x19, 0x24, 0x11, 0x35, 0xf5, 0xe1, 0x18, 0xe3, 0x00, 0xeb, 0x20,
  0xf6, 0x28, 0x14, 0x27, 0xf3, 0x0a, 0x15, 0x06, 0x00, 0xed, 0x38, 0x19,
  0xef, 0x1d, 0x04, 0x03, 0xfa, 0xe2, 0x13, 0x3a, 0xf8, 0xef, 0x18, 0xfd,
  0x24, 0xe3, 0xf8, 0xe4, 0x26, 0xe7, 0x00, 0x09, 0xf9, 0x09, 0x1d, 0x38,
  0x14, 0x10, 0x28, 0xf4, 0x01, 0x22, 0x1f, 0x24, 0x04, 0x04, 0x30, 0x3d,
  0x1e, 0xf4, 0xfe, 0x7f, 0x10, 0x1e, 0xf9, 0xe8, 0x65, 0x01, 0xe4, 0xea,
  0xe2, 0x02, 0xe1, 0x05, 0xf1, 0xfb, 0xf9, 0x69, 0xe8, 0x18, 0x24, 0xed,
  0xe3, 0x0d, 0x73, 0xe5, 0x22, 0x34, 0xf2, 0x22, 0x07, 0xe3, 0x18, 0x53,
  0x1b, 0xe6, 0xed, 0xeb, 0x52, 0xfe, 0xe8, 0x05, 0x09, 0xf4, 0xeb, 0x1f,
  0xf2, 0xf1, 0x23, 0x4e, 0x23, 0xe7, 0xfb, 0x11, 0x01, 0xf3, 0x67, 0xf0,
  0x20, 0xfd, 0x1f, 0x01, 0x0f, 0x10, 0x16, 0xef, 0xea, 0x16, 0xf7, 0xf0,
  0xe3, 0x10, 0xf4, 0x20, 0xf3, 0x11, 0x18, 0x23, 0x24, 0x02, 0xef, 0x1d,
  0xf5, 0x14, 0xe2, 0xf5, 0x20, 0x16, 0x1b, 0xe1, 0xde, 0xe0, 0x09, 0xf3,
  0x09, 0xdb, 0x1b, 0x07, 0x1a, 0xf1, 0xeb, 0x18, 0xf5, 0x1a, 0xf8, 0xfe,
  0x08, 0x0c, 0x1f, 0xf4, 0x21, 0xe4, 0x07, 0x19, 0x16, 0xf5, 0x1e, 0xf6,
  0x1b, 0x15, 0xfb, 0x18, 0x18, 0xfc, 0x19, 0x32, 0x26, 0xe4, 0xe7, 0xff,
  0x08, 0xe1, 0x0a, 0xf2, 0xfd, 0xf3, 0x0d, 0x10, 0x17, 0x09, 0x19, 0xe9,
  0xe2, 0x05, 0x1c, 0xfe, 0xdf, 0xed, 0xe8, 0x16, 0x19, 0x14, 0xfb, 0x13,
  0xef, 0x0a, 0x28, 0x04, 0x02, 0x09, 0x06, 0xe8, 0x16, 0x1a, 0x17, 0xea,
  0x1a, 0xe5, 0xf1, 0xe1, 0x07, 0x01, 0xec, 0xfa, 0x20, 0xe0, 0xeb, 0x38,
  0x11, 0xf9, 0xe8, 0x18, 0x02, 0x1e, 0x07, 0xf6, 0x23, 0xf0, 0xe8, 0x0b,
  0x20, 0xed, 0x13, 0x02, 0xfe, 0x1c, 0x21, 0xed, 0xec, 0x26, 0x1e, 0x0f,
  0x00, 0x16, 0xef, 0xfe, 0x03, 0x15, 0x14, 0x0b, 0x1f, 0xf8, 0x11, 0x04,
  0xe5, 0x26, 0x1a, 0xe3, 0xfe, 0xf2, 0x1f, 0x03, 0x23, 0x05, 0x17, 0xf4,
  0xfb, 0xe8, 0xf0, 0xee, 0xea, 0x05, 0xe2, 0x12, 0xec, 0xf4, 0x0f, 0x0a,
  0x11, 0xe8, 0xf7, 0x1d, 0xe3, 0xe8, 0x00, 0xff, 0x02, 0x26, 0x11, 0xe2,
  0x1c, 0xe6, 0x1b, 0x22, 0x28, 0xfa, 0xf4, 0xf4, 0xe4, 0xfa, 0x07, 0x19,
  0x03, 0x13, 0xf8, 0xe2, 0xe2, 0x04, 0xfb, 0x01, 0xf3, 0x09, 0x1c, 0xf7,
  0x13, 0x07, 0x0d, 0xe0, 0xe4, 0xf9, 0x14, 0x1e, 0x1a, 0x08, 0x06, 0x14,
  0x05, 0xf7, 0x1b, 0x03, 0x0a, 0x12, 0xe1, 0x12, 0xff, 0x13, 0xf5, 0x17,
  0x1b, 0xe8, 0x27, 0x1c, 0xf7, 0xf3, 0x01, 0xfe, 0x17, 0xec, 0xe7, 0x16,
  0x21, 0xfd, 0x04, 0x06, 0xfa, 0xf4, 0xf2, 0x17, 0x0f, 0x12, 0x20, 0xde,
  0xea, 0x09, 0xee, 0x14, 0x19, 0x0a, 0xf2, 0xfc, 0xfc, 0x16, 0xe8, 0xde,
  0x10, 0x07, 0x1a, 0xea, 0x0e, 0x12, 0x12, 0x01, 0x15, 0xfb, 0xfd, 0x08,
  0xe3, 0x06, 0x1e, 0x09, 0xe7, 0xeb, 0xe0, 0x10, 0x26, 0xe1, 0x19, 0x01,
  0xee, 0x06, 0x07, 0xfb, 0xe6, 0xe4, 0xec, 0x09, 0x14, 0xe9, 0x14, 0xe0,
  0xe0, 0xf2, 0x10, 0xe2, 0xed, 0x1f, 0x14, 0xed, 0xe0, 0x0e, 0x18, 0xea,
  0x1f, 0xf9, 0xeb, 0x1d, 0xef, 0xed, 0xec, 0xf1, 0x1b, 0xe1, 0x19, 0x17,
  0xe4, 0xfe, 0xf0, 0xfe, 0xe6, 0xe2, 0xf4, 0x0a, 0xe6, 0xf2, 0xfd, 0x12,
  0x1f, 0x22, 0xd8, 0xf5, 0xf6, 0x1a, 0xe3, 0x13, 0xeb, 0x1f, 0x21, 0x06,
  0xf9, 0x05, 0xef, 0xea, 0x13, 0xfb, 0x12, 0x14, 0xfe, 0xe3, 0x01, 0xfc,
  0x1e, 0x08, 0x0f, 0xf5, 0xde, 0x0a, 0x1a, 0xe0, 0x05, 0xf8, 0xef, 0x02,
  0xed, 0xe6, 0xfd, 0x15, 0x16, 0xe0, 0x15, 0xea, 0x04, 0x1f, 0x23, 0x11,
  0x11, 0xe3, 0xe1, 0xee, 0xde, 0x07, 0xfc, 0x11, 0x16, 0x03, 0x25, 0xe6,
  0x0c, 0x16, 0x0d, 0xf0, 0xf0, 0x15, 0x08, 0xf3, 0x20, 0x03, 0xec, 0x1a,
  0xf3, 0x17, 0x0f, 0xc4, 0xef, 0x08, 0x08, 0xfa, 0xe9, 0x00, 0x06, 0x24,
  0x1a, 0x16, 0x24, 0x03, 0x00, 0x02, 0xea, 0x07, 0x07, 0xeb, 0xec, 0x04,
  0xfd, 0x0d, 0x1d, 0xf2, 0x03, 0x07, 0x1e, 0x05, 0x13, 0xfe, 0xde, 0xdf,
  0xf9, 0x03, 0x16, 0xf4, 0x1f, 0x1c, 0x0a, 0xea, 0x25, 0x0f, 0x0a, 0xe9,
  0xe2, 0x00, 0xe2, 0xf2, 0x0d, 0xf4, 0xf5, 0x13, 0xfb, 0xea, 0x01, 0xe0,
  0xe5, 0xf5, 0x08, 0xf7, 0x18, 0x14, 0xfa, 0x0f, 0x07, 0xfe, 0x05, 0x0c,
  0xef, 0x08, 0x0e, 0x20, 0xff, 0x11, 0xe7, 0x02, 0x14, 0x1d, 0x01, 0xf0,
  0x04, 0xff, 0x06, 0x16, 0x1c, 0xe6, 0x12, 0xf7, 0x0d, 0xf0, 0x08, 0xe8,
  0x05, 0xf2, 0x0f, 0xf3, 0xec, 0x21, 0xf4, 0xf0, 0xf4, 0xe2, 0xe1, 0x0f,
  0xf0, 0x20, 0x21, 0xed, 0xe0, 0xfe, 0xe4, 0x20, 0xfb, 0x17, 0x11, 0xeb,
  0x11, 0xea, 0x09, 0x1e, 0xe3, 0x02, 0xe8, 0x27, 0x29, 0x04, 0x12, 0xf8,
  0xdf, 0xe8, 0x12, 0xe0, 0xe0, 0x1d, 0xed, 0x0a, 0x1b, 0x02, 0xfb, 0x04,
  0x0c, 0x17, 0x0b, 0x05, 0xf7, 0x0c, 0xec, 0xe3, 0xf3, 0x02, 0x1e, 0xee,
  0xfb, 0x14, 0xe8, 0x20, 0xfc, 0x23, 0xe9, 0x07, 0x01, 0x02, 0x21, 0x09,
  0x12, 0x21, 0x04, 0xe2, 0xea, 0xf0, 0x0d, 0xf7, 0xea, 0xe2, 0xea, 0xe7,
  0x11, 0x22, 0x10, 0xdc, 0xf1, 0xe0, 0xf4, 0x18, 0x1b, 0x12, 0xf1, 0x01,
  0xef, 0xec, 0x0b, 0x01, 0x18, 0xf8, 0x07, 0x10, 0xfa, 0x09, 0xf7, 0x14,
  0xec, 0xf4, 0x24, 0x14, 0x0e, 0xf9, 0xea, 0x02, 0x15, 0x19, 0x10, 0xfe,
  0x0f, 0xfb, 0x03, 0xe2, 0xf1, 0xf2, 0x14, 0x15, 0x18, 0x05, 0x0c, 0xf4,
  0x22, 0x01, 0xfa, 0xf8, 0x0d, 0xfe, 0xf2, 0xfd, 0xe9, 0xfa, 0xf6, 0x04,
  0xe1, 0x1e, 0xe3, 0x04, 0xdd, 0x1d, 0x0e, 0xf4, 0xf8, 0x0e, 0xf7, 0x1e,
  0x05, 0xe5, 0x24, 0x1a, 0x1f, 0xe7, 0x11, 0xff, 0xf2, 0xfd, 0xfe, 0xfd,
  0x1a, 0x26, 0xf9, 0x12, 0xf2, 0x0f, 0x18, 0x0e, 0xea, 0xe7, 0xe5, 0x02,
  0x11, 0x16, 0xe9, 0xfd, 0x05, 0xf1, 0xee, 0xe1, 0xe8, 0xfe, 0x02, 0x1b,
  0x1f, 0x15, 0x15, 0xe7, 0xdd, 0x0a, 0xf2, 0x19, 0x1e, 0x04, 0x06, 0x14,
  0xeb, 0xf8, 0x00, 0x0e, 0x1b, 0x03, 0xfb, 0xfd, 0x1e, 0x18, 0xf9, 0xe3,
  0x15, 0xfd, 0x09, 0x01, 0xfb, 0xf0, 0xff, 0x03, 0x00, 0xed, 0x04, 0x05,
  0xef, 0xf7, 0x1a, 0xed, 0x03, 0x09, 0x15, 0xe2, 0xe1, 0x0b, 0xeb, 0xf9,
  0xe2, 0xf7, 0xed, 0x0f, 0x25, 0x0e, 0xf9, 0xf4, 0xf0, 0xf4, 0xf3, 0xe7,
  0xf3, 0xfd, 0x1f, 0x01, 0x0a, 0x01, 0xf6, 0x05, 0xfc, 0xe7, 0xf8, 0x07,
  0xfd, 0xe7, 0x0c, 0x15, 0x03, 0x04, 0xfe, 0x18, 0xfb, 0xf9, 0x04, 0x13,
  0xf9, 0x08, 0x13, 0xed, 0xe4, 0xe5, 0xf3, 0x0c, 0xe5, 0x20, 0xff, 0xff,
  0xe7, 0x13, 0x12, 0xf9, 0xf6, 0x07, 0xe9, 0x18, 0x05, 0x07, 0xea, 0xf3,
  0xef, 0x0d, 0x12, 0xe0, 0xf8, 0xf5, 0x14, 0x09, 0xf7, 0x0e, 0xe5, 0xe1,
  0x21, 0xe5, 0xfc, 0xf3, 0x18, 0xed, 0x04, 0xf0, 0x0d, 0x08, 0x29, 0x0e,
  0xdf, 0xf6, 0xf7, 0x24, 0x1a, 0xf1, 0x12, 0x1b, 0xf5, 0xf2, 0x04, 0xe5,
  0x23, 0xf5, 0x18, 0xf0, 0x19, 0x0c, 0xfe, 0x03, 0x0f, 0x08, 0x07, 0xf0,
  0x15, 0xec, 0x1b, 0x21, 0x11, 0xf8, 0x1b, 0x1b, 0x15, 0xe7, 0xfa, 0x1f,
  0x13, 0x1f, 0xfe, 0xe4, 0xe7, 0x0b, 0xfb, 0x1d, 0x22, 0x03, 0x02, 0xfe,
  0xec, 0x05, 0x25, 0x22, 0xf1, 0xf7, 0xee, 0xf2, 0xf6, 0xfc, 0x1d, 0xf3,
  0x1e, 0xf0, 0xfe, 0x03, 0x1d, 0x0d, 0xe0, 0xfd, 0x0b, 0x01, 0xe4, 0xec,
  0x1e, 0xf8, 0xfd, 0x0b, 0x10, 0xe2, 0xfe, 0xf4, 0x11, 0x15, 0x06, 0x14,
  0xfd, 0xf4, 0x03, 0x18, 0x1f, 0xf6, 0xef, 0x02, 0x08, 0x0e, 0x1a, 0xf3,
  0x0e, 0x01, 0xf7, 0xeb, 0xff, 0xed, 0x1b, 0x10, 0xed, 0x0f, 0x14, 0xe0,
  0xf6, 0xe8, 0x06, 0xf9, 0xf2, 0xea, 0xf2, 0x06, 0x0c, 0xee, 0x0d, 0x1e,
  0xed, 0xfd, 0x06, 0x07, 0x08, 0x19, 0x07, 0xfe, 0x17, 0x05, 0x0b, 0xe7,
  0x0a, 0x03, 0xe7, 0xf9, 0xf1, 0x19, 0xfb, 0xe1, 0xde, 0x17, 0xf7, 0x13,
  0x10, 0x0a, 0xfe, 0x14, 0x1d, 0xf0, 0xea, 0xf0, 0x24, 0xf9, 0xe9, 0xf6,
  0x23, 0xf8, 0x1b, 0xe5, 0x02, 0xee, 0xe1, 0xec, 0xfe, 0x13, 0x15, 0xfe,
  0xfc, 0x25, 0xe6, 0xe0, 0x20, 0x04, 0xe4, 0xfb, 0xe3, 0xe6, 0x08, 0x1e,
  0xfd, 0x04, 0x1b, 0xea, 0xe3, 0xf9, 0x19, 0xec, 0x1a, 0x12, 0xea, 0xf2,
  0x09, 0xe8, 0xef, 0x1c, 0x0e, 0xf6, 0xee, 0x02, 0x09, 0x0f, 0x17, 0x1f,
  0x0c, 0xde, 0x21, 0xff, 0x19, 0xdc, 0xf0, 0x21, 0xe3, 0xe4, 0x05, 0x05,
  0x04, 0xfa, 0xf1, 0x03, 0x0f, 0x0a, 0x12, 0xf3, 0xf8, 0x16, 0xfc, 0x04,
  0x07, 0xed, 0xf2, 0xfe, 0x05, 0xf0, 0xec, 0xf4, 0xe8, 0x03, 0x03, 0xfa,
  0xf0, 0xf7, 0x0b, 0xe3, 0x1b, 0x05, 0x05, 0x18, 0x03, 0x11, 0xff, 0x06,
  0xe6, 0xe4, 0x06, 0x0b, 0x07, 0x0d, 0x21, 0x21, 0x00, 0xf3, 0x0e, 0xec,
  0xfd, 0xe4, 0x15, 0xe0, 0xef, 0x14, 0x0c, 0xf6, 0xed, 0xfd, 0xf0, 0xe8,
  0xe0, 0xee, 0xfe, 0xf3, 0x1b, 0x11, 0x15, 0x08, 0xf9, 0xf1, 0xe5, 0x00,
  0x1a, 0x09, 0x17, 0x13, 0x15, 0xfa, 0xf3, 0xf4, 0x0a, 0xe2, 0x0b, 0x07,
  0x1b, 0xfa, 0xe3, 0xff, 0xf7, 0x05, 0xf4, 0x20, 0x0f, 0x14, 0xec, 0x05,
  0xeb, 0xed, 0xfe, 0xfe, 0x1e, 0x18, 0x03, 0xf8, 0xf3, 0xe1, 0x1e, 0xee,
  0xec, 0x03, 0xde, 0x16, 0xeb, 0x1d, 0x1a, 0xec, 0x07, 0x01, 0xf5, 0x0a,
  0x04, 0xf5, 0x01, 0xf3, 0xfb, 0x11, 0x11, 0x12, 0x19, 0x0f, 0xfa, 0xfe,
  0xe7, 0x07, 0x08, 0xf7, 0xed, 0x0e, 0x06, 0xe3, 0x0b, 0xe9, 0x12, 0xfb,
  0xf0, 0xff, 0xf5, 0x19, 0x1b, 0xe1, 0x16, 0xf7, 0x1e, 0x1a, 0x07, 0x12,
  0x1e, 0xe6, 0x04, 0x1a, 0xed, 0xe1, 0xfd, 0xef, 0xdb, 0x12, 0x0a, 0x14,
  0xf6, 0x17, 0xf9, 0x16, 0xfa, 0x15, 0x11, 0xe6, 0xe7, 0x18, 0xf9, 0xfd,
  0xee, 0x13, 0x1c, 0x14, 0x07, 0x0a, 0x1c, 0xf4, 0xed, 0xe3, 0xf0, 0x1e,
  0xfa, 0x0b, 0x19, 0x0b, 0xe4, 0xf2, 0xde, 0xf5, 0xf1, 0x04, 0xf1, 0x22,
  0x06, 0x10, 0x15, 0x18, 0xed, 0x13, 0xee, 0xeb, 0xe1, 0x12, 0x11, 0xea,
  0xf1, 0xf9, 0x0f, 0x1c, 0xdd, 0x17, 0x0d, 0xe2, 0xf0, 0x10, 0xed, 0x03,
  0x01, 0xe6, 0x10, 0xfb, 0x0a, 0xfa, 0xf0, 0x00, 0x01, 0x14, 0xf2, 0xfc,
  0x18, 0x0f, 0xf2, 0xf2, 0xf2, 0x08, 0x1e, 0xf4, 0x03, 0x12, 0xeb, 0x18,
  0xf5, 0x13, 0x09, 0x10, 0x0a, 0xef, 0x0b, 0xfa, 0xf0, 0x0d, 0x07, 0xfc,
  0x13, 0x00, 0x08, 0xe6, 0x07, 0xe5, 0x08, 0x1a, 0xf6, 0xe7, 0x0a, 0x0a,
  0xe8, 0x17, 0x02, 0x0b, 0xe7, 0x15, 0x13, 0x0a, 0x24, 0xe8, 0xf9, 0x1d,
  0x19, 0x04, 0x15, 0x14, 0xff, 0xe1, 0xec, 0x0c, 0xf7, 0x0c, 0xef, 0xf1,
  0x04, 0x1c, 0xf6, 0x0c, 0xe2, 0xfa, 0x1c, 0xe3, 0x02, 0x17, 0xe6, 0xe7,
  0xef, 0x00, 0xe9, 0x11, 0xf9, 0xed, 0xff, 0xea, 0x14, 0xea, 0x0f, 0xf8,
  0x13, 0x13, 0xe7, 0x04, 0x06, 0xf7, 0xf1, 0xf8, 0xf9, 0x12, 0x1d, 0xe6,
  0xfb, 0xf2, 0x16, 0xe3, 0x1a, 0x1d, 0x1b, 0x16, 0xf2, 0x00, 0x09, 0x02,
  0xf9, 0x1d, 0xf7, 0x10, 0x1b, 0x01, 0x04, 0x05, 0xe7, 0x0e, 0x02, 0x1c,
  0xee, 0x01, 0x00, 0x18, 0xf4, 0x04, 0xe4, 0x10, 0x18, 0x0e, 0x07, 0x0c,
  0x08, 0x09, 0x0a, 0x0b, 0xe5, 0xeb, 0xe9, 0xf6, 0x10, 0x17, 0xef, 0xe8,
  0x1a, 0xdc, 0x17, 0x18, 0xeb, 0x09, 0xec, 0x00, 0x0f, 0x0d, 0x04, 0xe5,
  0xee, 0x20, 0x1e, 0x0b, 0xe7, 0x03, 0x06, 0xec, 0x07, 0xf3, 0xed, 0x04,
  0x23, 0x26, 0x17, 0xde, 0x1e, 0xea, 0x05, 0x0d, 0xf7, 0xf1, 0x15, 0xf0,
  0xf8, 0x16, 0xeb, 0xf6, 0x05, 0xe1, 0x0b, 0x15, 0x0b, 0xe2, 0xe1, 0xeb,
  0xf2, 0xf4, 0x12, 0x17, 0xef, 0x01, 0x22, 0x0d, 0xf0, 0x01, 0x00, 0x04,
  0x0b, 0xf2, 0xfb, 0xef, 0x0e, 0x0e, 0xfa, 0x0c, 0xf6, 0xfd, 0x13, 0x13,
  0x00, 0xea, 0xec, 0x09, 0xfa, 0x0b, 0x01, 0xef, 0x03, 0x00, 0x20, 0xe9,
  0x11, 0x0f, 0x17, 0x02, 0xe9, 0x17, 0xf4, 0xf7, 0x0f, 0xf4, 0xf4, 0x08,
  0x12, 0x0d, 0x0a, 0x11, 0xe5, 0x17, 0x15, 0x0d, 0x02, 0xf1, 0xed, 0xe3,
  0xfe, 0x18, 0xdb, 0x06, 0xd6, 0xf7, 0x01, 0x12, 0x12, 0xef, 0xf6, 0xf9,
  0xf2, 0x1a, 0x1c, 0x05, 0x1f, 0xf4, 0xf8, 0xfb, 0x11, 0x08, 0x12, 0xf6,
  0xf2, 0xe3, 0xf4, 0x02, 0xf6, 0x01, 0xf6, 0x17, 0xf9, 0x1e, 0xf4, 0xee,
  0xf9, 0xfe, 0x12, 0xe0, 0x19, 0xea, 0x02, 0x04, 0x02, 0xfe, 0xf0, 0x06,
  0x1a, 0xe7, 0x06, 0xe5, 0xfb, 0xf2, 0x0f, 0x01, 0x08, 0xfc, 0x0c, 0x07,
  0x09, 0x06, 0xe2, 0xf0, 0xfa, 0x1e, 0xf7, 0x0a, 0x1f, 0xf9, 0xf3, 0xff,
  0xef, 0x04, 0xfd, 0x0d, 0xf9, 0xec, 0xf6, 0xe3, 0xeb, 0x00, 0xf8, 0xe4,
  0x03, 0xfb, 0xf8, 0x03, 0x03, 0xf3, 0xf8, 0xfe, 0x02, 0xf6, 0xf3, 0xf7,
  0x15, 0xeb, 0xe5, 0xfd, 0xf1, 0xf4, 0xfc, 0x0d, 0x1b, 0x06, 0x03, 0xeb,
  0xed, 0x10, 0xf8, 0xe1, 0x15, 0xef, 0xfd, 0xff, 0xea, 0x09, 0x05, 0x02,
  0x04, 0x06, 0x01, 0xf8, 0x00, 0x19, 0x07, 0x0c, 0x04, 0x01, 0x20, 0x11,
  0xe2, 0xf1, 0x0b, 0xe1, 0xe2, 0xe4, 0xef, 0xf7, 0xfd, 0x09, 0xe3, 0x16,
  0xec, 0xe2, 0x07, 0x01, 0x20, 0xf5, 0x05, 0x02, 0xfb, 0x07, 0xf5, 0xfc,
  0xe8, 0x0a, 0x1b, 0x0f, 0xfa, 0xee, 0x09, 0x1b, 0xe9, 0x11, 0x0c, 0x0d,
  0x17, 0x03, 0xf5, 0xf0, 0x12, 0x16, 0xf7, 0xe5, 0xf6, 0x15, 0x11, 0x06,
  0xf1, 0x01, 0x15, 0xfd, 0x15, 0xeb, 0xe9, 0x06, 0xea, 0x1e, 0xe5, 0x04,
  0xf1, 0xe0, 0x13, 0xfd, 0x0c, 0x1d, 0xf4, 0xe1, 0x0a, 0xfc, 0x07, 0x02,
  0xf1, 0xeb, 0xf8, 0x09, 0x0c, 0xfb, 0x09, 0x0f, 0xe5, 0x05, 0x0d, 0xfd,
  0x10, 0x0d, 0xfb, 0xf8, 0xfe, 0x21, 0x16, 0xee, 0xfd, 0x0a, 0xfc, 0xe8,
  0x05, 0xe8, 0x12, 0xf9, 0xf8, 0xf2, 0xf1, 0xfd, 0xed, 0x06, 0xea, 0xf5,
  0x0f, 0x1f, 0x0a, 0xf4, 0x0b, 0x15, 0x01, 0xec, 0xf0, 0x03, 0xf7, 0x01,
  0x09, 0xf7, 0x07, 0x03, 0x06, 0xec, 0xfb, 0xec, 0x0a, 0x03, 0xf0, 0x00,
  0x1f, 0x22, 0x1d, 0x18, 0x0b, 0x22, 0xf4, 0x07, 0x17, 0x20, 0xf1, 0x03,
  0x0f, 0x1b, 0xf9, 0x07, 0x01, 0xee, 0x0b, 0x04, 0x02, 0xfb, 0xeb, 0xe3,
  0x06, 0xfd, 0x14, 0x10, 0xeb, 0xe1, 0x0e, 0xed, 0x01, 0x1a, 0x12, 0xfc,
  0xfb, 0xef, 0xe6, 0x0c, 0x0f, 0x02, 0xf8, 0x07, 0x0d, 0x02, 0x04, 0xfc,
  0xe1, 0x18, 0xfd, 0x05, 0x0f, 0xef, 0x07, 0xf7, 0x06, 0xe6, 0xe8, 0x0d,
  0x03, 0x01, 0x1f, 0x1d, 0xe4, 0xfc, 0x08, 0x09, 0x1a, 0x19, 0xf8, 0x0a,
  0xf8, 0x06, 0xf3, 0x19, 0xfe, 0xf6, 0x00, 0x0c, 0x13, 0xef, 0xfc, 0xe4,
  0x19, 0x14, 0x1d, 0x03, 0x0e, 0x13, 0x20, 0xf7, 0x1e, 0xe1, 0x0a, 0x01,
  0xfb, 0xef, 0x04, 0xf2, 0x01, 0x19, 0xe9, 0x13, 0xf7, 0x10, 0x0b, 0xe3,
  0xee, 0x02, 0x0a, 0x02, 0x1e, 0x13, 0xf9, 0xec, 0x13, 0x03, 0xf9, 0xde,
  0x0c, 0x19, 0x11, 0xe1, 0x1e, 0xf7, 0xf7, 0x0d, 0x0b, 0xff, 0x04, 0xfb,
  0xf9, 0x0c, 0xf7, 0xf5, 0x1c, 0xeb, 0x06, 0x09, 0xf1, 0x03, 0xfe, 0xfa,
  0x15, 0x15, 0x0a, 0xfb, 0x1d, 0x02, 0x1a, 0xf1, 0x11, 0xee, 0x15, 0xea,
  0x00, 0x11, 0x1b, 0x1a, 0xf8, 0x1c, 0xe0, 0x07, 0xe7, 0xfd, 0xec, 0xe8,
  0x04, 0x0c, 0xf2, 0x1d, 0x0a, 0x05, 0xff, 0x0c, 0xe4, 0x08, 0x06, 0x05,
  0x0c, 0xfa, 0x1c, 0x19, 0xfb, 0x08, 0x12, 0xff, 0x0a, 0xf2, 0x11, 0xe7,
  0x10, 0x03, 0x15, 0xf4, 0xfd, 0xea, 0xed, 0x1d, 0xdc, 0xed, 0x05, 0xe3,
  0x1d, 0x04, 0x00, 0x09, 0x03, 0xfd, 0xff, 0xe2, 0x14, 0x1a, 0xfb, 0x1a,
  0x0b, 0xee, 0x13, 0xfe, 0xe3, 0x12, 0xff, 0xfe, 0x21, 0x17, 0xec, 0xef,
  0x0a, 0x14, 0xf4, 0x02, 0x0d, 0x06, 0x12, 0xe9, 0x06, 0x12, 0x0b, 0xf7,
  0xfc, 0x0d, 0x01, 0x04, 0xe5, 0x12, 0xfa, 0x12, 0xe6, 0x19, 0x12, 0x1b,
  0x0b, 0xe8, 0x07, 0xf9, 0xef, 0x15, 0xe2, 0x05, 0xef, 0xdc, 0x1d, 0x09,
  0x14, 0xda, 0x13, 0xfb, 0x20, 0x04, 0x0e, 0xfc, 0xf2, 0x17, 0xf2, 0xf7,
  0x00, 0x0a, 0x0f, 0x07, 0x08, 0xec, 0x17, 0xef, 0xe4, 0xfa, 0xf9, 0x09,
  0xf8, 0xf6, 0x03, 0xf8, 0x06, 0x11, 0x0e, 0x12, 0x0b, 0xf8, 0x06, 0xf9,
  0xf1, 0x09, 0x06, 0x07, 0x06, 0x10, 0xfb, 0x00, 0x09, 0xf8, 0x02, 0x16,
  0x15, 0x02, 0xf0, 0xfd, 0x1a, 0x07, 0x1a, 0xfa, 0xec, 0xed, 0x07, 0x01,
  0xf0, 0xdc, 0xec, 0xfa, 0xde, 0x1b, 0xea, 0x02, 0xfc, 0x15, 0x13, 0xfe,
  0xf5, 0x0e, 0xe8, 0xf8, 0xf3, 0x1b, 0xff, 0x11, 0xfa, 0x01, 0x1b, 0x0b,
  0xf7, 0xfb, 0xe9, 0x18, 0xfc, 0x1e, 0xfe, 0xfc, 0x1f, 0xf8, 0xe5, 0x02,
  0x22, 0x08, 0x0e, 0x01, 0x10, 0x17, 0x04, 0xf8, 0x02, 0x16, 0xee, 0xfa,
  0xf8, 0xfe, 0xe1, 0x11, 0x12, 0x10, 0x13, 0xf9, 0xf6, 0x14, 0xfa, 0xeb,
  0xfd, 0x12, 0xf3, 0x0e, 0xff, 0x08, 0xef, 0x0c, 0x0f, 0x1c, 0xef, 0xe8,
  0x00, 0xee, 0xf4, 0x0f, 0x03, 0xfa, 0x15, 0xfe, 0xee, 0x21, 0x00, 0x17,
  0xff, 0xf3, 0x25, 0x11, 0xef, 0x17, 0x1e, 0x0b, 0xeb, 0xea, 0x01, 0xf0,
  0x04, 0x0b, 0xee, 0xe6, 0xdf, 0xe4, 0x07, 0xf2, 0xf6, 0x08, 0x0a, 0xf8,
  0x05, 0xe8, 0xf1, 0xfd, 0x0b, 0x15, 0x14, 0xed, 0xf7, 0xee, 0x03, 0xef,
  0xe6, 0x1a, 0xef, 0xde, 0x0f, 0xf2, 0xfa, 0x01, 0xff, 0x0d, 0x02, 0x05,
  0x21, 0x0d, 0x0b, 0xf1, 0x05, 0x0c, 0xf2, 0x01, 0x0b, 0xf3, 0x0d, 0xff,
  0x00, 0xe3, 0x21, 0xeb, 0x03, 0xec, 0x1d, 0xfd, 0xf7, 0x20, 0xea, 0x1e,
  0x1f, 0x0f, 0x03, 0x00, 0xfc, 0xfc, 0x1f, 0xe0, 0x02, 0x0a, 0xfe, 0x0f,
  0x1a, 0xfe, 0xfd, 0xed, 0x06, 0x1c, 0x03, 0x00, 0xe3, 0xfe, 0xef, 0x1c,
  0xe3, 0xe5, 0x18, 0x1a, 0xe2, 0xed, 0x11, 0xf6, 0xe5, 0x10, 0xeb, 0x06,
  0x18, 0xf0, 0xf8, 0xe1, 0x0d, 0x12, 0x1b, 0x0f, 0xe4, 0x0f, 0x13, 0xf2,
  0x1c, 0xfe, 0xee, 0x05, 0xfe, 0x12, 0xe1, 0x01, 0x07, 0x0c, 0xe2, 0xf0,
  0xec, 0x1e, 0x07, 0x17, 0x09, 0xee, 0xf5, 0x13, 0xf9, 0x1e, 0xdf, 0xff,
  0xe1, 0xef, 0xf0, 0x10, 0xf3, 0x01, 0xec, 0x04, 0x0c, 0x0b, 0x13, 0xf7,
  0xf8, 0xf9, 0xf9, 0x15, 0xf4, 0xe5, 0xfe, 0xf3, 0x18, 0x07, 0x19, 0x06,
  0xec, 0xf7, 0x03, 0xf4, 0x0c, 0x11, 0xf6, 0x1a, 0x0b, 0x14, 0x16, 0x20,
  0x1e, 0xf9, 0x06, 0x07, 0x22, 0xe0, 0xf4, 0xfb, 0xf7, 0xf7, 0xf9, 0xf7,
  0xfd, 0x1d, 0x0d, 0xf3, 0xfe, 0x19, 0xf0, 0xfa, 0x1e, 0xea, 0x11, 0xf5,
  0x20, 0x19, 0xe9, 0x06, 0x03, 0x12, 0x0b, 0xed, 0x1e, 0xef, 0xf0, 0x11,
  0x0c, 0x09, 0x0a, 0x23, 0xf0, 0xf2, 0xf3, 0xea, 0xf6, 0x02, 0x07, 0x03,
  0x05, 0xfa, 0x14, 0x14, 0xf3, 0xfb, 0x0c, 0xf6, 0xe0, 0x20, 0x0c, 0xf5,
  0xec, 0x1e, 0xf3, 0xfb, 0x18, 0x0b, 0x1b, 0x08, 0x07, 0xee, 0xe8, 0x05,
  0x16, 0xe1, 0x17, 0x1b, 0x0b, 0x0d, 0xe4, 0xeb, 0x15, 0x0d, 0xf4, 0x1d,
  0xdd, 0x20, 0x09, 0xfd, 0x11, 0xf0, 0x19, 0x1a, 0x01, 0xde, 0xf2, 0x07,
  0x16, 0x11, 0xf6, 0x12, 0x18, 0x0b, 0x08, 0x12, 0xe0, 0x0b, 0x15, 0xe1,
  0xef, 0x12, 0x1f, 0x04, 0xee, 0xef, 0x16, 0x20, 0x17, 0xf2, 0xff, 0xec,
  0x1f, 0xe9, 0xdd, 0x17, 0x19, 0x11, 0x0a, 0xfc, 0x14, 0xf1, 0xfc, 0x16,
  0xf3, 0xe8, 0x02, 0x03, 0x1d, 0x1c, 0x19, 0xe5, 0x1a, 0x10, 0x1e, 0x07,
  0x11, 0xdc, 0x1c, 0xdf, 0x1f, 0x07, 0xe8, 0xf2, 0x1c, 0x16, 0xe7, 0x0a,
  0x17, 0x0b, 0xea, 0xfe, 0x11, 0xfd, 0xe9, 0xf3, 0x0c, 0xf6, 0x1d, 0xfc,
  0xfa, 0xfe, 0xe7, 0x09, 0x03, 0xe4, 0x0d, 0x25, 0x09, 0xdf, 0xee, 0x0a,
  0x1c, 0xff, 0x19, 0x08, 0x00, 0xe6, 0xea, 0x03, 0xfa, 0xf8, 0xff, 0x10,
  0x01, 0xfa, 0xf8, 0xfd, 0xe3, 0x07, 0x02, 0xfc, 0x02, 0x05, 0xf4, 0x07,
  0x0c, 0x10, 0x03, 0xf4, 0x05, 0xdb, 0x18, 0x21, 0x14, 0xe2, 0x1c, 0x06,
  0x00, 0xe6, 0x0f, 0xf4, 0xe6, 0x1d, 0xf6, 0xfe, 0xf6, 0xd5, 0xef, 0xfa,
  0x1a, 0xf3, 0x19, 0xdf, 0xf5, 0x19, 0xf9, 0x17, 0xf8, 0x13, 0x0b, 0xf7,
  0x06, 0xf6, 0x20, 0x18, 0x19, 0xf0, 0xe9, 0xfc, 0x17, 0x05, 0x1b, 0xe0,
  0xed, 0xec, 0x21, 0x1f, 0x12, 0xf6, 0xf3, 0xe8, 0x16, 0x01, 0x09, 0xfa,
  0xfb, 0xfd, 0xe2, 0xf5, 0x0a, 0xf7, 0x19, 0xe7, 0xf0, 0xe4, 0xf2, 0x12,
  0x0b, 0x1b, 0xf9, 0x1c, 0xe9, 0x1f, 0xf2, 0x0d, 0x0c, 0x1a, 0xf1, 0xf4,
  0x0d, 0xf8, 0x11, 0x00, 0xfe, 0x03, 0xf1, 0xfd, 0x1a, 0xde, 0x0f, 0x09,
  0x07, 0x06, 0x05, 0xed, 0x1f, 0xf6, 0xf5, 0x0d, 0xf4, 0xe9, 0x1e, 0x08,
  0x0c, 0xfe, 0x18, 0x14, 0xe6, 0xf0, 0xf8, 0x00, 0x21, 0x09, 0x13, 0xf2,
  0x1c, 0xf0, 0xef, 0x02, 0x0b, 0x19, 0x17, 0xed, 0x03, 0xe6, 0x03, 0xf7,
  0xf7, 0xef, 0x04, 0x13, 0x18, 0x18, 0xe4, 0x0e, 0xf1, 0xe8, 0x0f, 0x10,
  0xf5, 0xe0, 0xf8, 0xf2, 0x04, 0x1a, 0x11, 0xf0, 0x0c, 0xe5, 0xf0, 0x02,
  0xff, 0xed, 0x03, 0xe6, 0xfb, 0x0d, 0x14, 0xe8, 0xf6, 0xeb, 0xef, 0xe5,
  0xfb, 0x16, 0xf1, 0x13, 0x02, 0xfe, 0xf1, 0xe5, 0x1f, 0xf2, 0xfc, 0xf9,
  0xed, 0x19, 0xfe, 0x01, 0x07, 0x15, 0xfe, 0x04, 0x04, 0xe5, 0x00, 0xf9,
  0x01, 0x1d, 0x03, 0x05, 0x0a, 0xf5, 0x0d, 0xe9, 0x06, 0x06, 0x0e, 0x03,
  0x12, 0x13, 0xe8, 0xfa, 0x19, 0x0e, 0xfa, 0xff, 0x0d, 0xfd, 0x07, 0x06,
  0x05, 0x1a, 0xf4, 0xf3, 0x0f, 0xff, 0xef, 0xea, 0x14, 0x05, 0xfc, 0xfb,
  0xe9, 0xe5, 0xff, 0xe0, 0xe8, 0x16, 0xfb, 0xef, 0xf8, 0xfd, 0x06, 0x14,
  0x1a, 0x0d, 0x00, 0xff, 0xf5, 0xea, 0xf9, 0x0a, 0xf2, 0xfb, 0x00, 0xf7,
  0x16, 0xfd, 0x04, 0x1e, 0x10, 0x1d, 0xeb, 0xe6, 0xf3, 0xef, 0xfa, 0x0b,
  0xeb, 0xfd, 0x0e, 0x01, 0xf7, 0xe7, 0x1e, 0xe7, 0xdf, 0x1f, 0xf4, 0xe6,
  0x20, 0xf0, 0x0d, 0xff, 0xfe, 0xfd, 0x04, 0xf5, 0xf1, 0x0b, 0x0b, 0x1c,
  0x01, 0x0d, 0x07, 0xfc, 0x1d, 0x19, 0x02, 0x0a, 0x0b, 0xfd, 0xde, 0x0b,
  0xfe, 0xfd, 0xfe, 0x08, 0x20, 0xdd, 0x00, 0x1a, 0x07, 0xfe, 0xfd, 0x0d,
  0x0a, 0x1d, 0xff, 0xeb, 0xf6, 0xf5, 0x04, 0x01, 0x08, 0xfd, 0x0d, 0x06,
  0xf6, 0xed, 0xf7, 0xf0, 0x21, 0xe4, 0xe6, 0xf2, 0x09, 0x15, 0x0f, 0xee,
  0xde, 0x12, 0x0c, 0x17, 0xfe, 0x0d, 0x0b, 0xfd, 0x0e, 0xee, 0xf8, 0xfc,
  0xf7, 0xf2, 0xe4, 0x01, 0xf8, 0xe7, 0x01, 0x07, 0x0b, 0x08, 0x11, 0xfd,
  0x0b, 0x15, 0x05, 0x00, 0xe2, 0x1c, 0xf4, 0x0a, 0xfb, 0xef, 0x0a, 0x0f,
  0x15, 0xf9, 0x0d, 0xff, 0x0c, 0xe0, 0x17, 0xf3, 0x0c, 0xed, 0x02, 0xef,
  0x0b, 0x1d, 0xf0, 0x16, 0x20, 0xe2, 0x18, 0xe2, 0x02, 0x07, 0xee, 0x06,
  0x00, 0x03, 0xf7, 0x1a, 0x1c, 0xe8, 0xfb, 0x14, 0xf1, 0xf6, 0x11, 0x17,
  0x16, 0x13, 0xf0, 0x07, 0x05, 0x12, 0xe5, 0x03, 0xf7, 0x13, 0xf6, 0xfd,
  0xea, 0xdf, 0x17, 0x16, 0xf2, 0x17, 0xfd, 0xe7, 0x13, 0x15, 0xfd, 0xe6,
  0xf7, 0xf3, 0x0c, 0xf3, 0xfb, 0x05, 0xf2, 0xff, 0xfe, 0xe8, 0x17, 0x02,
  0x02, 0xe6, 0xf0, 0xee, 0xe6, 0x08, 0x19, 0x13, 0xf9, 0x00, 0x16, 0xf6,
  0x0f, 0x12, 0x05, 0xf8, 0xf1, 0xf8, 0xf6, 0xfa, 0xec, 0xe8, 0x1a, 0x22,
  0x21, 0xf9, 0xfc, 0x00, 0x01, 0xe6, 0x0a, 0xfa, 0x02, 0x17, 0xe5, 0xea,
  0x02, 0x12, 0xf9, 0x00, 0x1f, 0xeb, 0x09, 0xff, 0xef, 0xf9, 0x08, 0xfe,
  0xf9, 0x10, 0xf0, 0xf7, 0xfb, 0xec, 0x03, 0xdf, 0x0c, 0xfb, 0x00, 0x01,
  0x14, 0x16, 0xfd, 0x09, 0xfe, 0x12, 0xe4, 0xf4, 0x10, 0xef, 0xf8, 0xf9,
  0xff, 0x1f, 0xf6, 0x17, 0x12, 0xe7, 0x01, 0x02, 0xf3, 0xe1, 0xed, 0x16,
  0x1b, 0x0c, 0xeb, 0x1a, 0x00, 0x0a, 0xee, 0x04, 0xe9, 0xe2, 0x19, 0xf4,
  0x1e, 0x04, 0x08, 0xe4, 0x18, 0x15, 0x15, 0x20, 0xf2, 0xf5, 0xf8, 0xed,
  0xf6, 0x00, 0xf1, 0xfd, 0xe8, 0xf1, 0xec, 0x1c, 0x17, 0xf2, 0xf4, 0xff,
  0xe7, 0x05, 0x05, 0x13, 0x00, 0x0f, 0xf3, 0x2a, 0x0b, 0xdd, 0xe1, 0xe8,
  0xf1, 0x1e, 0x17, 0xe4, 0xe2, 0xe3, 0x17, 0x1e, 0xdd, 0xff, 0x15, 0xf6,
  0x0d, 0xf6, 0x1a, 0x0e, 0x14, 0x19, 0xf2, 0x10, 0x02, 0x11, 0xf0, 0xee,
  0xea, 0x1c, 0x0b, 0x01, 0xf2, 0xff, 0x0c, 0x18, 0xe6, 0xf1, 0xf3, 0xe9,
  0xe5, 0x22, 0x03, 0x0b, 0x18, 0xed, 0xf6, 0x0e, 0x03, 0xef, 0x04, 0xfd,
  0xfa, 0x1b, 0x12, 0xf8, 0xf7, 0x05, 0xf6, 0x16, 0x11, 0x01, 0xf0, 0xfe,
  0x12, 0xf1, 0xed, 0xed, 0xf6, 0x21, 0x19, 0xf7, 0xeb, 0xdd, 0x1e, 0xfe,
  0xeb, 0x0f, 0xf1, 0xe4, 0xe5, 0xff, 0xf1, 0x00, 0xe5, 0xfa, 0x15, 0x11,
  0x0f, 0xf9, 0x12, 0xf4, 0x06, 0xf2, 0xeb, 0x06, 0xf3, 0x1f, 0xed, 0x1f,
  0xe6, 0x10, 0x02, 0xe1, 0x17, 0x00, 0x05, 0x0c, 0xf9, 0x13, 0x0f, 0x06,
  0xeb, 0x17, 0xe6, 0x15, 0x0a, 0x01, 0x12, 0xe3, 0x9e, 0xe7, 0xff, 0xff,
  0x04, 0x00, 0x00, 0x00, 0x00, 0x02, 0x00, 0x00, 0x58, 0x0a, 0x1b, 0x55,
  0x99, 0xbd, 0xb2, 0xec, 0xc8, 0xd0, 0x29, 0x28, 0x22, 0x10, 0xb9, 0xea,
  0x24, 0x15, 0xc7, 0xe2, 0xb7, 0xe2, 0xf9, 0xfd, 0x28, 0x1b, 0x03, 0x3b,
  0xf9, 0x97, 0xe2, 0x05, 0xbe, 0x14, 0x36, 0x02, 0xa9, 0x1c, 0x9e, 0x98,
  0x5e, 0xaf, 0xce, 0xc0, 0x0f, 0xaf, 0x24, 0x43, 0xde, 0xf5, 0xbb, 0xd9,
  0xc0, 0xe4, 0x24, 0x2b, 0xdc, 0x2a, 0xe1, 0xbc, 0xde, 0x0e, 0x1d, 0x31,
  0x9d, 0xbd, 0xb3, 0x4d, 0xfd, 0x31, 0xb4, 0xc1, 0x41, 0x14, 0x14, 0xfb,
  0xd7, 0x2a, 0xc3, 0x5b, 0x01, 0xee, 0x9e, 0x34, 0x36, 0xe9, 0xf6, 0x20,
  0x3b, 0x95, 0xdf, 0xab, 0x04, 0x4b, 0x9b, 0x22, 0x03, 0xbc, 0xb3, 0xa8,
  0x14, 0x29, 0xe0, 0xe4, 0x4c, 0xb2, 0x0c, 0xdb, 0x0e, 0xe2, 0x1f, 0x00,
  0xe5, 0xae, 0xf2, 0xec, 0xe5, 0xcb, 0x48, 0xd4, 0xb9, 0x53, 0xc9, 0x4f,
  0xe0, 0xdb, 0x39, 0xe6, 0x12, 0x16, 0x20, 0xe1, 0xa3, 0x0c, 0xe0, 0xb3,
  0x2f, 0x16, 0x58, 0xa2, 0xdc, 0xce, 0xe9, 0x32, 0xb0, 0x24, 0x1a, 0xc3,
  0xb4, 0x21, 0xfa, 0x36, 0x96, 0x11, 0x50, 0x2b, 0x42, 0x31, 0xe2, 0xfc,
  0x32, 0x64, 0x5d, 0xbf, 0xdd, 0x45, 0xcc, 0xe5, 0xcd, 0x07, 0xd9, 0x08,
  0x49, 0xcc, 0xe3, 0x00, 0xe8, 0x2a, 0xbc, 0xa1, 0xe3, 0x18, 0xf2, 0x5d,
  0x34, 0xbf, 0x35, 0x07, 0xb0, 0x43, 0xd7, 0xd2, 0x22, 0xb0, 0x30, 0xa0,
  0x36, 0x1f, 0x5c, 0xf1, 0xa5, 0x6b, 0xb9, 0xf6, 0xd2, 0x34, 0x49, 0xdb,
  0x99, 0xde, 0x24, 0x23, 0x40, 0xa6, 0x08, 0xe0, 0xf1, 0xfd, 0x46, 0x2b,
  0x5e, 0x09, 0xe4, 0x5d, 0xa7, 0xeb, 0xa6, 0x46, 0x01, 0xad, 0xfd, 0x40,
  0xbf, 0x9b, 0xcb, 0xfe, 0x61, 0xa7, 0xa2, 0x2e, 0xc5, 0x45, 0x36, 0xf1,
  0x0e, 0xc3, 0x04, 0x1e, 0x52, 0x0e, 0x07, 0xbb, 0xd5, 0x1f, 0xb8, 0xcd,
  0xaa, 0xe1, 0x1a, 0x2a, 0xd4, 0x03, 0x06, 0x4a, 0x29, 0x03, 0xa7, 0xf5,
  0xbe, 0xdf, 0xeb, 0x22, 0x97, 0xd1, 0x4a, 0x20, 0x37, 0x9d, 0xfd, 0x0d,
  0xcb, 0x06, 0x12, 0xd6, 0x10, 0x30, 0xe6, 0x66, 0x30, 0x9f, 0x09, 0x43,
  0x39, 0x46, 0xfe, 0x15, 0xdb, 0x0a, 0xe3, 0x57, 0x27, 0x28, 0xde, 0x65,
  0xa4, 0x3f, 0x56, 0x26, 0xe1, 0xb7, 0xeb, 0xf9, 0xf9, 0x06, 0xac, 0x39,
  0xfb, 0x27, 0xa8, 0x62, 0x08, 0xa7, 0xf4, 0x26, 0x1f, 0xac, 0xcc, 0x62,
  0x94, 0xcb, 0x96, 0xa2, 0x1d, 0x4f, 0xf3, 0xe1, 0x13, 0x03, 0x58, 0x5f,
  0x36, 0xb3, 0xb3, 0x2b, 0xeb, 0x0b, 0x3b, 0xd5, 0xc5, 0xbf, 0xb2, 0xc4,
  0x62, 0xf2, 0x30, 0x04, 0x11, 0xa0, 0xe3, 0xab, 0xdd, 0x18, 0x32, 0x36,
  0xb7, 0xf4, 0xee, 0x02, 0x52, 0x3c, 0xc9, 0x34, 0xda, 0xec, 0x47, 0x10,
  0xb9, 0x53, 0xc6, 0xf0, 0xcd, 0xf6, 0x39, 0xbd, 0xb9, 0xfe, 0xd8, 0xc9,
  0xcc, 0xb8, 0x0e, 0x05, 0x25, 0x9a, 0xe2, 0xf7, 0x98, 0x0d, 0xba, 0x3c,
  0xf9, 0x30, 0x28, 0x03, 0xcb, 0xa0, 0xd0, 0xd8, 0x36, 0xc5, 0xbe, 0x48,
  0xf2, 0xbd, 0xf7, 0x1c, 0xe6, 0x18, 0x9e, 0x5f, 0x11, 0x9b, 0x06, 0x58,
  0x97, 0x0d, 0x4f, 0x3f, 0x4e, 0x16, 0xa7, 0xcc, 0x09, 0x4c, 0xb0, 0xe0,
  0xea, 0x5e, 0x95, 0x58, 0xa2, 0xfc, 0xeb, 0x54, 0x4c, 0x9a, 0xea, 0xee,
  0x45, 0x01, 0x9f, 0x5c, 0x26, 0xd8, 0x99, 0x4b, 0xba, 0x06, 0xa4, 0x1d,
  0xe8, 0x06, 0xe4, 0x0e, 0x33, 0xa8, 0x03, 0xca, 0xdc, 0x44, 0xa5, 0xe4,
  0xf1, 0xe9, 0x1a, 0x30, 0xc3, 0x4b, 0x08, 0x1b, 0xd5, 0xff, 0x3a, 0xbe,
  0x22, 0x58, 0x6d, 0x0f, 0x93, 0x7f, 0xab, 0x43, 0xc4, 0xe7, 0x57, 0xd8,
  0xb8, 0x26, 0xbb, 0x9a, 0x91, 0xd1, 0xb1, 0xf9, 0xf8, 0x9f, 0x4b, 0xc5,
  0x65, 0x57, 0xa4, 0xab, 0xaa, 0xe9, 0xff, 0xff, 0x04, 0x00, 0x00, 0x00,
  0x00, 0x01, 0x00, 0x00, 0x10, 0xf7, 0xeb, 0xff, 0xc9, 0xdd, 0xae, 0x08,
  0x11, 0xe4, 0xcd, 0xf0, 0xd1, 0xff, 0xb1, 0xfe, 0xdc, 0xc2, 0x0a, 0x38,
  0xcb, 0xcf, 0xb3, 0x1c, 0xaa, 0x08, 0x00, 0x2e, 0xa4, 0xc2, 0x06, 0xa3,
  0x4f, 0x0b, 0xd5, 0xda, 0x0f, 0x49, 0x04, 0xf0, 0xb1, 0x07, 0xdd, 0xb9,
  0x32, 0xbc, 0xbe, 0xd3, 0x34, 0xda, 0xe2, 0x56, 0xd2, 0x0a, 0x01, 0x0c,
  0xcc, 0x06, 0xc9, 0xcf, 0x1a, 0xff, 0xc5, 0x31, 0xe9, 0xca, 0x07, 0x0d,
  0xff, 0xef, 0x09, 0xa3, 0x46, 0xcb, 0xff, 0x3b, 0x3f, 0x2e, 0x17, 0x3c,
  0xaa, 0xca, 0x1a, 0x50, 0xef, 0x32, 0x55, 0xa7, 0x17, 0xe3, 0xd7, 0xc1,
  0x27, 0x15, 0xd6, 0xda, 0x1c, 0x67, 0x1a, 0x28, 0x0c, 0xe9, 0xc7, 0xd5,
  0x21, 0xe4, 0xe2, 0x11, 0x15, 0x53, 0xd0, 0x19, 0xa7, 0xe7, 0xaa, 0x25,
  0x18, 0xee, 0x29, 0xe0, 0xc6, 0xcd, 0x12, 0xd3, 0x29, 0xcc, 0xe7, 0x10,
  0x4e, 0xdd, 0x26, 0x1f, 0x2f, 0xbb, 0xf5, 0x3d, 0xcc, 0x04, 0x40, 0xe7,
  0xff, 0xeb, 0xb5, 0x56, 0xf4, 0x47, 0xcf, 0xbd, 0x13, 0xf6, 0x05, 0xe4,
  0x0f, 0x41, 0xd7, 0xd9, 0x19, 0x06, 0x21, 0xd0, 0x26, 0xd7, 0x4e, 0x37,
  0x45, 0x32, 0x27, 0x2d, 0xc4, 0xc9, 0x1d, 0xf9, 0xfa, 0xf3, 0x30, 0x1c,
  0x0c, 0xd7, 0x08, 0xfd, 0xb9, 0x08, 0x4f, 0xc7, 0xbb, 0xd5, 0x11, 0x17,
  0x02, 0x02, 0x3a, 0x0f, 0xe7, 0x23, 0xa0, 0x44, 0x50, 0x4b, 0x2d, 0xe4,
  0x44, 0x99, 0xd7, 0x1a, 0x56, 0x25, 0x9e, 0x22, 0xc6, 0xa1, 0xb3, 0x4a,
  0x2c, 0x49, 0xa9, 0xae, 0xfd, 0x3b, 0x1f, 0xcb, 0x44, 0xea, 0x43, 0x23,
  0x34, 0x7f, 0x4e, 0xf8, 0x2a, 0x36, 0xf3, 0xe1, 0xbf, 0x08, 0xd0, 0x43,
  0xe6, 0x2e, 0xd7, 0xe6, 0xad, 0xa4, 0x3b, 0x22, 0x37, 0xc4, 0xda, 0x26,
  0xa2, 0xdd, 0xb1, 0x29, 0x0d, 0xa8, 0xac, 0x21, 0xb6, 0xea, 0xff, 0xff,
  0x04, 0x00, 0x00, 0x00, 0x00, 0x02, 0x00, 0x00, 0xd1, 0x10, 0x42, 0x0b,
  0x07, 0x4d, 0x40, 0x9d, 0xa2, 0xc9, 0xf7, 0x04, 0x21, 0xaa, 0x34, 0xc5,
  0x52, 0xf7, 0x16, 0x4d, 0x5d, 0xd2, 0x29, 0xdf, 0xa0, 0x44, 0xfe, 0xb0,
  0xcc, 0xef, 0x14, 0xcd, 0xab, 0x32, 0x0b, 0xdb, 0xdb, 0xbf, 0x97, 0xb5,
  0x81, 0x46, 0x18, 0x0a, 0xfa, 0x4d, 0x6a, 0x9a, 0x57, 0xab, 0x59, 0x41,
  0xbf, 0xbe, 0x08, 0x42, 0xf9, 0x00, 0xe6, 0x57, 0x3a, 0xc8, 0x01, 0x29,
  0x0e, 0x2c, 0x42, 0x5f, 0x11, 0xaa, 0xca, 0x30, 0x9d, 0xf3, 0x0d, 0xbb,
  0x41, 0xc0, 0x2b, 0xed, 0xcd, 0x49, 0x0b, 0xd5, 0xbd, 0xcc, 0x26, 0xd7,
  0x07, 0x06, 0xd5, 0x2d, 0x43, 0xa0, 0x08, 0xcc, 0xce, 0xda, 0x0a, 0xf4,
  0x3e, 0x06, 0xb9, 0xa7, 0xd9, 0xad, 0x96, 0xa4, 0x03, 0xbe, 0xee, 0xa1,
  0x34, 0x1e, 0x36, 0x42, 0xca, 0xda, 0xcc, 0x06, 0x52, 0xd5, 0x40, 0xc6,
  0xa6, 0x08, 0x44, 0xac, 0xcd, 0x56, 0x45, 0x27, 0xfe, 0xee, 0x0a, 0x36,
  0xf4, 0xea, 0x34, 0xcf, 0x2c, 0x55, 0xdc, 0xfd, 0x9f, 0x4c, 0xaf, 0xb5,
  0x00, 0xef, 0x02, 0x24, 0xd3, 0x56, 0xc2, 0x07, 0xd5, 0xe8, 0x16, 0x51,
  0xab, 0x41, 0xf8, 0xc1, 0x05, 0xe7, 0xa8, 0x05, 0x17, 0x11, 0x1c, 0x96,
  0x4e, 0xc0, 0x29, 0xc0, 0x23, 0xb2, 0xb9, 0xa8, 0xe9, 0xbb, 0x4e, 0x9c,
  0x25, 0xc3, 0x10, 0x49, 0xee, 0x28, 0x10, 0x55, 0x1f, 0x35, 0xe2, 0x52,
  0x28, 0xee, 0x4e, 0xff, 0xc0, 0x22, 0x1e, 0xce, 0x3f, 0x2f, 0xab, 0x37,
  0xb8, 0xd4, 0xb8, 0x28, 0x51, 0xd5, 0x17, 0xab, 0x3a, 0x31, 0xd3, 0xe9,
  0xe7, 0x12, 0xcb, 0x15, 0x51, 0x5f, 0xa6, 0x32, 0xce, 0xe7, 0x57, 0xb2,
  0x52, 0xff, 0xae, 0x28, 0xb8, 0x8a, 0xb7, 0x1a, 0xe4, 0xce, 0xa3, 0x34,
  0x46, 0x34, 0x38, 0xc5, 0x00, 0x3e, 0xbf, 0xff, 0xc6, 0xba, 0x4a, 0x2e,
  0xf3, 0xc8, 0xd1, 0x00, 0x40, 0xb0, 0x45, 0x16, 0xe6, 0xdb, 0x28, 0x20,
  0xe7, 0xdf, 0xc5, 0x0d, 0x2b, 0xf9, 0x0a, 0x0a, 0x1d, 0x1f, 0x41, 0xdd,
  0x01, 0x24, 0x44, 0xa5, 0x98, 0x41, 0x3e, 0xfe, 0x27, 0x9f, 0x9d, 0x21,
  0xb4, 0x44, 0x93, 0x2a, 0xd7, 0x55, 0x14, 0x67, 0x37, 0x29, 0xf3, 0xd5,
  0x61, 0xac, 0x34, 0xe6, 0x8d, 0x0e, 0x94, 0xf6, 0x16, 0x1d, 0xd4, 0x09,
  0xde, 0xe4, 0x3f, 0x24, 0x0d, 0xfa, 0x59, 0x96, 0x43, 0x0e, 0x4e, 0x13,
  0x47, 0xb7, 0x24, 0x07, 0xff, 0x9b, 0x39, 0xe7, 0xc3, 0x23, 0xde, 0xb4,
  0x75, 0x31, 0x41, 0xd5, 0x3f, 0xa0, 0xe6, 0x32, 0x07, 0xb9, 0xd3, 0xbf,
  0xf0, 0xc5, 0xa9, 0x33, 0xc7, 0x5b, 0xa7, 0x4a, 0x3a, 0x03, 0x15, 0xed,
  0x2f, 0xc2, 0x07, 0x0d, 0xa7, 0xe5, 0x09, 0x27, 0xdd, 0x10, 0xac, 0xa8,
  0x54, 0xc6, 0x3a, 0xa7, 0x1c, 0xc4, 0x5b, 0x36, 0xb8, 0xc5, 0xe1, 0xcf,
  0x19, 0x51, 0x3c, 0xbd, 0xdc, 0x33, 0xae, 0xc1, 0x54, 0xec, 0x4c, 0x24,
  0x01, 0xb5, 0xf1, 0x11, 0xc7, 0xed, 0xd8, 0xa9, 0xfe, 0x5b, 0x9e, 0x37,
  0x95, 0x1b, 0x4a, 0x48, 0x2a, 0x3d, 0xc5, 0xd9, 0x5a, 0x2c, 0xba, 0x32,
  0xec, 0x1e, 0x68, 0x4e, 0x9c, 0xf3, 0x08, 0x0d, 0x33, 0x17, 0xf1, 0x4e,
  0xeb, 0xd0, 0xb6, 0xd0, 0x9c, 0xbe, 0xc4, 0xb7, 0xc4, 0x05, 0x55, 0x2b,
  0x12, 0x0b, 0xa3, 0x32, 0x28, 0xd4, 0xbb, 0x19, 0x1f, 0xc4, 0x19, 0xc2,
  0xc4, 0xd3, 0x30, 0x3d, 0x03, 0xaf, 0x24, 0xf9, 0xd6, 0xa9, 0xa6, 0x3b,
  0x2c, 0x17, 0x39, 0xfd, 0x04, 0xf6, 0xc2, 0x49, 0x5e, 0x2f, 0x2d, 0xd8,
  0xf7, 0x42, 0xc4, 0x25, 0x3b, 0xc7, 0x9b, 0xfd, 0x97, 0xce, 0xc7, 0x11,
  0xad, 0x12, 0xdd, 0xf2, 0xb7, 0x42, 0xe6, 0x40, 0x24, 0x19, 0x20, 0xb5,
  0xbb, 0xb3, 0xbc, 0x0c, 0xc2, 0xec, 0xff, 0xff, 0x04, 0x00, 0x00, 0x00,
  0x00, 0x10, 0x00, 0x00, 0x1d, 0xf6, 0x0a, 0xee, 0x53, 0xd7, 0x2d, 0x6e,
  0x4c, 0x0d, 0x57, 0x34, 0xd8, 0x64, 0x0b, 0x46, 0x10, 0xf7, 0x46, 0x1f,
  0xd4, 0xf0, 0x40, 0xc4, 0xc4, 0xee, 0xe4, 0x16, 0x08, 0xd7, 0x1b, 0xb7,
  0x1a, 0x04, 0x51, 0x20, 0x1c, 0x08, 0x11, 0xdf, 0xe5, 0x35, 0xcc, 0x5f,
  0xf4, 0x2e, 0x16, 0x44, 0xb4, 0xdf, 0x4b, 0x1f, 0xc8, 0x03, 0xe9, 0x55,
  0x16, 0xf1, 0x65, 0xf7, 0x57, 0xd4, 0x28, 0x35, 0xd0, 0x18, 0xa9, 0x0d,
  0xdd, 0xdd, 0x44, 0xfe, 0xfb, 0x1e, 0x0e, 0xb3, 0x0c, 0xe7, 0xbd, 0xbb,
  0x50, 0xdf, 0x10, 0xd4, 0x09, 0xc4, 0x33, 0xd1, 0x24, 0x25, 0xe1, 0x2c,
  0xf3, 0xe3, 0xe1, 0x0b, 0xb1, 0x43, 0x21, 0xb3, 0xfc, 0xfe, 0xcd, 0x18,
  0x1f, 0x41, 0x2c, 0xf2, 0x51, 0x0d, 0xe7, 0x02, 0x27, 0x04, 0xdf, 0xf9,
  0xd5, 0x0f, 0x50, 0xcb, 0xc8, 0xd9, 0xc6, 0x44, 0x3d, 0x09, 0x25, 0xb3,
  0xe7, 0xcb, 0x22, 0x1e, 0xed, 0xb2, 0xbb, 0x3f, 0xfc, 0x07, 0xe2, 0xc2,
  0xbb, 0x45, 0xc0, 0x2f, 0xbe, 0x39, 0xb0, 0x09, 0x1d, 0xd5, 0x03, 0xef,
  0xf1, 0x2d, 0xd0, 0x1d, 0xf3, 0xd2, 0xae, 0x46, 0xcc, 0x0f, 0xcb, 0xd1,
  0xcd, 0xff, 0x2d, 0x04, 0x19, 0x1e, 0x3c, 0xaa, 0x2a, 0x16, 0x36, 0xfc,
  0x2a, 0xf8, 0xd8, 0xe7, 0x08, 0xe5, 0xb8, 0xfb, 0xca, 0x41, 0xce, 0x33,
  0x20, 0x23, 0x3c, 0x26, 0x0d, 0xc1, 0xe5, 0x32, 0xfd, 0x3f, 0x23, 0x01,
  0xd3, 0x11, 0x1b, 0x1c, 0x03, 0x27, 0x46, 0x01, 0x49, 0x51, 0xee, 0xc5,
  0xe6, 0xc8, 0xdc, 0x02, 0x3c, 0x30, 0xef, 0x4f, 0x38, 0x41, 0x35, 0x12,
  0x06, 0x0d, 0x00, 0x13, 0xf3, 0x4e, 0xcf, 0x14, 0xc3, 0x24, 0x10, 0x45,
  0xdd, 0x0c, 0x1b, 0xfc, 0xd7, 0xb4, 0x4a, 0xef, 0x51, 0x2d, 0xc7, 0x3e,
  0x08, 0xfe, 0x03, 0x0a, 0x14, 0xec, 0xb8, 0x40, 0x02, 0x2c, 0x0d, 0xc0,
  0x28, 0xb9, 0x40, 0xf8, 0xfb, 0x04, 0x3d, 0xe1, 0x25, 0x30, 0xac, 0xfd,
  0xba, 0xcd, 0xce, 0x2b, 0xdb, 0x13, 0xdf, 0x3d, 0xc3, 0xe4, 0xb7, 0x32,
  0xe2, 0xd0, 0x3b, 0xdf, 0xae, 0x3e, 0x1c, 0xd8, 0xee, 0xf7, 0xc7, 0xf1,
  0xff, 0xda, 0x30, 0xb1, 0xb4, 0xd7, 0x1b, 0xaa, 0xcf, 0xf7, 0xfb, 0xf5,
  0xbf, 0xe3, 0xd7, 0xeb, 0x2b, 0xf3, 0xe2, 0xc9, 0x21, 0xcf, 0x14, 0xd2,
  0x07, 0x2e, 0x16, 0x16, 0x3a, 0x2d, 0xc7, 0xcc, 0x0c, 0xf1, 0xcb, 0xfc,
  0xee, 0xc8, 0xb0, 0xaa, 0xf1, 0x4f, 0x45, 0xda, 0x4c, 0xe4, 0xca, 0x29,
  0x1a, 0xb2, 0xc2, 0xf4, 0x2d, 0xbb, 0xbd, 0xef, 0x07, 0xe6, 0x46, 0xaf,
  0x0b, 0xf8, 0xd5, 0xb5, 0x1e, 0x24, 0xdd, 0x01, 0xfe, 0xff, 0x26, 0x49,
  0x3c, 0x33, 0xb4, 0x25, 0x05, 0x16, 0x39, 0xcc, 0x40, 0xb6, 0x22, 0x4d,
  0x27, 0x20, 0x1b, 0xc9, 0xd9, 0x10, 0x32, 0xfd, 0xf5, 0xaf, 0x2f, 0x21,
  0xd4, 0xbd, 0x3c, 0x12, 0xdb, 0x44, 0x1f, 0x23, 0xff, 0xdb, 0x22, 0xdb,
  0xf1, 0x41, 0xb8, 0x40, 0xdc, 0x07, 0xc5, 0xfb, 0xc0, 0xde, 0xba, 0x23,
  0xb2, 0x19, 0xda, 0x36, 0x4b, 0xec, 0x0a, 0xcb, 0xdc, 0xee, 0xb1, 0xbc,
  0x17, 0xe2, 0xc5, 0xe0, 0x06, 0xce, 0xb4, 0xc9, 0xc4, 0xff, 0xd3, 0xbc,
  0x15, 0xe3, 0xcf, 0xf5, 0xe3, 0x3f, 0x4d, 0xbf, 0xd6, 0x1b, 0x4a, 0x3c,
  0x27, 0x10, 0x12, 0xc8, 0x3e, 0xdf, 0x02, 0x42, 0xe1, 0xe9, 0x3d, 0xcb,
  0xc8, 0x36, 0xca, 0x48, 0x00, 0xb7, 0x29, 0x0f, 0xf3, 0xd6, 0x17, 0x0b,
  0x28, 0xba, 0x12, 0xef, 0x00, 0x26, 0xeb, 0xf0, 0xee, 0x27, 0xf0, 0xcf,
  0xd9, 0xfd, 0xe9, 0xd5, 0x4a, 0xc6, 0x4d, 0xde, 0x51, 0x18, 0xfc, 0x0a,
  0xd7, 0x2c, 0xce, 0xb5, 0xb5, 0xf9, 0x1c, 0x21, 0xcf, 0xf2, 0x3f, 0xea,
  0xe2, 0xdb, 0x28, 0xee, 0xf8, 0x19, 0x10, 0xa0, 0xd6, 0x16, 0x0e, 0xdb,
  0x41, 0xb9, 0x19, 0x10, 0xa6, 0xe0, 0x22, 0xc9, 0xab, 0x04, 0xad, 0x31,
  0x15, 0xbe, 0xc1, 0xb2, 0xb2, 0x05, 0x14, 0xf3, 0xfb, 0x1a, 0xdb, 0x28,
  0x1a, 0xc7, 0xa2, 0xf9, 0xb7, 0xfd, 0xd9, 0x10, 0xb2, 0x24, 0xbc, 0xeb,
  0x33, 0xaa, 0xe7, 0xd6, 0x9c, 0x0f, 0xb9, 0xe3, 0xdd, 0x2f, 0x13, 0x15,
  0x40, 0x31, 0xf4, 0x24, 0xf8, 0xf9, 0x01, 0xbf, 0x07, 0xdb, 0x9d, 0x13,
  0xb8, 0xf3, 0xe2, 0xbf, 0xb9, 0x1d, 0x15, 0x14, 0xa8, 0x47, 0xfa, 0x26,
  0x49, 0xe6, 0xd2, 0x47, 0xfc, 0xc8, 0xb0, 0xbf, 0x2f, 0x30, 0xed, 0x26,
  0xc0, 0xc4, 0xf6, 0x28, 0xf0, 0x11, 0xd9, 0x18, 0x41, 0x33, 0xe5, 0xde,
  0x4d, 0xb7, 0x49, 0x0a, 0x3e, 0x26, 0xc2, 0xb9, 0xec, 0xee, 0xbb, 0xd6,
  0xbe, 0xc8, 0x31, 0xd3, 0xfd, 0xc1, 0xd8, 0xea, 0x42, 0x38, 0x3e, 0x00,
  0x48, 0x0c, 0xff, 0x15, 0x2f, 0x26, 0xc3, 0xfa, 0x48, 0xf8, 0x3f, 0x1f,
  0xdb, 0xe2, 0xf7, 0xc0, 0xb7, 0xf2, 0x02, 0xcd, 0xeb, 0xd0, 0xb4, 0xfe,
  0xca, 0xf6, 0x0b, 0xd0, 0x39, 0xd0, 0x28, 0xcc, 0x20, 0xc3, 0xc8, 0x23,
  0xe5, 0xfe, 0xda, 0x0a, 0x06, 0xeb, 0x40, 0x3a, 0x38, 0xbb, 0xb8, 0x22,
  0xd6, 0x1d, 0xff, 0x09, 0xe3, 0x10, 0xf1, 0xce, 0xc9, 0xdb, 0xb4, 0x39,
  0x1b, 0x0f, 0x1d, 0x4f, 0xe8, 0xc6, 0x0a, 0x3b, 0x2d, 0xbc, 0x37, 0x3d,
  0x11, 0x20, 0xba, 0xe1, 0x0d, 0xe0, 0xd3, 0xce, 0x3d, 0xd1, 0x29, 0x1f,
  0x40, 0xbb, 0x3d, 0xfe, 0x0c, 0x1f, 0x23, 0x19, 0xcf, 0x0e, 0x1a, 0x11,
  0x18, 0xce, 0x28, 0xed, 0xdd, 0x0a, 0x02, 0xbc, 0x40, 0x3d, 0x3b, 0x33,
  0xd2, 0xeb, 0xbe, 0xbb, 0xf4, 0xd7, 0x07, 0x46, 0x4e, 0x44, 0x35, 0xca,
  0xb8, 0xb9, 0x2a, 0x14, 0x10, 0xe2, 0x2b, 0x00, 0x10, 0x56, 0x1a, 0xf5,
  0x1f, 0x0a, 0x3c, 0xd9, 0x21, 0xc7, 0xcd, 0xd6, 0xcb, 0x1f, 0xe4, 0x33,
  0xed, 0x3d, 0xd5, 0xee, 0x81, 0xb0, 0xc3, 0xee, 0xc1, 0xc0, 0xec, 0xe4,
  0x2d, 0xcc, 0xc2, 0x2e, 0x2d, 0xf2, 0x46, 0x3d, 0xce, 0x13, 0xe7, 0xb5,
  0x4b, 0xe4, 0x23, 0x01, 0x39, 0x26, 0x27, 0xe9, 0xd8, 0x08, 0x1c, 0xbe,
  0x33, 0x10, 0xfb, 0xeb, 0x51, 0xc8, 0xce, 0x3b, 0x1f, 0xa8, 0xbb, 0x4c,
  0xf3, 0xdd, 0x23, 0xfd, 0xb3, 0xba, 0x02, 0xa9, 0x3d, 0x0b, 0xeb, 0x04,
  0x4a, 0x0d, 0xd1, 0x07, 0xf2, 0xcd, 0xca, 0x26, 0x18, 0xb8, 0x4e, 0xc1,
  0xf2, 0xee, 0xe0, 0xdd, 0xb0, 0xde, 0x05, 0x1e, 0x09, 0x28, 0x26, 0x2b,
  0x1f, 0xdb, 0xf8, 0xb6, 0x28, 0x3e, 0x03, 0xb7, 0xcd, 0x10, 0x32, 0xf6,
  0x2e, 0x2e, 0xc9, 0x51, 0x11, 0xe4, 0xd0, 0x42, 0x2a, 0x24, 0x38, 0x41,
  0xe3, 0x2f, 0xe9, 0x0e, 0xde, 0xd1, 0xb4, 0x11, 0xaa, 0xec, 0xce, 0x29,
  0xf9, 0x1e, 0x13, 0xb5, 0xce, 0x1a, 0x36, 0x2d, 0x07, 0x04, 0xb3, 0xdd,
  0x4b, 0x3a, 0x38, 0xdd, 0x1d, 0xfe, 0xc6, 0x2e, 0xc2, 0x30, 0x1f, 0xdb,
  0x06, 0xc2, 0xdf, 0xe5, 0x0f, 0xdc, 0xb2, 0xb8, 0x1b, 0xde, 0xf6, 0xbe,
  0xb8, 0x46, 0x01, 0xde, 0x2c, 0xb1, 0x42, 0xef, 0x3c, 0x25, 0xb3, 0xb5,
  0xcc, 0x15, 0xc6, 0x47, 0x4b, 0x49, 0x4a, 0xf6, 0xc9, 0xb6, 0x35, 0xc9,
  0x20, 0x35, 0xc4, 0x0f, 0x0f, 0x38, 0xf4, 0x04, 0x1a, 0x2e, 0xb1, 0xb0,
  0x0e, 0xcb, 0x48, 0xcd, 0xc5, 0x49, 0xbe, 0xba, 0x26, 0xf8, 0x1d, 0x05,
  0x3b, 0x01, 0x1a, 0x43, 0x3f, 0xba, 0xbc, 0x19, 0xf4, 0xf3, 0x0b, 0x2e,
  0xd1, 0x51, 0xd2, 0xb5, 0xe1, 0xd4, 0xff, 0x31, 0xcd, 0xf0, 0xcb, 0x21,
  0xaf, 0xdf, 0x35, 0xb9, 0x00, 0xd7, 0x0b, 0x43, 0x3e, 0xd7, 0x67, 0x13,
  0x59, 0x30, 0x57, 0xd9, 0x67, 0x47, 0xf2, 0x35, 0x18, 0xd8, 0x3c, 0x11,
  0xfb, 0x5f, 0xf5, 0xf3, 0xec, 0xd2, 0xcf, 0xd8, 0xbd, 0x09, 0x56, 0x11,
  0xc0, 0x38, 0x05, 0xf6, 0x02, 0xd4, 0xef, 0x2b, 0xef, 0x42, 0x2d, 0x3d,
  0x4e, 0x20, 0x0e, 0xf8, 0xcf, 0x45, 0x21, 0x0e, 0xad, 0x2e, 0xd4, 0xe0,
  0x16, 0xaf, 0x46, 0x5e, 0x4c, 0x08, 0x52, 0x22, 0x02, 0x3e, 0x02, 0x2a,
  0x55, 0xff, 0xe2, 0x34, 0x4c, 0x69, 0xe6, 0x19, 0x00, 0xbb, 0x36, 0xb4,
  0xbe, 0xee, 0x07, 0x49, 0xce, 0xe3, 0xc6, 0x35, 0x22, 0x26, 0x2c, 0xb4,
  0xef, 0x4d, 0xb0, 0x51, 0x17, 0xc2, 0x17, 0x2e, 0xb1, 0x2f, 0x42, 0x42,
  0xda, 0x40, 0xd1, 0x08, 0x25, 0xff, 0x21, 0xe0, 0xd2, 0xb5, 0xc1, 0x2f,
  0xbd, 0x3b, 0x31, 0x29, 0x0a, 0xf8, 0xee, 0x05, 0x19, 0xdc, 0xea, 0x1b,
  0xcd, 0xe5, 0x06, 0xf5, 0x0b, 0xd8, 0xeb, 0xb5, 0x0b, 0xec, 0x20, 0x2c,
  0xf5, 0xcf, 0xc5, 0xd5, 0xd1, 0x44, 0x17, 0xb3, 0x39, 0x37, 0xf7, 0xf7,
  0xcd, 0xed, 0x2a, 0xb6, 0xcd, 0xba, 0x3f, 0xf4, 0xa9, 0xbd, 0xed, 0xbe,
  0xde, 0x2b, 0xfd, 0x06, 0xd7, 0x16, 0x3c, 0xe1, 0x3f, 0x37, 0xf0, 0x23,
  0x3c, 0xad, 0x46, 0x24, 0xb9, 0x04, 0xe7, 0xf3, 0xc3, 0x41, 0x09, 0x47,
  0xf6, 0x15, 0x3c, 0xb2, 0xdc, 0xdd, 0xee, 0x37, 0xee, 0xa9, 0x40, 0xae,
  0xcf, 0x48, 0xe4, 0xf9, 0x38, 0xaf, 0xe8, 0xbd, 0xf1, 0x03, 0x23, 0xbe,
  0x04, 0x1a, 0xde, 0xfb, 0x25, 0x17, 0xda, 0x4b, 0xbc, 0xb5, 0x2e, 0x1d,
  0xaf, 0x18, 0xed, 0x44, 0xe7, 0x05, 0xd3, 0xb3, 0xce, 0x37, 0xd2, 0x09,
  0xd3, 0x0a, 0x09, 0x0f, 0x4a, 0xf7, 0x38, 0xf6, 0xf8, 0xca, 0x4a, 0xb2,
  0xc4, 0xd9, 0xbc, 0x12, 0xf1, 0x16, 0x3b, 0xdd, 0x38, 0xf2, 0xcb, 0x0d,
  0x1a, 0xe1, 0x08, 0x40, 0x09, 0x30, 0xf9, 0xdc, 0x0d, 0xe6, 0x38, 0xb1,
  0xe4, 0xd4, 0xdc, 0xc7, 0xfc, 0xd9, 0xce, 0x12, 0x14, 0xfa, 0x18, 0x51,
  0x1c, 0x06, 0xd8, 0xf2, 0xc2, 0x10, 0x26, 0xa8, 0x42, 0x12, 0xb5, 0x12,
  0x1d, 0xd1, 0xd6, 0x24, 0xf7, 0xf5, 0x02, 0x2b, 0xba, 0x41, 0x2e, 0xf1,
  0x1d, 0x00, 0x1b, 0xfc, 0xbb, 0x26, 0xb5, 0xf3, 0x3f, 0xcf, 0x10, 0xbe,
  0x42, 0xbc, 0xd9, 0xde, 0xe3, 0xfa, 0xbe, 0xf9, 0xdf, 0x2e, 0x0c, 0xad,
  0xd9, 0x1d, 0xc8, 0xb7, 0xd3, 0xed, 0x32, 0xc6, 0xf5, 0xd5, 0x38, 0x12,
  0xb9, 0xe1, 0xfa, 0xf8, 0xb7, 0x27, 0xf4, 0x45, 0x20, 0x39, 0xe3, 0x36,
  0xcf, 0xb6, 0xc2, 0xc9, 0x41, 0x2c, 0x2d, 0x15, 0xcc, 0xd7, 0x25, 0x4a,
  0xbf, 0xba, 0x11, 0x2e, 0x05, 0x46, 0x22, 0x41, 0xee, 0x1b, 0xd5, 0x47,
  0x45, 0xde, 0xbe, 0x1b, 0xf8, 0xe6, 0x0f, 0x25, 0x01, 0x12, 0x40, 0x48,
  0xf3, 0x2f, 0x12, 0x13, 0xbd, 0x16, 0x22, 0x2c, 0xe0, 0xb6, 0xdc, 0x46,
  0xe2, 0x24, 0xb6, 0xf9, 0xf3, 0x16, 0x0c, 0x22, 0x2b, 0xf3, 0x3c, 0x1a,
  0xf9, 0xe8, 0x32, 0x1b, 0xeb, 0xe5, 0xf3, 0xea, 0x25, 0xbe, 0x3e, 0x30,
  0xf0, 0x10, 0x07, 0x04, 0xe7, 0xde, 0xff, 0xd0, 0xbe, 0xd0, 0x43, 0x2f,
  0xe2, 0x5c, 0x4c, 0xbb, 0xf9, 0x40, 0xcf, 0x4f, 0x3d, 0xcd, 0xf3, 0x31,
  0xc2, 0x16, 0x0d, 0xdf, 0x2e, 0x24, 0x09, 0xd6, 0xd1, 0xe6, 0xb7, 0xfb,
  0x3b, 0x58, 0xc4, 0xd8, 0x18, 0x0c, 0x41, 0x30, 0x08, 0xe0, 0x17, 0xf6,
  0xc1, 0x4a, 0x51, 0xcf, 0xc1, 0xe0, 0x47, 0x32, 0x4f, 0xde, 0x2c, 0x01,
  0xe2, 0xc7, 0xd0, 0x2b, 0xdd, 0xc6, 0xc2, 0x0f, 0xd2, 0xff, 0xbe, 0x46,
  0x1e, 0x1f, 0xcc, 0x3d, 0xd9, 0xd2, 0xd9, 0x3b, 0x06, 0xe8, 0xcb, 0xe9,
  0xb2, 0x2a, 0x10, 0x12, 0x02, 0x0c, 0xbc, 0xe9, 0xfc, 0xda, 0x2c, 0x28,
  0xa6, 0x02, 0xa1, 0x25, 0xd9, 0xa0, 0x3a, 0xf4, 0xa2, 0xb9, 0x22, 0xa7,
  0xd3, 0x26, 0x02, 0x27, 0xdb, 0xbf, 0x3d, 0xf1, 0x2a, 0xc5, 0xd2, 0xdb,
  0xf2, 0xc3, 0x28, 0xd5, 0xd0, 0xef, 0xa9, 0xb7, 0xed, 0xa6, 0xf0, 0x36,
  0x35, 0x15, 0x04, 0xcc, 0x09, 0xd8, 0x1e, 0xfe, 0xeb, 0x3f, 0xc5, 0xdb,
  0x27, 0xa6, 0xe1, 0xe8, 0xf8, 0x03, 0x0f, 0x44, 0xdf, 0xfd, 0x36, 0xbd,
  0xb6, 0x26, 0xeb, 0x32, 0xf6, 0xd2, 0xcd, 0x13, 0xce, 0x1f, 0x1a, 0x40,
  0xc7, 0xcc, 0x43, 0xcc, 0xe0, 0x03, 0xad, 0x03, 0xb6, 0xea, 0xf2, 0x2e,
  0x07, 0xd5, 0xd1, 0x43, 0x04, 0x44, 0x42, 0xf5, 0xe9, 0xdf, 0x2e, 0x25,
  0x07, 0xd0, 0x4c, 0x36, 0x42, 0x29, 0xea, 0xf1, 0xf1, 0xf0, 0x31, 0xce,
  0xb8, 0xcb, 0x20, 0x22, 0xd7, 0x41, 0x15, 0x2c, 0x45, 0xf8, 0x0c, 0xd1,
  0xa7, 0xd6, 0xc0, 0xe1, 0x31, 0x0b, 0x01, 0xee, 0x0d, 0x9a, 0xa4, 0x2c,
  0xe1, 0xb1, 0xb5, 0xa8, 0x92, 0xe5, 0xac, 0xdc, 0xfb, 0x19, 0x1b, 0x19,
  0x45, 0x03, 0xac, 0x28, 0x2f, 0xe7, 0xe7, 0x13, 0x0b, 0xd1, 0xf7, 0xd2,
  0x19, 0xfe, 0xe8, 0x9e, 0xbe, 0x01, 0x06, 0x20, 0x2d, 0x3c, 0xd3, 0x22,
  0x01, 0xaa, 0xeb, 0xf8, 0x55, 0xec, 0x2f, 0x01, 0xcd, 0x06, 0xb9, 0xc2,
  0xe7, 0x19, 0x22, 0x1b, 0x26, 0x20, 0x0b, 0x4b, 0xa2, 0xec, 0xc7, 0xf2,
  0x2a, 0xd4, 0xf0, 0x2b, 0x2d, 0x22, 0xfb, 0xd8, 0xb6, 0x12, 0xcf, 0xf9,
  0x49, 0xf2, 0x17, 0xbc, 0x01, 0x05, 0xc7, 0x17, 0xe0, 0x0a, 0x49, 0xf8,
  0xe6, 0x32, 0xc9, 0xc2, 0x50, 0x30, 0xff, 0xd9, 0xdf, 0xf5, 0xec, 0x0e,
  0x21, 0xed, 0x22, 0xfa, 0xb7, 0x29, 0x38, 0x1c, 0x0d, 0x3b, 0xe0, 0xda,
  0xed, 0xc4, 0xde, 0xda, 0xc9, 0xda, 0xfe, 0xdd, 0xd9, 0x35, 0x8e, 0xbf,
  0xb3, 0x10, 0xe7, 0x9d, 0x9b, 0x91, 0xaf, 0x11, 0xad, 0xbc, 0x29, 0x1e,
  0x12, 0x9d, 0x1d, 0xc5, 0xd2, 0x2d, 0x37, 0x39, 0x21, 0x05, 0x1f, 0xf3,
  0x26, 0xdd, 0x21, 0x0a, 0xd8, 0x01, 0xde, 0x30, 0x1f, 0x14, 0xd8, 0xf2,
  0xef, 0xa2, 0x0a, 0x1d, 0xc6, 0xa9, 0x25, 0x1f, 0xde, 0xbc, 0x2c, 0xf1,
  0x04, 0xfb, 0xb1, 0x26, 0x0b, 0x17, 0xf7, 0x0f, 0x90, 0x97, 0x26, 0x94,
  0x2e, 0xa3, 0x20, 0x03, 0xfc, 0xe1, 0xe1, 0x13, 0x0c, 0x92, 0x0b, 0x32,
  0x40, 0x0f, 0xd1, 0xd5, 0x16, 0x11, 0xde, 0xb6, 0x3e, 0xd0, 0x0a, 0xc1,
  0xee, 0x20, 0xcc, 0x06, 0x49, 0x4a, 0xad, 0x15, 0x2f, 0x07, 0x4a, 0xef,
  0x25, 0x0b, 0x16, 0xb2, 0x3e, 0x26, 0x12, 0xbc, 0x2c, 0x17, 0xbf, 0xe7,
  0xf8, 0x2b, 0xe4, 0xbb, 0xcc, 0x41, 0x28, 0xf3, 0xf5, 0xb0, 0xcc, 0x10,
  0x0f, 0xe2, 0xd2, 0xf6, 0x50, 0x2c, 0x44, 0x1e, 0xeb, 0x3d, 0x31, 0xd0,
  0xe3, 0x47, 0xea, 0xd8, 0x16, 0xdf, 0x09, 0xbf, 0xff, 0xf4, 0x4d, 0xb1,
  0x1f, 0x13, 0x13, 0xab, 0xe2, 0xd1, 0x34, 0xea, 0x21, 0x2f, 0x24, 0x05,
  0xc3, 0x17, 0xdc, 0x33, 0x16, 0xd0, 0x3d, 0x29, 0xb8, 0x31, 0xf2, 0x02,
  0xbc, 0x37, 0xce, 0x55, 0x36, 0xc9, 0xf2, 0x0c, 0x14, 0x06, 0xbd, 0xef,
  0x0b, 0x1e, 0x24, 0x1f, 0x0a, 0x4a, 0xc6, 0xd9, 0xee, 0x03, 0x24, 0xfc,
  0xec, 0x28, 0xe9, 0xf2, 0xea, 0xb9, 0xe9, 0x37, 0x33, 0xcf, 0xda, 0xdb,
  0xb7, 0xdf, 0x51, 0xed, 0x46, 0xd8, 0x47, 0x23, 0x42, 0xce, 0xef, 0xb2,
  0x21, 0x0f, 0x02, 0xe4, 0x1b, 0x0c, 0xd5, 0x25, 0xd2, 0xb9, 0xc2, 0xb5,
  0x46, 0xf1, 0x3e, 0xf3, 0x0d, 0xf7, 0xda, 0x20, 0x42, 0xbf, 0xdd, 0x33,
  0xcf, 0x06, 0xce, 0xbb, 0x24, 0xc8, 0xe4, 0x48, 0x42, 0xe9, 0xce, 0xe2,
  0x3b, 0xdb, 0xaf, 0xb2, 0x8b, 0xe3, 0xad, 0xa4, 0xfe, 0x14, 0xdc, 0xaa,
  0x25, 0x0b, 0x9f, 0xed, 0xc2, 0xc8, 0x07, 0xd7, 0x2e, 0x03, 0x04, 0x1a,
  0x78, 0xdc, 0x0f, 0xff, 0x0a, 0x3e, 0xf3, 0x1b, 0xf1, 0xcb, 0xcc, 0x15,
  0xda, 0xf4, 0xe3, 0xd3, 0x1a, 0xba, 0x0e, 0x0d, 0xaa, 0xdf, 0xed, 0x2d,
  0xdf, 0xcd, 0xc5, 0xcf, 0x24, 0x38, 0x20, 0x07, 0x33, 0x39, 0x2b, 0x19,
  0xb0, 0x1b, 0xe5, 0xb9, 0xec, 0xbe, 0x07, 0xa4, 0xb7, 0x1f, 0x2d, 0x1d,
  0x2f, 0x13, 0xa8, 0x58, 0xf6, 0x29, 0xd1, 0xe8, 0xea, 0x46, 0xe1, 0x49,
  0x41, 0x0d, 0x39, 0xad, 0x23, 0xde, 0xf7, 0xf7, 0xcc, 0xf3, 0xf8, 0x02,
  0xfb, 0xf2, 0x44, 0x30, 0xbc, 0x13, 0x05, 0xd8, 0x1d, 0xf6, 0xbb, 0xd8,
  0xd7, 0x40, 0xe7, 0xdb, 0x44, 0xe0, 0xe3, 0xe2, 0xdd, 0x11, 0xe5, 0x3f,
  0x2a, 0x42, 0xbb, 0x0a, 0x51, 0xe2, 0xfe, 0xde, 0xc2, 0xcd, 0x15, 0xfd,
  0xba, 0xd6, 0x12, 0x0e, 0xd3, 0x2b, 0x34, 0x13, 0xce, 0x12, 0x34, 0x0f,
  0x10, 0x16, 0xdf, 0x33, 0x1d, 0xe4, 0xdf, 0xd2, 0x0d, 0xa7, 0x46, 0x2f,
  0xa7, 0xf8, 0x13, 0xc3, 0xae, 0xc1, 0xd4, 0xe4, 0x4a, 0x24, 0xce, 0xa9,
  0xf6, 0x2e, 0x14, 0xb7, 0x24, 0xd2, 0xaa, 0x20, 0x43, 0x4b, 0x08, 0x25,
  0x37, 0x44, 0x21, 0x34, 0x38, 0xe9, 0xf8, 0xd1, 0x1a, 0xde, 0xe5, 0x41,
  0x18, 0xe1, 0xe3, 0xae, 0xc5, 0x21, 0xff, 0x2e, 0xf8, 0x24, 0x19, 0xd2,
  0x41, 0x10, 0xdb, 0xe4, 0x0d, 0x1b, 0x3c, 0x3f, 0x2f, 0x05, 0xf8, 0xc7,
  0xe8, 0x1b, 0x42, 0x1b, 0xeb, 0x12, 0x12, 0xec, 0xcf, 0x3a, 0x04, 0x4b,
  0xdd, 0xb5, 0xe2, 0xd9, 0xc1, 0xc9, 0xd3, 0x2a, 0x50, 0xb2, 0xde, 0x0a,
  0xd4, 0x3b, 0xc7, 0xe3, 0xd5, 0xda, 0xc7, 0x20, 0xd2, 0xe7, 0x28, 0x08,
  0xf7, 0xfa, 0xfe, 0x34, 0x47, 0xed, 0xe2, 0x27, 0xcc, 0x0d, 0x1d, 0xca,
  0xbb, 0xe1, 0xdc, 0xb9, 0xbe, 0xe2, 0x0f, 0xb6, 0x0f, 0xa8, 0x1c, 0xe4,
  0x29, 0xe1, 0x3d, 0x4c, 0x1a, 0x1e, 0x1b, 0xe0, 0x2c, 0xf3, 0xdc, 0xf9,
  0x1c, 0x02, 0x34, 0x18, 0x02, 0x02, 0x0c, 0xe7, 0x29, 0xe5, 0xc6, 0x1c,
  0xc7, 0x37, 0xff, 0x40, 0xcb, 0x04, 0xb5, 0x02, 0x06, 0xf5, 0x2b, 0xc3,
  0xb8, 0xcc, 0xc7, 0xc0, 0x1f, 0xf9, 0x36, 0xc9, 0xfe, 0x02, 0x26, 0xe2,
  0xf4, 0xcf, 0x54, 0x2e, 0xd4, 0xe7, 0x10, 0x09, 0xe4, 0xe7, 0xdb, 0xfd,
  0xd9, 0x15, 0xed, 0x1b, 0x31, 0xfa, 0xb9, 0x37, 0x1a, 0xe2, 0xe4, 0x40,
  0x07, 0xfb, 0x0d, 0xba, 0x23, 0xc5, 0x37, 0xf4, 0xd4, 0x2e, 0xc6, 0xf2,
  0x12, 0xfb, 0xc7, 0x4e, 0x49, 0xe6, 0x30, 0xd4, 0xfa, 0x45, 0x4d, 0x07,
  0x1b, 0xf2, 0x18, 0xe4, 0xdf, 0xd0, 0xf1, 0x45, 0xde, 0xe8, 0x48, 0x02,
  0x25, 0xa9, 0xca, 0xd1, 0x2e, 0xa1, 0xc5, 0xd4, 0xb6, 0xfe, 0x10, 0x2d,
  0xc3, 0xc3, 0xe9, 0xd2, 0x13, 0xff, 0xde, 0x29, 0xda, 0x1c, 0x11, 0x3b,
  0x0c, 0x4f, 0x33, 0xef, 0xd8, 0x4c, 0x13, 0x04, 0xdb, 0x21, 0xed, 0xfc,
  0x10, 0xc1, 0x1b, 0x1a, 0x33, 0xd6, 0x11, 0xb8, 0xc3, 0x22, 0xf6, 0x3c,
  0xe2, 0x23, 0x0e, 0x02, 0x46, 0x41, 0x27, 0xb3, 0xd5, 0xe0, 0xf9, 0xba,
  0x0f, 0xce, 0x2c, 0xa6, 0xa0, 0x29, 0x05, 0xae, 0xe3, 0xef, 0xfb, 0x0b,
  0xbb, 0xfe, 0xd9, 0xd4, 0x1d, 0xe4, 0xd2, 0x1d, 0x4e, 0xbe, 0x3a, 0xd9,
  0x43, 0x14, 0x43, 0x42, 0xce, 0x22, 0xe1, 0x46, 0x01, 0xe4, 0x11, 0x0f,
  0xf4, 0x10, 0xd0, 0x4c, 0x50, 0xfb, 0xba, 0xfa, 0xce, 0xd1, 0x41, 0x21,
  0xd6, 0xaf, 0xf4, 0xdf, 0xd4, 0x51, 0xc7, 0x45, 0xbb, 0xd1, 0xe3, 0xb4,
  0x2d, 0xba, 0x43, 0xbe, 0x02, 0xf8, 0x0a, 0xf0, 0xe8, 0x61, 0x00, 0xc5,
  0x44, 0x39, 0x21, 0xd5, 0x5e, 0x31, 0xf3, 0x17, 0x16, 0x00, 0x40, 0xfa,
  0xe5, 0x2e, 0x14, 0xf2, 0x03, 0xf6, 0xb9, 0x8c, 0xb4, 0x26, 0x1c, 0xd1,
  0x00, 0xdb, 0x01, 0x0e, 0x13, 0x2a, 0xdd, 0x3d, 0x2b, 0xf5, 0x29, 0x27,
  0x13, 0x2a, 0x31, 0x09, 0x3f, 0xc7, 0xf1, 0x3d, 0xff, 0xf0, 0x30, 0xb6,
  0x32, 0x47, 0x03, 0xf0, 0x4e, 0xde, 0x46, 0x28, 0xfd, 0xe0, 0xc8, 0x31,
  0x07, 0x3c, 0x3b, 0xfd, 0x09, 0xdc, 0x41, 0x3a, 0xc3, 0xb9, 0xe0, 0x27,
  0xd0, 0xdb, 0xe3, 0xd4, 0xbb, 0xbe, 0xb5, 0xe2, 0x40, 0x16, 0x16, 0x45,
  0x30, 0xfe, 0xdb, 0x37, 0x1e, 0xf7, 0x33, 0xd1, 0xb8, 0xcf, 0x45, 0x19,
  0xe1, 0xe0, 0xc1, 0xc5, 0xdc, 0xb2, 0xd6, 0x35, 0x2a, 0xc7, 0x03, 0x2f,
  0xf9, 0x2d, 0xbb, 0xb5, 0xcb, 0xe4, 0x31, 0x2b, 0xca, 0xaf, 0xc6, 0xcc,
  0x39, 0xcd, 0xba, 0x01, 0x01, 0x3c, 0x29, 0x52, 0x38, 0xfd, 0x0f, 0xe6,
  0x4e, 0xf1, 0xdb, 0x3d, 0x58, 0xd6, 0xfd, 0xe2, 0xff, 0x09, 0x1c, 0xf0,
  0x2d, 0xd6, 0xb5, 0xad, 0x36, 0x3e, 0xee, 0x32, 0x37, 0xce, 0x06, 0xf3,
  0xdb, 0x3e, 0xc9, 0xe3, 0xf9, 0xcf, 0xf2, 0x51, 0x1b, 0xda, 0xdf, 0x03,
  0xf2, 0xec, 0xad, 0x3c, 0x2b, 0xd4, 0xbb, 0x3a, 0x30, 0x4c, 0xb4, 0xe4,
  0x03, 0xcc, 0xc8, 0xbf, 0xf5, 0x1b, 0x10, 0x0d, 0xba, 0x13, 0xeb, 0x50,
  0xee, 0x1f, 0xd0, 0xea, 0x45, 0xd7, 0x22, 0xed, 0x0d, 0x51, 0x05, 0x4f,
  0xda, 0x1b, 0xeb, 0x1d, 0x11, 0xba, 0xcf, 0xef, 0x33, 0x3d, 0x40, 0xe6,
  0xdc, 0xbc, 0xd1, 0x39, 0xb5, 0x07, 0x0e, 0x06, 0xbc, 0xf3, 0x1e, 0x20,
  0x14, 0x04, 0x47, 0x11, 0x15, 0x26, 0x26, 0xc8, 0x16, 0x10, 0x29, 0xb5,
  0x3b, 0xf8, 0xd1, 0xd1, 0xf7, 0x3a, 0xe7, 0x48, 0x4d, 0xef, 0xee, 0x03,
  0x14, 0xb4, 0x29, 0x1e, 0x42, 0x39, 0x10, 0xe2, 0x34, 0xfe, 0xdb, 0xe6,
  0x44, 0xe9, 0xfa, 0x20, 0x43, 0xbe, 0x25, 0x0b, 0x24, 0xe2, 0x1b, 0xd6,
  0xf0, 0xc3, 0x2d, 0xe5, 0xca, 0x40, 0xfd, 0x11, 0xbe, 0x2d, 0x03, 0xd0,
  0x09, 0xd0, 0xc5, 0xcc, 0xc1, 0xe9, 0xf4, 0x17, 0xb2, 0x06, 0x1c, 0xbc,
  0xfb, 0x09, 0x10, 0xd0, 0x0d, 0x16, 0xe9, 0x01, 0x0e, 0xbd, 0x3f, 0x19,
  0xea, 0x1c, 0xf7, 0xd9, 0xf0, 0x12, 0xc8, 0x2a, 0x3a, 0xb9, 0x35, 0x1a,
  0x19, 0x41, 0xf7, 0xf7, 0x0e, 0xdf, 0x12, 0xea, 0x13, 0xb8, 0x07, 0xf8,
  0xd2, 0xef, 0xdf, 0xdc, 0x32, 0xd5, 0xfd, 0xce, 0x1e, 0x20, 0xdd, 0xde,
  0x0a, 0x06, 0x25, 0xba, 0x4d, 0xd2, 0x12, 0xfa, 0x32, 0xd6, 0x4a, 0x1d,
  0x3e, 0xc9, 0x2f, 0x15, 0xc1, 0x46, 0x2e, 0xfb, 0xd0, 0x0f, 0xf0, 0xc6,
  0xee, 0xc6, 0x4c, 0x29, 0xf7, 0xe8, 0xe9, 0x05, 0x0a, 0x4c, 0x36, 0x09,
  0x19, 0xc1, 0xfe, 0x26, 0xda, 0xe9, 0x44, 0xfc, 0x45, 0x0d, 0x2b, 0xb2,
  0xe2, 0xb5, 0xde, 0x08, 0x07, 0x2f, 0xfa, 0x32, 0x2a, 0x01, 0xba, 0x15,
  0xe9, 0xf3, 0x37, 0x11, 0x1c, 0xdd, 0x2b, 0x13, 0x3c, 0xd5, 0xc8, 0x15,
  0x01, 0x13, 0x05, 0x35, 0x06, 0xda, 0x48, 0xf5, 0x3a, 0xe1, 0xf3, 0x66,
  0x68, 0x07, 0x34, 0x0f, 0xc3, 0xf0, 0xe1, 0x1e, 0xe5, 0x35, 0xdb, 0x05,
  0xba, 0xba, 0xde, 0xf8, 0x14, 0xe1, 0x0b, 0xef, 0x48, 0x12, 0x27, 0x3d,
  0x37, 0xda, 0xcb, 0xce, 0x3f, 0x17, 0x0d, 0x4a, 0xc9, 0x29, 0xbf, 0x21,
  0xd3, 0x51, 0xbd, 0xb6, 0x39, 0x02, 0xf4, 0xb6, 0x04, 0xb1, 0x13, 0xe4,
  0x3b, 0x4f, 0x1e, 0xe3, 0x4a, 0x09, 0xf4, 0xaf, 0x35, 0x26, 0xc4, 0xbb,
  0x4a, 0x31, 0xe1, 0x10, 0xf9, 0xb8, 0x21, 0x03, 0xd0, 0x2e, 0x35, 0xaf,
  0x3c, 0x00, 0x30, 0xf0, 0xf5, 0x32, 0x0e, 0x03, 0x46, 0xcb, 0x3b, 0xc4,
  0x29, 0xc6, 0x45, 0xe3, 0xb6, 0xcd, 0x2a, 0x57, 0x16, 0x0a, 0xb0, 0x3c,
  0x2e, 0xf2, 0x23, 0xde, 0x02, 0xc7, 0xbc, 0x32, 0xc4, 0xbb, 0x48, 0xe6,
  0x06, 0x39, 0x03, 0xef, 0xb3, 0x08, 0x20, 0xd4, 0xc2, 0x22, 0xf6, 0xe2,
  0xd3, 0xa6, 0x14, 0x07, 0x02, 0x1f, 0xfc, 0x04, 0xfb, 0xc5, 0xcc, 0x07,
  0xea, 0x47, 0xe2, 0x05, 0x23, 0x3d, 0xee, 0xd7, 0xc2, 0xa9, 0x29, 0x0e,
  0x3f, 0xb6, 0xd9, 0x47, 0xac, 0xba, 0xe0, 0xa8, 0x20, 0x06, 0x4d, 0xd7,
  0xba, 0xe9, 0xc7, 0x1b, 0x09, 0xe9, 0xc3, 0x43, 0x12, 0xd1, 0x06, 0x1e,
  0xf9, 0x14, 0xed, 0x13, 0x26, 0x2e, 0xcb, 0x3a, 0xca, 0xda, 0xc7, 0x0e,
  0x39, 0xe2, 0x18, 0xfa, 0x1d, 0x2f, 0x3a, 0x19, 0x35, 0x48, 0x4b, 0xe4,
  0x34, 0xc9, 0x19, 0x0e, 0xbe, 0xd4, 0xb4, 0xcc, 0x42, 0x20, 0xde, 0xc7,
  0xe7, 0x06, 0xa9, 0x41, 0xc1, 0xbc, 0x18, 0xb9, 0x34, 0x40, 0xa7, 0x15,
  0x1c, 0xb2, 0xd5, 0xe4, 0xd7, 0x3d, 0xd6, 0x16, 0x20, 0xcc, 0x37, 0xb0,
  0xfa, 0xb9, 0x22, 0x20, 0xe7, 0x46, 0x36, 0x27, 0xf4, 0xbe, 0x39, 0x1a,
  0xc1, 0x04, 0x01, 0x44, 0xf7, 0x2c, 0xe4, 0xaa, 0x32, 0x33, 0xbc, 0x48,
  0x02, 0xf7, 0xe0, 0x0d, 0x37, 0xae, 0x28, 0xff, 0xd1, 0x3c, 0xfe, 0x2c,
  0xd2, 0xbd, 0xeb, 0xac, 0xd4, 0xad, 0xaf, 0xdd, 0xec, 0xe7, 0xfd, 0xb5,
  0xe3, 0xee, 0x03, 0xf4, 0xe5, 0x05, 0x45, 0x01, 0x38, 0xfe, 0x0e, 0x0d,
  0xfe, 0xbf, 0xd7, 0xd2, 0x23, 0x28, 0xdc, 0xdd, 0xd2, 0xd6, 0xd4, 0xc7,
  0x4b, 0x06, 0x0a, 0x1e, 0xbb, 0xf2, 0x35, 0xc5, 0xe7, 0xcb, 0xf1, 0x21,
  0xc7, 0x50, 0xb9, 0xb2, 0xfe, 0xb6, 0xcd, 0xb3, 0xd1, 0x39, 0x35, 0xfb,
  0xb6, 0x1a, 0x31, 0xdf, 0x24, 0x38, 0xde, 0xcd, 0x24, 0xef, 0x16, 0x00,
  0xe1, 0x42, 0xab, 0xdd, 0x5a, 0x32, 0xba, 0xc8, 0xfc, 0xf3, 0xf0, 0x4c,
  0xd3, 0x1b, 0xbf, 0xcc, 0xd4, 0x2a, 0x19, 0xe7, 0xc5, 0xda, 0x03, 0xe7,
  0x3c, 0xae, 0x02, 0x3f, 0xd4, 0xd5, 0x3c, 0x00, 0xe1, 0xcb, 0xf4, 0xbd,
  0x05, 0xe7, 0x60, 0x56, 0x0d, 0x12, 0xcf, 0xf2, 0x13, 0x02, 0xe9, 0xcc,
  0x18, 0xac, 0xd4, 0x25, 0xc5, 0xe6, 0x1c, 0xe1, 0x55, 0x29, 0xcd, 0xdb,
  0xe5, 0xef, 0xc9, 0x16, 0xf9, 0x34, 0xfe, 0x07, 0xcc, 0x4f, 0x56, 0x3a,
  0x09, 0xcc, 0x14, 0xde, 0x01, 0x47, 0x16, 0x00, 0xe6, 0xdc, 0xe6, 0xcc,
  0x08, 0x14, 0x23, 0xcc, 0x1c, 0xbb, 0xc3, 0xb6, 0xca, 0x0d, 0xe3, 0xce,
  0x3b, 0x14, 0x11, 0x08, 0xf7, 0xef, 0xcc, 0xe8, 0x51, 0x4f, 0xc8, 0x03,
  0xc3, 0x03, 0x3c, 0xd0, 0xc8, 0xe3, 0xcb, 0xe5, 0xf9, 0x08, 0xd6, 0xc8,
  0x10, 0xe8, 0xd9, 0x0e, 0x1d, 0xd3, 0x11, 0x39, 0x20, 0x9c, 0xdb, 0x24,
  0xe5, 0xc1, 0x35, 0xa7, 0xd2, 0x08, 0xd8, 0xb3, 0xca, 0xe7, 0x30, 0xfd,
  0xe6, 0xfe, 0x18, 0x54, 0x45, 0x09, 0x20, 0xf1, 0xf2, 0xf8, 0x0b, 0xd7,
  0xc9, 0xca, 0xcf, 0xb8, 0xe9, 0x23, 0x16, 0x22, 0x00, 0x3c, 0x21, 0x2d,
  0x18, 0x1e, 0x1c, 0xff, 0x19, 0xc9, 0xad, 0x1b, 0x2c, 0xce, 0x1a, 0xc8,
  0x2f, 0x37, 0x9e, 0x28, 0x26, 0x34, 0x20, 0xf8, 0xa5, 0x0b, 0xde, 0x1c,
  0xe0, 0xee, 0xca, 0xb4, 0x10, 0x20, 0xb7, 0xd7, 0xae, 0x44, 0xed, 0xf9,
  0xa8, 0x49, 0x06, 0x39, 0xc3, 0xbb, 0x46, 0x11, 0xe0, 0x3e, 0xbb, 0xc3,
  0x47, 0x35, 0xda, 0x4d, 0x1e, 0x2e, 0x15, 0x29, 0x0d, 0xcf, 0xbe, 0xf8,
  0x47, 0xcd, 0x0b, 0x2a, 0xbd, 0xb5, 0xfa, 0xdf, 0xbd, 0xdb, 0xb8, 0xcd,
  0xdd, 0x4e, 0xb0, 0xdc, 0x16, 0xc6, 0x16, 0xe0, 0xb4, 0xc9, 0x41, 0x2f,
  0xf9, 0xfa, 0x1e, 0x04, 0x29, 0x42, 0xed, 0xef, 0xca, 0xd3, 0x41, 0xdd,
  0xc7, 0x30, 0x2d, 0xbe, 0xfc, 0xdc, 0x91, 0xf2, 0xe2, 0x15, 0x15, 0x24,
  0x50, 0x0e, 0x20, 0x47, 0xf0, 0x05, 0xe6, 0xfc, 0x39, 0x30, 0xdc, 0x15,
  0x19, 0xc0, 0x08, 0xfa, 0x40, 0x31, 0x22, 0x2a, 0xf0, 0xd2, 0xc8, 0x5c,
  0x4b, 0xf2, 0x5a, 0xfd, 0xe4, 0x12, 0xde, 0xd1, 0x52, 0x19, 0xb9, 0xba,
  0x06, 0x30, 0xec, 0x14, 0x1b, 0x2f, 0x39, 0xb9, 0x2c, 0xc8, 0xfd, 0x0a,
  0x3f, 0xfc, 0xc3, 0x39, 0xf3, 0xbe, 0x46, 0xf5, 0x20, 0x3c, 0xbb, 0xfb,
  0x25, 0x28, 0xd5, 0x06, 0x06, 0x07, 0x41, 0x0a, 0xf2, 0x2f, 0x47, 0x4d,
  0xde, 0xf4, 0x43, 0x0b, 0x33, 0xc4, 0xbb, 0xdd, 0xf2, 0xcf, 0x2f, 0xb8,
  0xb1, 0x07, 0x28, 0xc2, 0x10, 0x23, 0x4c, 0x10, 0x23, 0x3d, 0x2b, 0xc2,
  0x50, 0xcc, 0xec, 0x13, 0xf4, 0xb3, 0xba, 0xd1, 0xbc, 0xe0, 0x0c, 0xf4,
  0x2f, 0xc1, 0x54, 0x12, 0xef, 0x43, 0x00, 0xf9, 0xdb, 0xb7, 0xd8, 0x4f,
  0xce, 0x0d, 0xe6, 0xe4, 0xe1, 0xf8, 0xb3, 0xeb, 0x40, 0xd3, 0xc3, 0xc1,
  0x0c, 0xff, 0xd4, 0x4d, 0xdd, 0xc1, 0xce, 0x44, 0xbe, 0x04, 0xc5, 0xea,
  0x13, 0xeb, 0x24, 0x2f, 0xbb, 0x00, 0xf8, 0x53, 0xc5, 0x53, 0xd8, 0xb8,
  0x03, 0x17, 0xdb, 0xdd, 0x06, 0xed, 0xf2, 0xbc, 0x41, 0xe6, 0x1c, 0x2e,
  0xbe, 0xb8, 0xcd, 0xf5, 0x40, 0x18, 0xb8, 0x4d, 0x13, 0x4d, 0xce, 0xb5,
  0x39, 0x46, 0xf1, 0x34, 0xc0, 0x49, 0xb7, 0x2d, 0xd0, 0x1d, 0xcf, 0xd4,
  0xc0, 0xb8, 0x01, 0x16, 0xdc, 0xdf, 0x07, 0xd6, 0xc3, 0x1a, 0x1d, 0xf2,
  0x07, 0x33, 0xfe, 0xe1, 0xb4, 0x38, 0x27, 0xc9, 0x4f, 0x4b, 0x30, 0x24,
  0xd4, 0xda, 0x1a, 0xec, 0xfd, 0xbd, 0x10, 0xcf, 0xe2, 0x30, 0xe8, 0x05,
  0x19, 0x00, 0x0d, 0xd2, 0xcc, 0x3c, 0x3f, 0xb1, 0x2e, 0xec, 0xed, 0xfe,
  0x12, 0x0e, 0xad, 0x3d, 0xb0, 0x09, 0x0c, 0x41, 0x2e, 0x10, 0xef, 0xf2,
  0xf1, 0x17, 0x0b, 0x1c, 0xa5, 0x23, 0xfa, 0xb5, 0xac, 0xa5, 0x29, 0xdb,
  0x2f, 0xfa, 0x30, 0xb8, 0x0b, 0xe4, 0xf8, 0x43, 0xbd, 0x32, 0xa4, 0x26,
  0xd2, 0x0a, 0xf8, 0x0b, 0x15, 0xcc, 0xd2, 0xb9, 0x1f, 0x16, 0xfb, 0x40,
  0xeb, 0xe7, 0x2d, 0x2d, 0xb5, 0x00, 0xf6, 0x29, 0xc6, 0x17, 0x32, 0xcb,
  0x21, 0x2e, 0xaa, 0x3e, 0xed, 0xde, 0xd4, 0x39, 0x25, 0xfc, 0xed, 0xd4,
  0x06, 0xec, 0x27, 0x27, 0x23, 0x10, 0xfd, 0x26, 0x3e, 0xdf, 0xe3, 0xc8,
  0xbf, 0x42, 0x43, 0xc4, 0x03, 0xdb, 0xf9, 0x3d, 0x22, 0xf3, 0xea, 0x32,
  0xcc, 0x1f, 0xc4, 0xd5, 0x42, 0x15, 0x31, 0xca, 0xe5, 0x15, 0xc9, 0x01,
  0x48, 0xef, 0x44, 0x3f, 0x2a, 0x22, 0x3a, 0xd1, 0x24, 0xd5, 0x35, 0x4e,
  0xd2, 0xdc, 0x1f, 0xfe, 0xc7, 0xf8, 0xc1, 0x29, 0x28, 0xa1, 0x39, 0xc8,
  0xaa, 0xe0, 0x2e, 0xbb, 0x39, 0xde, 0xc8, 0xff, 0x0c, 0x36, 0xc6, 0x32,
  0x40, 0xdd, 0x38, 0x2a, 0x1f, 0x2f, 0x19, 0x23, 0x0f, 0xa9, 0xd7, 0x0a,
  0xdf, 0xc2, 0xb6, 0x15, 0xf0, 0xb5, 0xd3, 0xe5, 0xf7, 0x09, 0x2d, 0xda,
  0xd2, 0x0f, 0xca, 0xe5, 0x35, 0xc0, 0x32, 0xa2, 0xd5, 0x34, 0xd8, 0xcd,
  0xd3, 0xed, 0xb8, 0xa8, 0x3a, 0xbc, 0xe8, 0xaf, 0xef, 0xef, 0xd3, 0xc2,
  0xa1, 0x07, 0xc0, 0x1f, 0x30, 0x1f, 0x34, 0xf3, 0xdc, 0xb4, 0x15, 0x2b,
  0xb1, 0x15, 0xcb, 0x15, 0x42, 0x13, 0xc1, 0xe1, 0xdd, 0xfc, 0x01, 0xb0,
  0x02, 0xe6, 0x05, 0x19, 0x40, 0x11, 0xe7, 0xe8, 0x13, 0xf7, 0x4c, 0x29,
  0xd8, 0xd2, 0xce, 0xe1, 0x40, 0x03, 0x05, 0xb5, 0x2e, 0x0d, 0xaf, 0xda,
  0xbb, 0xe7, 0x46, 0xeb, 0xb6, 0x04, 0xda, 0x3a, 0xce, 0xfc, 0xff, 0xff,
  0x04, 0x00, 0x00, 0x00, 0x00, 0x02, 0x00, 0x00, 0x11, 0xff, 0xff, 0xff,
  0xab, 0xff, 0xff, 0xff, 0xa6, 0xff, 0xff, 0xff, 0x81, 0x01, 0x00, 0x00,
  0xe9, 0x18, 0x00, 0x00, 0x10, 0x29, 0x00, 0x00, 0xc1, 0x05, 0x00, 0x00,
  0x86, 0x00, 0x00, 0x00, 0x7f, 0x00, 0x00, 0x00, 0xb0, 0x05, 0x00, 0x00,
  0xfe, 0x04, 0x00, 0x00, 0xef, 0xfd, 0xff, 0xff, 0xd7, 0x00, 0x00, 0x00,
  0xf7, 0xfe, 0xff, 0xff, 0xf3, 0x01, 0x00, 0x00, 0xcc, 0x00, 0x00, 0x00,
  0xcd, 0xff, 0xff, 0xff, 0xd2, 0xff, 0xff, 0xff, 0xe3, 0x12, 0x00, 0x00,
  0x5e, 0x25, 0x00, 0x00, 0x13, 0x1c, 0x00, 0x00, 0x22, 0x12, 0x00, 0x00,
  0x0a, 0x07, 0x00, 0x00, 0x16, 0xff, 0xff, 0xff, 0x6f, 0x05, 0x00, 0x00,
  0xa0, 0x02, 0x00, 0x00, 0x89, 0x03, 0x00, 0x00, 0x45, 0x00, 0x00, 0x00,
  0x03, 0x0f, 0x00, 0x00, 0x4d, 0x0e, 0x00, 0x00, 0x88, 0x0d, 0x00, 0x00,
  0xb8, 0x07, 0x00, 0x00, 0x83, 0x06, 0x00, 0x00, 0x3a, 0x0b, 0x00, 0x00,
  0x3e, 0x04, 0x00, 0x00, 0xa5, 0x02, 0x00, 0x00, 0x53, 0xff, 0xff, 0xff,
  0xce, 0x07, 0x00, 0x00, 0xda, 0x0e, 0x00, 0x00, 0x91, 0x02, 0x00, 0x00,
  0x6f, 0x03, 0x00, 0x00, 0x54, 0x05, 0x00, 0x00, 0x65, 0x04, 0x00, 0x00,
  0x7c, 0x03, 0x00, 0x00, 0xf6, 0x02, 0x00, 0x00, 0x60, 0x01, 0x00, 0x00,
  0x4d, 0x00, 0x00, 0x00, 0xc6, 0x01, 0x00, 0x00, 0x57, 0x01, 0x00, 0x00,
  0x43, 0x00, 0x00, 0x00, 0xa5, 0x00, 0x00, 0x00, 0xc8, 0x03, 0x00, 0x00,
  0xd0, 0x02, 0x00, 0x00, 0x00, 0x03, 0x00, 0x00, 0x43, 0x00, 0x00, 0x00,
  0xf4, 0xfe, 0xff, 0xff, 0x22, 0x01, 0x00, 0x00, 0xe8, 0x01, 0x00, 0x00,
  0xde, 0xff, 0xff, 0xff, 0xbb, 0xff, 0xff, 0xff, 0x1f, 0xff, 0xff, 0xff,
  0x4f, 0x00, 0x00, 0x00, 0x75, 0x00, 0x00, 0x00, 0x48, 0x01, 0x00, 0x00,
  0x82, 0xff, 0xff, 0xff, 0x17, 0x00, 0x00, 0x00, 0x62, 0x00, 0x00, 0x00,
  0xc9, 0xfe, 0xff, 0xff, 0x54, 0x00, 0x00, 0x00, 0x8b, 0xff, 0xff, 0xff,
  0xf6, 0xfd, 0xff, 0xff, 0x38, 0x01, 0x00, 0x00, 0xff, 0xfe, 0xff, 0xff,
  0x98, 0xfe, 0xff, 0xff, 0xf3, 0x00, 0x00, 0x00, 0xa7, 0xff, 0xff, 0xff,
  0x0a, 0x00, 0x00, 0x00, 0xff, 0xff, 0xff, 0xff, 0x39, 0x00, 0x00, 0x00,
  0x6a, 0x00, 0x00, 0x00, 0x66, 0x00, 0x00, 0x00, 0x47, 0x01, 0x00, 0x00,
  0x5a, 0xff, 0xff, 0xff, 0x23, 0x00, 0x00, 0x00, 0xf3, 0xfe, 0xff, 0xff,
  0xc3, 0xff, 0xff, 0xff, 0x2f, 0x00, 0x00, 0x00, 0x36, 0xff, 0xff, 0xff,
  0x68, 0xff, 0xff, 0xff, 0x05, 0x01, 0x00, 0x00, 0x6f, 0x00, 0x00, 0x00,
  0x06, 0xff, 0xff, 0xff, 0x52, 0x00, 0x00, 0x00, 0x31, 0x00, 0x00, 0x00,
  0xee, 0xfe, 0xff, 0xff, 0xd1, 0x00, 0x00, 0x00, 0xe8, 0xff, 0xff, 0xff,
  0x00, 0x02, 0x00, 0x00, 0xca, 0x00, 0x00, 0x00, 0x09, 0x00, 0x00, 0x00,
  0xa9, 0xff, 0xff, 0xff, 0xce, 0xfe, 0xff, 0xff, 0x36, 0xff, 0xff, 0xff,
  0x01, 0xff, 0xff, 0xff, 0xf6, 0xfd, 0xff, 0xff, 0x02, 0x01, 0x00, 0x00,
  0x00, 0x00, 0x00, 0x00, 0xb7, 0x00, 0x00, 0x00, 0x80, 0x01, 0x00, 0x00,
  0xc0, 0xff, 0xff, 0xff, 0xf1, 0x00, 0x00, 0x00, 0x21, 0x01, 0x00, 0x00,
  0xdf, 0xff, 0xff, 0xff, 0x9a, 0xff, 0xff, 0xff, 0xcd, 0xfe, 0xff, 0xff,
  0xcd, 0xff, 0xff, 0xff, 0xf2, 0xfe, 0xff, 0xff, 0x63, 0x00, 0x00, 0x00,
  0xc1, 0xff, 0xff, 0xff, 0x99, 0xfe, 0xff, 0xff, 0x97, 0x00, 0x00, 0x00,
  0x09, 0x00, 0x00, 0x00, 0xb8, 0xff, 0xff, 0xff, 0x68, 0xff, 0xff, 0xff,
  0xba, 0xfe, 0xff, 0xff, 0xad, 0x01, 0x00, 0x00, 0xc5, 0xfe, 0xff, 0xff,
  0x3f, 0x01, 0x00, 0x00, 0xda, 0xfe, 0xff, 0xff, 0x04, 0x00, 0x00, 0x00,
  0x80, 0x00, 0x00, 0x00, 0x8e, 0xfa, 0xff, 0xff, 0xd5, 0xec, 0xff, 0xff,
  0x4c, 0xe8, 0xff, 0xff, 0x33, 0x24, 0x00, 0x00, 0x0a, 0xef, 0xff, 0xff,
  0x30, 0xf3, 0xff, 0xff, 0xca, 0xeb, 0xff, 0xff, 0xfa, 0x0f, 0x00, 0x00,
  0x99, 0xef, 0xff, 0xff, 0xb1, 0xf3, 0xff, 0xff, 0x9b, 0xf9, 0xff, 0xff,
  0x66, 0xee, 0xff, 0xff, 0xbf, 0x18, 0x00, 0x00, 0x3d, 0xf7, 0xff, 0xff,
  0x9a, 0xfa, 0xff, 0xff, 0xf3, 0xed, 0xff, 0xff, 0x26, 0xf7, 0xff, 0xff,
  0x4e, 0xfb, 0xff, 0xff, 0xc9, 0xf8, 0xff, 0xff, 0xfe, 0xfa, 0xff, 0xff,
  0x4a, 0xfa, 0xff, 0xff, 0xdc, 0xf7, 0xff, 0xff, 0xb3, 0xee, 0xff, 0xff,
  0x14, 0x18, 0x00, 0x00, 0xed, 0xf3, 0xff, 0xff, 0x00, 0xf4, 0xff, 0xff,
  0x33, 0xee, 0xff, 0xff, 0x40, 0xfb, 0xff, 0xff, 0xdd, 0xfa, 0xff, 0xff,
  0xda, 0xfa, 0xff, 0xff, 0x91, 0x19, 0x00, 0x00, 0x9c, 0xf6, 0xff, 0xff,
  0x66, 0xff, 0xff, 0xff, 0x04, 0x00, 0x00, 0x00, 0x40, 0x00, 0x00, 0x00,
  0x42, 0xfe, 0xff, 0xff, 0x7d, 0xfb, 0xff, 0xff, 0x45, 0xf7, 0xff, 0xff,
  0x32, 0xfd, 0xff, 0xff, 0xa4, 0xfa, 0xff, 0xff, 0x43, 0xfe, 0xff, 0xff,
  0x12, 0x04, 0x00, 0x00, 0x5a, 0xfd, 0xff, 0xff, 0x6f, 0x03, 0x00, 0x00,
  0xe4, 0xff, 0xff, 0xff, 0xa3, 0x00, 0x00, 0x00, 0x57, 0xfb, 0xff, 0xff,
  0x29, 0xfa, 0xff, 0xff, 0xe5, 0xfb, 0xff, 0xff, 0x42, 0x03, 0x00, 0x00,
  0x9d, 0xfc, 0xff, 0xff, 0xb2, 0xff, 0xff, 0xff, 0x04, 0x00, 0x00, 0x00,
  0x40, 0x00, 0x00, 0x00, 0xf9, 0x02, 0x00, 0x00, 0x8e, 0x0b, 0x00, 0x00,
  0x0a, 0xfd, 0xff, 0xff, 0xe4, 0xf4, 0xff, 0xff, 0xbd, 0xfb, 0xff, 0xff,
  0x21, 0xfa, 0xff, 0xff, 0xf5, 0xfc, 0xff, 0xff, 0xe6, 0x09, 0x00, 0x00,
  0x32, 0xf1, 0xff, 0xff, 0x07, 0x01, 0x00, 0x00, 0x59, 0xff, 0xff, 0xff,
  0x21, 0xf4, 0xff, 0xff, 0x12, 0xfa, 0xff, 0xff, 0x41, 0x02, 0x00, 0x00,
  0x50, 0xfe, 0xff, 0xff, 0x4e, 0xfe, 0xff, 0xff, 0x00, 0x00, 0x06, 0x00,
  0x08, 0x00, 0x04, 0x00, 0x06, 0x00, 0x00, 0x00, 0x04, 0x00, 0x00, 0x00,
  0x80, 0x00, 0x00, 0x00, 0x0d, 0x06, 0x00, 0x00, 0xc8, 0xfe, 0xff, 0xff,
  0x4f, 0xfe, 0xff, 0xff, 0x95, 0xff, 0xff, 0xff, 0xca, 0xfd, 0xff, 0xff,
  0x41, 0x00, 0x00, 0x00, 0xd6, 0x02, 0x00, 0x00, 0x3d, 0xff, 0xff, 0xff,
  0x1a, 0x06, 0x00, 0x00, 0xe2, 0xfe, 0xff, 0xff, 0x64, 0xfd, 0xff, 0xff,
  0xb1, 0xfe, 0xff, 0xff, 0x38, 0xfe, 0xff, 0xff, 0xbd, 0xf9, 0xff, 0xff,
  0xa9, 0xfa, 0xff, 0xff, 0x48, 0x01, 0x00, 0x00, 0x56, 0xf8, 0xff, 0xff,
  0x84, 0xff, 0xff, 0xff, 0xa7, 0xfc, 0xff, 0xff, 0x88, 0xfc, 0xff, 0xff,
  0xe1, 0x05, 0x00, 0x00, 0x6d, 0x02, 0x00, 0x00, 0xc5, 0x00, 0x00, 0x00,
  0x6c, 0xfd, 0xff, 0xff, 0x38, 0x01, 0x00, 0x00, 0xa7, 0xfe, 0xff, 0xff,
  0x9c, 0x00, 0x00, 0x00, 0x01, 0xfd, 0xff, 0xff, 0x2f, 0xfe, 0xff, 0xff,
  0x66, 0x01, 0x00, 0x00, 0x8d, 0xfe, 0xff, 0xff, 0xfc, 0xfd, 0xff, 0xff,
  0x7c, 0xff, 0xff, 0xff, 0x80, 0xff, 0xff, 0xff, 0x0f, 0x00, 0x00, 0x00,
  0x4d, 0x4c, 0x49, 0x52, 0x20, 0x43, 0x6f, 0x6e, 0x76, 0x65, 0x72, 0x74,
  0x65, 0x64, 0x2e, 0x00, 0x01, 0x00, 0x00, 0x00, 0x14, 0x00, 0x00, 0x00,
  0x00, 0x00, 0x0e, 0x00, 0x18, 0x00, 0x14, 0x00, 0x10, 0x00, 0x0c, 0x00,
  0x08, 0x00, 0x04, 0x00, 0x0e, 0x00, 0x00, 0x00, 0x14, 0x00, 0x00, 0x00,
  0x1c, 0x00, 0x00, 0x00, 0x4c, 0x01, 0x00, 0x00, 0x50, 0x01, 0x00, 0x00,
  0x54, 0x01, 0x00, 0x00, 0x04, 0x00, 0x00, 0x00, 0x6d, 0x61, 0x69, 0x6e,
  0x00, 0x00, 0x00, 0x00, 0x05, 0x00, 0x00, 0x00, 0xf4, 0x00, 0x00, 0x00,
  0xac, 0x00, 0x00, 0x00, 0x74, 0x00, 0x00, 0x00, 0x3c, 0x00, 0x00, 0x00,
  0x04, 0x00, 0x00, 0x00, 0x2e, 0xff, 0xff, 0xff, 0x14, 0x00, 0x00, 0x00,
  0x00, 0x00, 0x00, 0x08, 0x10, 0x00, 0x00, 0x00, 0x14, 0x00, 0x00, 0x00,
  0x04, 0x00, 0x04, 0x00, 0x04, 0x00, 0x00, 0x00, 0x01, 0x00, 0x00, 0x00,
  0x0f, 0x00, 0x00, 0x00, 0x03, 0x00, 0x00, 0x00, 0x0e, 0x00, 0x00, 0x00,
  0x0a, 0x00, 0x00, 0x00, 0x05, 0x00, 0x00, 0x00, 0x62, 0xff, 0xff, 0xff,
  0x10, 0x00, 0x00, 0x00, 0x00, 0x00, 0x00, 0x08, 0x10, 0x00, 0x00, 0x00,
  0x14, 0x00, 0x00, 0x00, 0x52, 0xff, 0xff, 0xff, 0x00, 0x00, 0x00, 0x01,
  0x01, 0x00, 0x00, 0x00, 0x0e, 0x00, 0x00, 0x00, 0x03, 0x00, 0x00, 0x00,
  0x0d, 0x00, 0x00, 0x00, 0x09, 0x00, 0x00, 0x00, 0x04, 0x00, 0x00, 0x00,
  0x96, 0xff, 0xff, 0xff, 0x10, 0x00, 0x00, 0x00, 0x00, 0x00, 0x00, 0x08,
  0x10, 0x00, 0x00, 0x00, 0x14, 0x00, 0x00, 0x00, 0x86, 0xff, 0xff, 0xff,
  0x00, 0x00, 0x00, 0x01, 0x01, 0x00, 0x00, 0x00, 0x0d, 0x00, 0x00, 0x00,
  0x03, 0x00, 0x00, 0x00, 0x0c, 0x00, 0x00, 0x00, 0x08, 0x00, 0x00, 0x00,
  0x03, 0x00, 0x00, 0x00, 0xca, 0xff, 0xff, 0xff, 0x10, 0x00, 0x00, 0x00,
  0x00, 0x00, 0x00, 0x08, 0x10, 0x00, 0x00, 0x00, 0x14, 0x00, 0x00, 0x00,
  0xba, 0xff, 0xff, 0xff, 0x00, 0x00, 0x00, 0x01, 0x01, 0x00, 0x00, 0x00,
  0x0c, 0x00, 0x00, 0x00, 0x03, 0x00, 0x00, 0x00, 0x0b, 0x00, 0x00, 0x00,
  0x07, 0x00, 0x00, 0x00, 0x02, 0x00, 0x00, 0x00, 0x00, 0x00, 0x0e, 0x00,
  0x16, 0x00, 0x00, 0x00, 0x10, 0x00, 0x0c, 0x00, 0x0b, 0x00, 0x04, 0x00,
  0x0e, 0x00, 0x00, 0x00, 0x18, 0x00, 0x00, 0x00, 0x00, 0x00, 0x00, 0x08,
  0x18, 0x00, 0x00, 0x00, 0x1c, 0x00, 0x00, 0x00, 0x00, 0x00, 0x06, 0x00,
  0x08, 0x00, 0x07, 0x00, 0x06, 0x00, 0x00, 0x00, 0x00, 0x00, 0x00, 0x01,
  0x01, 0x00, 0x00, 0x00, 0x0b, 0x00, 0x00, 0x00, 0x03, 0x00, 0x00, 0x00,
  0x00, 0x00, 0x00, 0x00, 0x06, 0x00, 0x00, 0x00, 0x01, 0x00, 0x00, 0x00,
  0x01, 0x00, 0x00, 0x00, 0x0f, 0x00, 0x00, 0x00, 0x01, 0x00, 0x00, 0x00,
  0x00, 0x00, 0x00, 0x00, 0x10, 0x00, 0x00, 0x00, 0xbc, 0x08, 0x00, 0x00,
  0x20, 0x08, 0x00, 0x00, 0x90, 0x07, 0x00, 0x00, 0x14, 0x07, 0x00, 0x00,
  0x98, 0x06, 0x00, 0x00, 0x1c, 0x06, 0x00, 0x00, 0xa0, 0x05, 0x00, 0x00,
  0x1c, 0x05, 0x00, 0x00, 0x98, 0x04, 0x00, 0x00, 0x14, 0x04, 0x00, 0x00,
  0x90, 0x03, 0x00, 0x00, 0xd4, 0x02, 0x00, 0x00, 0x10, 0x02, 0x00, 0x00,
  0x4c, 0x01, 0x00, 0x00, 0x88, 0x00, 0x00, 0x00, 0x04, 0x00, 0x00, 0x00,
  0x98, 0xf7, 0xff, 0xff, 0x18, 0x00, 0x00, 0x00, 0x20, 0x00, 0x00, 0x00,
  0x54, 0x00, 0x00, 0x00, 0x10, 0x00, 0x00, 0x00, 0x00, 0x00, 0x00, 0x09,
  0x5c, 0x00, 0x00, 0x00, 0x02, 0x00, 0x00, 0x00, 0xff, 0xff, 0xff, 0xff,
  0x80, 0x00, 0x00, 0x00, 0x84, 0xf7, 0xff, 0xff, 0x10, 0x00, 0x00, 0x00,
  0x18, 0x00, 0x00, 0x00, 0x1c, 0x00, 0x00, 0x00, 0x20, 0x00, 0x00, 0x00,
  0x01, 0x00, 0x00, 0x00, 0x8a, 0xff, 0xff, 0xff, 0xff, 0xff, 0xff, 0xff,
  0x01, 0x00, 0x00, 0x00, 0x56, 0x1c, 0x56, 0x3c, 0x01, 0x00, 0x00, 0x00,
  0xba, 0x2c, 0x4d, 0x40, 0x01, 0x00, 0x00, 0x00, 0xfe, 0x97, 0x01, 0xbe,
  0x0d, 0x00, 0x00, 0x00, 0x49, 0x64, 0x65, 0x6e, 0x74, 0x69, 0x74, 0x79,
  0x5f, 0x69, 0x6e, 0x74, 0x38, 0x00, 0x00, 0x00, 0x02, 0x00, 0x00, 0x00,
  0x01, 0x00, 0x00, 0x00, 0x80, 0x00, 0x00, 0x00, 0x18, 0xf8, 0xff, 0xff,
  0x18, 0x00, 0x00, 0x00, 0x20, 0x00, 0x00, 0x00, 0x54, 0x00, 0x00, 0x00,
  0x0f, 0x00, 0x00, 0x00, 0x00, 0x00, 0x00, 0x09, 0x9c, 0x00, 0x00, 0x00,
  0x02, 0x00, 0x00, 0x00, 0xff, 0xff, 0xff, 0xff, 0x20, 0x00, 0x00, 0x00,
  0x04, 0xf8, 0xff, 0xff, 0x10, 0x00, 0x00, 0x00, 0x18, 0x00, 0x00, 0x00,
  0x1c, 0x00, 0x00, 0x00, 0x20, 0x00, 0x00, 0x00, 0x01, 0x00, 0x00, 0x00,
  0x80, 0xff, 0xff, 0xff, 0xff, 0xff, 0xff, 0xff, 0x01, 0x00, 0x00, 0x00,
  0x9c, 0x9f, 0xc9, 0x3b, 0x01, 0x00, 0x00, 0x00, 0xfc, 0xd5, 0xc8, 0x3f,
  0x01, 0x00, 0x00, 0x00, 0x00, 0x00, 0x00, 0x00, 0x4c, 0x00, 0x00, 0x00,
  0x73, 0x65, 0x71, 0x75, 0x65, 0x6e, 0x74, 0x69, 0x61, 0x6c, 0x2f, 0x64,
  0x65, 0x6e, 0x73, 0x65, 0x5f, 0x33, 0x2f, 0x4d, 0x61, 0x74, 0x4d, 0x75,
  0x6c, 0x3b, 0x73, 0x65, 0x71, 0x75, 0x65, 0x6e, 0x74, 0x69, 0x61, 0x6c,
  0x2f, 0x64, 0x65, 0x6e, 0x73, 0x65, 0x5f, 0x33, 0x2f, 0x52, 0x65, 0x6c,
  0x75, 0x3b, 0x73, 0x65, 0x71, 0x75, 0x65, 0x6e, 0x74, 0x69, 0x61, 0x6c,
  0x2f, 0x64, 0x65, 0x6e, 0x73, 0x65, 0x5f, 0x33, 0x2f, 0x42, 0x69, 0x61,
  0x73, 0x41, 0x64, 0x64, 0x00, 0x00, 0x00, 0x00, 0x02, 0x00, 0x00, 0x00,
  0x01, 0x00, 0x00, 0x00, 0x20, 0x00, 0x00, 0x00, 0xd8, 0xf8, 0xff, 0xff,
  0x18, 0x00, 0x00, 0x00, 0x20, 0x00, 0x00, 0x00, 0x54, 0x00, 0x00, 0x00,
  0x0e, 0x00, 0x00, 0x00, 0x00, 0x00, 0x00, 0x09, 0x9c, 0x00, 0x00, 0x00,
  0x02, 0x00, 0x00, 0x00, 0xff, 0xff, 0xff, 0xff, 0x10, 0x00, 0x00, 0x00,
  0xc4, 0xf8, 0xff, 0xff, 0x10, 0x00, 0x00, 0x00, 0x18, 0x00, 0x00, 0x00,
  0x1c, 0x00, 0x00, 0x00, 0x20, 0x00, 0x00, 0x00, 0x01, 0x00, 0x00, 0x00,
  0x80, 0xff, 0xff, 0xff, 0xff, 0xff, 0xff, 0xff, 0x01, 0x00, 0x00, 0x00,
  0xf4, 0x06, 0xd5, 0x3b, 0x01, 0x00, 0x00, 0x00, 0xed, 0x31, 0xd4, 0x3f,
  0x01, 0x00, 0x00, 0x00, 0x00, 0x00, 0x00, 0x00, 0x4c, 0x00, 0x00, 0x00,
  0x73, 0x65, 0x71, 0x75, 0x65, 0x6e, 0x74, 0x69, 0x61, 0x6c, 0x2f, 0x64,
  0x65, 0x6e, 0x73, 0x65, 0x5f, 0x32, 0x2f, 0x4d, 0x61, 0x74, 0x4d, 0x75,
  0x6c, 0x3b, 0x73, 0x65, 0x71, 0x75, 0x65, 0x6e, 0x74, 0x69, 0x61, 0x6c,
  0x2f, 0x64, 0x65, 0x6e, 0x73, 0x65, 0x5f, 0x32, 0x2f, 0x52, 0x65, 0x6c,
  0x75, 0x3b, 0x73, 0x65, 0x71, 0x75, 0x65, 0x6e, 0x74, 0x69, 0x61, 0x6c,
  0x2f, 0x64, 0x65, 0x6e, 0x73, 0x65, 0x5f, 0x32, 0x2f, 0x42, 0x69, 0x61,
  0x73, 0x41, 0x64, 0x64, 0x00, 0x00, 0x00, 0x00, 0x02, 0x00, 0x00, 0x00,
  0x01, 0x00, 0x00, 0x00, 0x10, 0x00, 0x00, 0x00, 0x98, 0xf9, 0xff, 0xff,
  0x18, 0x00, 0x00, 0x00, 0x20, 0x00, 0x00, 0x00, 0x54, 0x00, 0x00, 0x00,
  0x0d, 0x00, 0x00, 0x00, 0x00, 0x00, 0x00, 0x09, 0x9c, 0x00, 0x00, 0x00,
  0x02, 0x00, 0x00, 0x00, 0xff, 0xff, 0xff, 0xff, 0x10, 0x00, 0x00, 0x00,
  0x84, 0xf9, 0xff, 0xff, 0x10, 0x00, 0x00, 0x00, 0x18, 0x00, 0x00, 0x00,
  0x1c, 0x00, 0x00, 0x00, 0x20, 0x00, 0x00, 0x00, 0x01, 0x00, 0x00, 0x00,
  0x80, 0xff, 0xff, 0xff, 0xff, 0xff, 0xff, 0xff, 0x01, 0x00, 0x00, 0x00,
  0xdb, 0xea, 0x2b, 0x3c, 0x01, 0x00, 0x00, 0x00, 0xf0, 0x3e, 0x2b, 0x40,
  0x01, 0x00, 0x00, 0x00, 0x00, 0x00, 0x00, 0x00, 0x4c, 0x00, 0x00, 0x00,
  0x73, 0x65, 0x71, 0x75, 0x65, 0x6e, 0x74, 0x69, 0x61, 0x6c, 0x2f, 0x64,
  0x65, 0x6e, 0x73, 0x65, 0x5f, 0x31, 0x2f, 0x4d, 0x61, 0x74, 0x4d, 0x75,
  0x6c, 0x3b, 0x73, 0x65, 0x71, 0x75, 0x65, 0x6e, 0x74, 0x69, 0x61, 0x6c,
  0x2f, 0x64, 0x65, 0x6e, 0x73, 0x65, 0x5f, 0x31, 0x2f, 0x52, 0x65, 0x6c,
  0x75, 0x3b, 0x73, 0x65, 0x71, 0x75, 0x65, 0x6e, 0x74, 0x69, 0x61, 0x6c,
  0x2f, 0x64, 0x65, 0x6e, 0x73, 0x65, 0x5f, 0x31, 0x2f, 0x42, 0x69, 0x61,
  0x73, 0x41, 0x64, 0x64, 0x00, 0x00, 0x00, 0x00, 0x02, 0x00, 0x00, 0x00,
  0x01, 0x00, 0x00, 0x00, 0x10, 0x00, 0x00, 0x00, 0x58, 0xfa, 0xff, 0xff,
  0x18, 0x00, 0x00, 0x00, 0x20, 0x00, 0x00, 0x00, 0x54, 0x00, 0x00, 0x00,
  0x0c, 0x00, 0x00, 0x00, 0x00, 0x00, 0x00, 0x09, 0x94, 0x00, 0x00, 0x00,
  0x02, 0x00, 0x00, 0x00, 0xff, 0xff, 0xff, 0xff, 0x20, 0x00, 0x00, 0x00,
  0x44, 0xfa, 0xff, 0xff, 0x10, 0x00, 0x00, 0x00, 0x18, 0x00, 0x00, 0x00,
  0x1c, 0x00, 0x00, 0x00, 0x20, 0x00, 0x00, 0x00, 0x01, 0x00, 0x00, 0x00,
  0x80, 0xff, 0xff, 0xff, 0xff, 0xff, 0xff, 0xff, 0x01, 0x00, 0x00, 0x00,
  0x7a, 0x58, 0xbf, 0x3b, 0x01, 0x00, 0x00, 0x00, 0x22, 0x99, 0xbe, 0x3f,
  0x01, 0x00, 0x00, 0x00, 0x00, 0x00, 0x00, 0x00, 0x46, 0x00, 0x00, 0x00,
  0x73, 0x65, 0x71, 0x75, 0x65, 0x6e, 0x74, 0x69, 0x61, 0x6c, 0x2f, 0x64,
  0x65, 0x6e, 0x73, 0x65, 0x2f, 0x4d, 0x61, 0x74, 0x4d, 0x75, 0x6c, 0x3b,
  0x73, 0x65, 0x71, 0x75, 0x65, 0x6e, 0x74, 0x69, 0x61, 0x6c, 0x2f, 0x64,
  0x65, 0x6e, 0x73, 0x65, 0x2f, 0x52, 0x65, 0x6c, 0x75, 0x3b, 0x73, 0x65,
  0x71, 0x75, 0x65, 0x6e, 0x74, 0x69, 0x61, 0x6c, 0x2f, 0x64, 0x65, 0x6e,
  0x73, 0x65, 0x2f, 0x42, 0x69, 0x61, 0x73, 0x41, 0x64, 0x64, 0x00, 0x00,
  0x02, 0x00, 0x00, 0x00, 0x01, 0x00, 0x00, 0x00, 0x20, 0x00, 0x00, 0x00,
  0xa2, 0xfb, 0xff, 0xff, 0x14, 0x00, 0x00, 0x00, 0x4c, 0x00, 0x00, 0x00,
  0x0b, 0x00, 0x00, 0x00, 0x00, 0x00, 0x00, 0x09, 0x60, 0x00, 0x00, 0x00,
  0xec, 0xfa, 0xff, 0xff, 0x10, 0x00, 0x00, 0x00, 0x1c, 0x00, 0x00, 0x00,
  0x20, 0x00, 0x00, 0x00, 0x24, 0x00, 0x00, 0x00, 0x01, 0x00, 0x00, 0x00,
  0x00, 0x00, 0x00, 0x00, 0x00, 0x00, 0x00, 0x00, 0x00, 0x00, 0x00, 0x00,
  0x01, 0x00, 0x00, 0x00, 0x51, 0x58, 0xb0, 0x3b, 0x01, 0x00, 0x00, 0x00,
  0xa0, 0xf7, 0x2e, 0x3f, 0x01, 0x00, 0x00, 0x00, 0x7f, 0x26, 0xcd, 0xbe,
  0x19, 0x00, 0x00, 0x00, 0x73, 0x65, 0x71, 0x75, 0x65, 0x6e, 0x74, 0x69,
  0x61, 0x6c, 0x2f, 0x64, 0x65, 0x6e, 0x73, 0x65, 0x5f, 0x34, 0x2f, 0x4d,
  0x61, 0x74, 0x4d, 0x75, 0x6c, 0x00, 0x00, 0x00, 0x02, 0x00, 0x00, 0x00,
  0x80, 0x00, 0x00, 0x00, 0x20, 0x00, 0x00, 0x00, 0x22, 0xfc, 0xff, 0xff,
  0x14, 0x00, 0x00, 0x00, 0x4c, 0x00, 0x00, 0x00, 0x0a, 0x00, 0x00, 0x00,
  0x00, 0x00, 0x00, 0x09, 0x60, 0x00, 0x00, 0x00, 0x6c, 0xfb, 0xff, 0xff,
  0x10, 0x00, 0x00, 0x00, 0x1c, 0x00, 0x00, 0x00, 0x20, 0x00, 0x00, 0x00,
  0x24, 0x00, 0x00, 0x00, 0x01, 0x00, 0x00, 0x00, 0x00, 0x00, 0x00, 0x00,
  0x00, 0x00, 0x00, 0x00, 0x00, 0x00, 0x00, 0x00, 0x01, 0x00, 0x00, 0x00,
  0xaf, 0xf8, 0x56, 0x3b, 0x01, 0x00, 0x00, 0x00, 0xbe, 0x4a, 0xd5, 0x3e,
  0x01, 0x00, 0x00, 0x00, 0x3a, 0xde, 0xba, 0xbe, 0x19, 0x00, 0x00, 0x00,
  0x73, 0x65, 0x71, 0x75, 0x65, 0x6e, 0x74, 0x69, 0x61, 0x6c, 0x2f, 0x64,
  0x65, 0x6e, 0x73, 0x65, 0x5f, 0x33, 0x2f, 0x4d, 0x61, 0x74, 0x4d, 0x75,
  0x6c, 0x00, 0x00, 0x00, 0x02, 0x00, 0x00, 0x00, 0x20, 0x00, 0x00, 0x00,
  0x10, 0x00, 0x00, 0x00, 0xa2, 0xfc, 0xff, 0xff, 0x14, 0x00, 0x00, 0x00,
  0x4c, 0x00, 0x00, 0x00, 0x09, 0x00, 0x00, 0x00, 0x00, 0x00, 0x00, 0x09,
  0x60, 0x00, 0x00, 0x00, 0xec, 0xfb, 0xff, 0xff, 0x10, 0x00, 0x00, 0x00,
  0x1c, 0x00, 0x00, 0x00, 0x20, 0x00, 0x00, 0x00, 0x24, 0x00, 0x00, 0x00,
  0x01, 0x00, 0x00, 0x00, 0x00, 0x00, 0x00, 0x00, 0x00, 0x00, 0x00, 0x00,
  0x00, 0x00, 0x00, 0x00, 0x01, 0x00, 0x00, 0x00, 0xeb, 0x06, 0x9b, 0x3b,
  0x01, 0x00, 0x00, 0x00, 0xdd, 0xd0, 0x19, 0x3f, 0x01, 0x00, 0x00, 0x00,
  0x83, 0xad, 0xf9, 0xbe, 0x19, 0x00, 0x00, 0x00, 0x73, 0x65, 0x71, 0x75,
  0x65, 0x6e, 0x74, 0x69, 0x61, 0x6c, 0x2f, 0x64, 0x65, 0x6e, 0x73, 0x65,
  0x5f, 0x32, 0x2f, 0x4d, 0x61, 0x74, 0x4d, 0x75, 0x6c, 0x00, 0x00, 0x00,
  0x02, 0x00, 0x00, 0x00, 0x10, 0x00, 0x00, 0x00, 0x10, 0x00, 0x00, 0x00,
  0x22, 0xfd, 0xff, 0xff, 0x14, 0x00, 0x00, 0x00, 0x4c, 0x00, 0x00, 0x00,
  0x08, 0x00, 0x00, 0x00, 0x00, 0x00, 0x00, 0x09, 0x60, 0x00, 0x00, 0x00,
  0x6c, 0xfc, 0xff, 0xff, 0x10, 0x00, 0x00, 0x00, 0x1c, 0x00, 0x00, 0x00,
  0x20, 0x00, 0x00, 0x00, 0x24, 0x00, 0x00, 0x00, 0x01, 0x00, 0x00, 0x00,
  0x00, 0x00, 0x00, 0x00, 0x00, 0x00, 0x00, 0x00, 0x00, 0x00, 0x00, 0x00,
  0x01, 0x00, 0x00, 0x00, 0xf1, 0x6e, 0x6b, 0x3b, 0x01, 0x00, 0x00, 0x00,
  0x65, 0x0e, 0xd8, 0x3e, 0x01, 0x00, 0x00, 0x00, 0x13, 0x98, 0xe9, 0xbe,
  0x19, 0x00, 0x00, 0x00, 0x73, 0x65, 0x71, 0x75, 0x65, 0x6e, 0x74, 0x69,
  0x61, 0x6c, 0x2f, 0x64, 0x65, 0x6e, 0x73, 0x65, 0x5f, 0x31, 0x2f, 0x4d,
  0x61, 0x74, 0x4d, 0x75, 0x6c, 0x00, 0x00, 0x00, 0x02, 0x00, 0x00, 0x00,
  0x10, 0x00, 0x00, 0x00, 0x20, 0x00, 0x00, 0x00, 0xa2, 0xfd, 0xff, 0xff,
  0x14, 0x00, 0x00, 0x00, 0x48, 0x00, 0x00, 0x00, 0x07, 0x00, 0x00, 0x00,
  0x00, 0x00, 0x00, 0x09, 0x58, 0x00, 0x00, 0x00, 0xec, 0xfc, 0xff, 0xff,
  0x10, 0x00, 0x00, 0x00, 0x18, 0x00, 0x00, 0x00, 0x1c, 0x00, 0x00, 0x00,
  0x20, 0x00, 0x00, 0x00, 0x01, 0x00, 0x00, 0x00, 0x00, 0x00, 0x00, 0x00,
  0x00, 0x00, 0x00, 0x00, 0x01, 0x00, 0x00, 0x00, 0xbc, 0xa0, 0x1b, 0x3b,
  0x01, 0x00, 0x00, 0x00, 0xf4, 0xad, 0x91, 0x3e, 0x01, 0x00, 0x00, 0x00,
  0x7b, 0x69, 0x9a, 0xbe, 0x17, 0x00, 0x00, 0x00, 0x73, 0x65, 0x71, 0x75,
  0x65, 0x6e, 0x74, 0x69, 0x61, 0x6c, 0x2f, 0x64, 0x65, 0x6e, 0x73, 0x65,
  0x2f, 0x4d, 0x61, 0x74, 0x4d, 0x75, 0x6c, 0x00, 0x02, 0x00, 0x00, 0x00,
  0x20, 0x00, 0x00, 0x00, 0x80, 0x00, 0x00, 0x00, 0x1a, 0xfe, 0xff, 0xff,
  0x14, 0x00, 0x00, 0x00, 0x30, 0x00, 0x00, 0x00, 0x06, 0x00, 0x00, 0x00,
  0x00, 0x00, 0x00, 0x02, 0x5c, 0x00, 0x00, 0x00, 0x0c, 0xfe, 0xff, 0xff,
  0x08, 0x00, 0x00, 0x00, 0x10, 0x00, 0x00, 0x00, 0x01, 0x00, 0x00, 0x00,
  0x00, 0x00, 0x00, 0x00, 0x00, 0x00, 0x00, 0x00, 0x01, 0x00, 0x00, 0x00,
  0x4a, 0xe3, 0x0a, 0x38, 0x32, 0x00, 0x00, 0x00, 0x73, 0x65, 0x71, 0x75,
  0x65, 0x6e, 0x74, 0x69, 0x61, 0x6c, 0x2f, 0x64, 0x65, 0x6e, 0x73, 0x65,
  0x5f, 0x34, 0x2f, 0x42, 0x69, 0x61, 0x73, 0x41, 0x64, 0x64, 0x2f, 0x52,
  0x65, 0x61, 0x64, 0x56, 0x61, 0x72, 0x69, 0x61, 0x62, 0x6c, 0x65, 0x4f,
  0x70, 0x2f, 0x72, 0x65, 0x73, 0x6f, 0x75, 0x72, 0x63, 0x65, 0x00, 0x00,
  0x01, 0x00, 0x00, 0x00, 0x80, 0x00, 0x00, 0x00, 0x92, 0xfe, 0xff, 0xff,
  0x14, 0x00, 0x00, 0x00, 0x30, 0x00, 0x00, 0x00, 0x05, 0x00, 0x00, 0x00,
  0x00, 0x00, 0x00, 0x02, 0x5c, 0x00, 0x00, 0x00, 0x84, 0xfe, 0xff, 0xff,
  0x08, 0x00, 0x00, 0x00, 0x10, 0x00, 0x00, 0x00, 0x01, 0x00, 0x00, 0x00,
  0x00, 0x00, 0x00, 0x00, 0x00, 0x00, 0x00, 0x00, 0x01, 0x00, 0x00, 0x00,
  0xc0, 0xe2, 0xb2, 0x37, 0x32, 0x00, 0x00, 0x00, 0x73, 0x65, 0x71, 0x75,
  0x65, 0x6e, 0x74, 0x69, 0x61, 0x6c, 0x2f, 0x64, 0x65, 0x6e, 0x73, 0x65,
  0x5f, 0x33, 0x2f, 0x42, 0x69, 0x61, 0x73, 0x41, 0x64, 0x64, 0x2f, 0x52,
  0x65, 0x61, 0x64, 0x56, 0x61, 0x72, 0x69, 0x61, 0x62, 0x6c, 0x65, 0x4f,
  0x70, 0x2f, 0x72, 0x65, 0x73, 0x6f, 0x75, 0x72, 0x63, 0x65, 0x00, 0x00,
  0x01, 0x00, 0x00, 0x00, 0x20, 0x00, 0x00, 0x00, 0x0a, 0xff, 0xff, 0xff,
  0x14, 0x00, 0x00, 0x00, 0x30, 0x00, 0x00, 0x00, 0x04, 0x00, 0x00, 0x00,
  0x00, 0x00, 0x00, 0x02, 0x5c, 0x00, 0x00, 0x00, 0xfc, 0xfe, 0xff, 0xff,
  0x08, 0x00, 0x00, 0x00, 0x10, 0x00, 0x00, 0x00, 0x01, 0x00, 0x00, 0x00,
  0x00, 0x00, 0x00, 0x00, 0x00, 0x00, 0x00, 0x00, 0x01, 0x00, 0x00, 0x00,
  0xb0, 0x37, 0x50, 0x38, 0x32, 0x00, 0x00, 0x00, 0x73, 0x65, 0x71, 0x75,
  0x65, 0x6e, 0x74, 0x69, 0x61, 0x6c, 0x2f, 0x64, 0x65, 0x6e, 0x73, 0x65,
  0x5f, 0x32, 0x2f, 0x42, 0x69, 0x61, 0x73, 0x41, 0x64, 0x64, 0x2f, 0x52,
  0x65, 0x61, 0x64, 0x56, 0x61, 0x72, 0x69, 0x61, 0x62, 0x6c, 0x65, 0x4f,
  0x70, 0x2f, 0x72, 0x65, 0x73, 0x6f, 0x75, 0x72, 0x63, 0x65, 0x00, 0x00,
  0x01, 0x00, 0x00, 0x00, 0x10, 0x00, 0x00, 0x00, 0x82, 0xff, 0xff, 0xff,
  0x14, 0x00, 0x00, 0x00, 0x34, 0x00, 0x00, 0x00, 0x03, 0x00, 0x00, 0x00,
  0x00, 0x00, 0x00, 0x02, 0x60, 0x00, 0x00, 0x00, 0x74, 0xff, 0xff, 0xff,
  0x08, 0x00, 0x00, 0x00, 0x14, 0x00, 0x00, 0x00, 0x01, 0x00, 0x00, 0x00,
  0x00, 0x00, 0x00, 0x00, 0x00, 0x00, 0x00, 0x00, 0x00, 0x00, 0x00, 0x00,
  0x01, 0x00, 0x00, 0x00, 0x24, 0xf9, 0xaf, 0x37, 0x32, 0x00, 0x00, 0x00,
  0x73, 0x65, 0x71, 0x75, 0x65, 0x6e, 0x74, 0x69, 0x61, 0x6c, 0x2f, 0x64,
  0x65, 0x6e, 0x73, 0x65, 0x5f, 0x31, 0x2f, 0x42, 0x69, 0x61, 0x73, 0x41,
  0x64, 0x64, 0x2f, 0x52, 0x65, 0x61, 0x64, 0x56, 0x61, 0x72, 0x69, 0x61,
  0x62, 0x6c, 0x65, 0x4f, 0x70, 0x2f, 0x72, 0x65, 0x73, 0x6f, 0x75, 0x72,
  0x63, 0x65, 0x00, 0x00, 0x01, 0x00, 0x00, 0x00, 0x10, 0x00, 0x00, 0x00,
  0x00, 0x00, 0x0e, 0x00, 0x18, 0x00, 0x14, 0x00, 0x13, 0x00, 0x0c, 0x00,
  0x08, 0x00, 0x04, 0x00, 0x0e, 0x00, 0x00, 0x00, 0x20, 0x00, 0x00, 0x00,
  0x3c, 0x00, 0x00, 0x00, 0x02, 0x00, 0x00, 0x00, 0x00, 0x00, 0x00, 0x02,
  0x68, 0x00, 0x00, 0x00, 0x0c, 0x00, 0x0c, 0x00, 0x00, 0x00, 0x00, 0x00,
  0x08, 0x00, 0x04, 0x00, 0x0c, 0x00, 0x00, 0x00, 0x08, 0x00, 0x00, 0x00,
  0x10, 0x00, 0x00, 0x00, 0x01, 0x00, 0x00, 0x00, 0x00, 0x00, 0x00, 0x00,
  0x00, 0x00, 0x00, 0x00, 0x01, 0x00, 0x00, 0x00, 0x20, 0x67, 0x97, 0x38,
  0x30, 0x00, 0x00, 0x00, 0x73, 0x65, 0x71, 0x75, 0x65, 0x6e, 0x74, 0x69,
  0x61, 0x6c, 0x2f, 0x64, 0x65, 0x6e, 0x73, 0x65, 0x2f, 0x42, 0x69, 0x61,
  0x73, 0x41, 0x64, 0x64, 0x2f, 0x52, 0x65, 0x61, 0x64, 0x56, 0x61, 0x72,
  0x69, 0x61, 0x62, 0x6c, 0x65, 0x4f, 0x70, 0x2f, 0x72, 0x65, 0x73, 0x6f,
  0x75, 0x72, 0x63, 0x65, 0x00, 0x00, 0x00, 0x00, 0x01, 0x00, 0x00, 0x00,
  0x20, 0x00, 0x00, 0x00, 0x14, 0x00, 0x1c, 0x00, 0x18, 0x00, 0x17, 0x00,
  0x10, 0x00, 0x0c, 0x00, 0x08, 0x00, 0x00, 0x00, 0x00, 0x00, 0x04, 0x00,
  0x14, 0x00, 0x00, 0x00, 0x18, 0x00, 0x00, 0x00, 0x2c, 0x00, 0x00, 0x00,
  0x60, 0x00, 0x00, 0x00, 0x01, 0x00, 0x00, 0x00, 0x00, 0x00, 0x00, 0x09,
  0x6c, 0x00, 0x00, 0x00, 0x02, 0x00, 0x00, 0x00, 0xff, 0xff, 0xff, 0xff,
  0x80, 0x00, 0x00, 0x00, 0x0c, 0x00, 0x14, 0x00, 0x10, 0x00, 0x0c, 0x00,
  0x08, 0x00, 0x04, 0x00, 0x0c, 0x00, 0x00, 0x00, 0x10, 0x00, 0x00, 0x00,
  0x18, 0x00, 0x00, 0x00, 0x1c, 0x00, 0x00, 0x00, 0x20, 0x00, 0x00, 0x00,
  0x01, 0x00, 0x00, 0x00, 0x80, 0xff, 0xff, 0xff, 0xff, 0xff, 0xff, 0xff,
  0x01, 0x00, 0x00, 0x00, 0xce, 0x0c, 0xf9, 0x3c, 0x01, 0x00, 0x00, 0x00,
  0xc1, 0x13, 0xf8, 0x40, 0x01, 0x00, 0x00, 0x00, 0x00, 0x00, 0x00, 0x00,
  0x10, 0x00, 0x00, 0x00, 0x64, 0x65, 0x6e, 0x73, 0x65, 0x5f, 0x69, 0x6e,
  0x70, 0x75, 0x74, 0x5f, 0x69, 0x6e, 0x74, 0x38, 0x00, 0x00, 0x00, 0x00,
  0x02, 0x00, 0x00, 0x00, 0x01, 0x00, 0x00, 0x00, 0x80, 0x00, 0x00, 0x00,
  0x03, 0x00, 0x00, 0x00, 0x40, 0x00, 0x00, 0x00, 0x24, 0x00, 0x00, 0x00,
  0x04, 0x00, 0x00, 0x00, 0xd8, 0xff, 0xff, 0xff, 0x06, 0x00, 0x00, 0x00,
  0x02, 0x00, 0x00, 0x00, 0x00, 0x00, 0x00, 0x06, 0x0c, 0x00, 0x0c, 0x00,
  0x0b, 0x00, 0x00, 0x00, 0x00, 0x00, 0x04, 0x00, 0x0c, 0x00, 0x00, 0x00,
  0x72, 0x00, 0x00, 0x00, 0x00, 0x00, 0x00, 0x72, 0x0c, 0x00, 0x10, 0x00,
  0x0f, 0x00, 0x00, 0x00, 0x08, 0x00, 0x04, 0x00, 0x0c, 0x00, 0x00, 0x00,
  0x09, 0x00, 0x00, 0x00, 0x04, 0x00, 0x00, 0x00, 0x00, 0x00, 0x00, 0x09
};
unsigned int g_model_len = 13608;
