unsigned char g_model[] = {
  0x1c, 0x00, 0x00, 0x00, 0x54, 0x46, 0x4c, 0x33, 0x00, 0x00, 0x12, 0x00,
  0x1c, 0x00, 0x04, 0x00, 0x08, 0x00, 0x0c, 0x00, 0x10, 0x00, 0x14, 0x00,
  0x00, 0x00, 0x18, 0x00, 0x12, 0x00, 0x00, 0x00, 0x03, 0x00, 0x00, 0x00,
  0x68, 0x5e, 0x00, 0x00, 0xc0, 0x52, 0x00, 0x00, 0xa8, 0x52, 0x00, 0x00,
  0x3c, 0x00, 0x00, 0x00, 0x04, 0x00, 0x00, 0x00, 0x01, 0x00, 0x00, 0x00,
  0x0c, 0x00, 0x00, 0x00, 0x08, 0x00, 0x0c, 0x00, 0x04, 0x00, 0x08, 0x00,
  0x08, 0x00, 0x00, 0x00, 0x08, 0x00, 0x00, 0x00, 0x14, 0x00, 0x00, 0x00,
  0x13, 0x00, 0x00, 0x00, 0x6d, 0x69, 0x6e, 0x5f, 0x72, 0x75, 0x6e, 0x74,
  0x69, 0x6d, 0x65, 0x5f, 0x76, 0x65, 0x72, 0x73, 0x69, 0x6f, 0x6e, 0x00,
  0x15, 0x00, 0x00, 0x00, 0x5c, 0x52, 0x00, 0x00, 0x48, 0x52, 0x00, 0x00,
  0x2c, 0x50, 0x00, 0x00, 0x08, 0x4f, 0x00, 0x00, 0xb4, 0x4e, 0x00, 0x00,
  0x80, 0x4e, 0x00, 0x00, 0x2c, 0x4e, 0x00, 0x00, 0x18, 0x4d, 0x00, 0x00,
  0x04, 0x2d, 0x00, 0x00, 0xf0, 0x28, 0x00, 0x00, 0xdc, 0x26, 0x00, 0x00,
  0xc8, 0x24, 0x00, 0x00, 0xb4, 0x20, 0x00, 0x00, 0xa0, 0x00, 0x00, 0x00,
  0x94, 0x00, 0x00, 0x00, 0x80, 0x00, 0x00, 0x00, 0x6c, 0x00, 0x00, 0x00,
  0x58, 0x00, 0x00, 0x00, 0x44, 0x00, 0x00, 0x00, 0x30, 0x00, 0x00, 0x00,
  0x04, 0x00, 0x00, 0x00, 0x26, 0xb0, 0xff, 0xff, 0x04, 0x00, 0x00, 0x00,
  0x10, 0x00, 0x00, 0x00, 0x31, 0x2e, 0x35, 0x2e, 0x30, 0x00, 0x00, 0x00,
  0x00, 0x00, 0x00, 0x00, 0x00, 0x00, 0x00, 0x00, 0x00, 0x00, 0x00, 0x00,
  0x00, 0x00, 0x00, 0x00, 0x00, 0x00, 0x00, 0x00, 0x80, 0xa2, 0xff, 0xff,
  0x00, 0x00, 0x00, 0x00, 0x00, 0x00, 0x00, 0x00, 0x00, 0x00, 0x00, 0x00,
  0x90, 0xa2, 0xff, 0xff, 0x00, 0x00, 0x00, 0x00, 0x00, 0x00, 0x00, 0x00,
  0x00, 0x00, 0x00, 0x00, 0xa0, 0xa2, 0xff, 0xff, 0x00, 0x00, 0x00, 0x00,
  0x00, 0x00, 0x00, 0x00, 0x00, 0x00, 0x00, 0x00, 0xb0, 0xa2, 0xff, 0xff,
  0x00, 0x00, 0x00, 0x00, 0x00, 0x00, 0x00, 0x00, 0x00, 0x00, 0x00, 0x00,
  0xc0, 0xa2, 0xff, 0xff, 0x00, 0x00, 0x00, 0x00, 0x00, 0x00, 0x00, 0x00,
  0x00, 0x00, 0x00, 0x00, 0xd0, 0xa2, 0xff, 0xff, 0x00, 0x00, 0x00, 0x00,
  0xa6, 0xb0, 0xff, 0xff, 0x04, 0x00, 0x00, 0x00, 0x00, 0x20, 0x00, 0x00,
  0x2e, 0x07, 0xdd, 0x07, 0x0b, 0xe8, 0x26, 0xef, 0xde, 0xe4, 0xd9, 0xe2,
  0xe4, 0x25, 0x24, 0xda, 0xd8, 0x0c, 0x0e, 0x04, 0x1a, 0x01, 0x01, 0xe7,
  0x0a, 0xe7, 0xd2, 0x03, 0xea, 0xcb, 0xf9, 0xe1, 0x1a, 0x0e, 0x03, 0xd4,
  0xff, 0xe3, 0x26, 0x22, 0x06, 0xe2, 0xe0, 0xd0, 0xeb, 0x06, 0xda, 0x29,
  0xf6, 0x29, 0x20, 0xd1, 0x0e, 0xe2, 0xdb, 0xd4, 0xe2, 0xce, 0xdd, 0xdc,
  0x22, 0x0a, 0xde, 0x2a, 0xdd, 0x00, 0x19, 0x07, 0x05, 0x2d, 0xe6, 0x1a,
  0x2a, 0x15, 0x2b, 0x30, 0x17, 0x18, 0xd5, 0x1b, 0x23, 0x08, 0x1b, 0xcb,
  0xd6, 0x19, 0x10, 0x28, 0x13, 0x27, 0x26, 0xf7, 0x0e, 0xdc, 0x0b, 0x1c,
  0xe3, 0xcc, 0x08, 0x28, 0xff, 0x32, 0xd5, 0xe2, 0x1d, 0x1f, 0x1f, 0x1c,
  0x24, 0x20, 0x2e, 0xdd, 0x20, 0xd7, 0x21, 0x26, 0x18, 0x1c, 0x25, 0x1f,
  0x24, 0x1e, 0x23, 0xe7, 0xdd, 0x05, 0x22, 0xd5, 0x19, 0xf4, 0xdc, 0xfc,
  0xf7, 0xdc, 0x19, 0xe2, 0x16, 0xe9, 0xd1, 0xcf, 0xe6, 0xf0, 0x1e, 0xe8,
  0xd5, 0x14, 0x0e, 0x0d, 0x2f, 0xea, 0xdf, 0xe6, 0x0d, 0xe3, 0xdd, 0xfc,
  0xf0, 0xd1, 0xfe, 0xdf, 0x23, 0x1c, 0xf8, 0xd6, 0xfc, 0xda, 0x18, 0x2f,
  0x0f, 0xe2, 0xe2, 0xe3, 0xe7, 0xdd, 0xd6, 0x29, 0xdf, 0x1c, 0xfd, 0xe3,
  0xeb, 0xdd, 0xdc, 0xd8, 0xdb, 0xdd, 0xd8, 0xdb, 0x2e, 0x0a, 0xe8, 0x27,
  0x22, 0xfe, 0xd5, 0xfb, 0x12, 0xea, 0x14, 0xe1, 0x17, 0xe0, 0xd7, 0xe4,
  0xe1, 0x23, 0x29, 0xd5, 0xdf, 0xeb, 0xf4, 0x14, 0x2e, 0xf8, 0xfe, 0xec,
  0x00, 0x11, 0xd3, 0x06, 0x05, 0x3b, 0x0a, 0xd1, 0x18, 0x19, 0x05, 0xe2,
  0xfc, 0xdc, 0x18, 0x2f, 0xf4, 0xd1, 0xd1, 0xe2, 0xfe, 0xf4, 0xe4, 0x2a,
  0xf3, 0x1d, 0x0f, 0xe5, 0x06, 0xdf, 0xe3, 0xe0, 0xd6, 0xd9, 0xd7, 0xe2,
  0x29, 0x09, 0x21, 0x27, 0xe3, 0xf7, 0x1f, 0xfb, 0x10, 0x2c, 0xdb, 0x2e,
  0x29, 0x27, 0x2f, 0x21, 0x2d, 0x1b, 0xe5, 0x1d, 0x2d, 0x0d, 0x24, 0xf8,
  0xe2, 0x1e, 0x0c, 0x29, 0x21, 0x1e, 0x29, 0xff, 0x1b, 0xd6, 0xfe, 0x22,
  0xdf, 0xe3, 0xfb, 0x23, 0x09, 0x1f, 0xe6, 0xdd, 0x29, 0x2e, 0x22, 0x2c,
  0x2b, 0x2c, 0x21, 0xd6, 0x27, 0xdd, 0x17, 0x2b, 0x10, 0x1d, 0x21, 0x29,
  0x2c, 0x21, 0x21, 0x21, 0xd6, 0xf8, 0x23, 0xd6, 0xe9, 0x0c, 0x1d, 0xff,
  0x15, 0x1d, 0xed, 0x22, 0x1e, 0x1c, 0x1f, 0x1e, 0x27, 0x23, 0xe1, 0x29,
  0x29, 0x14, 0x22, 0xd4, 0xf1, 0x18, 0x20, 0x1f, 0x12, 0x2c, 0x1e, 0xff,
  0x0d, 0xce, 0xf6, 0x20, 0xd6, 0xdc, 0x03, 0x2f, 0xfe, 0x23, 0x1d, 0xe5,
  0x1a, 0x21, 0x1f, 0x21, 0x28, 0x2e, 0x27, 0xd8, 0x24, 0xe6, 0x2b, 0x1e,
  0x13, 0x25, 0x2f, 0x29, 0x2e, 0x1f, 0x2e, 0xd7, 0xe0, 0x09, 0x25, 0xde,
  0xde, 0xfb, 0x2a, 0x04, 0x14, 0x24, 0xdb, 0x27, 0x23, 0x1b, 0x1e, 0x1d,
  0x2e, 0x17, 0xd5, 0x21, 0x2d, 0x0d, 0x14, 0xd7, 0xe7, 0x1b, 0x10, 0x22,
  0x16, 0x23, 0x1f, 0x0a, 0x10, 0xdc, 0xfd, 0x2b, 0xd4, 0xd9, 0x09, 0x27,
  0xfc, 0x1e, 0xe0, 0xd4, 0x26, 0x31, 0x20, 0x2f, 0x1c, 0x1a, 0x21, 0xd8,
  0x29, 0xdb, 0x25, 0x1d, 0x14, 0x21, 0x32, 0x26, 0x25, 0x20, 0x2b, 0xf0,
  0xcc, 0xf5, 0x24, 0xd9, 0x1e, 0xf6, 0xe6, 0xff, 0xf0, 0xd6, 0x24, 0xe0,
  0xdd, 0xd5, 0xe1, 0xd3, 0xe3, 0xee, 0x2b, 0xe3, 0xd3, 0xee, 0xe5, 0x35,
  0x25, 0xd5, 0xee, 0xe3, 0xdb, 0xe9, 0xde, 0x0a, 0xf5, 0x37, 0xf5, 0xe3,
  0x24, 0x28, 0x07, 0xd7, 0xf7, 0xe3, 0x2d, 0x1d, 0xdc, 0xdf, 0xe1, 0xd4,
  0xe4, 0xda, 0xd5, 0x1e, 0xec, 0x20, 0xd5, 0xe1, 0xe5, 0xe5, 0xdd, 0xdf,
  0xde, 0xd4, 0xde, 0x22, 0x1f, 0x06, 0xde, 0x32, 0xd5, 0x0e, 0x2c, 0x07,
  0x0e, 0x19, 0xe0, 0x1a, 0x1c, 0x1f, 0x20, 0x1e, 0x2a, 0x26, 0xe2, 0x1e,
  0x32, 0x14, 0x15, 0xda, 0xd2, 0x18, 0x16, 0x1f, 0x1a, 0x27, 0x27, 0x08,
  0x18, 0xc7, 0xfb, 0x27, 0xe8, 0xde, 0xf6, 0x28, 0xfe, 0x33, 0xe2, 0xe6,
  0x27, 0x23, 0x26, 0x23, 0x19, 0x21, 0x2d, 0xd3, 0x2b, 0xd1, 0x23, 0x26,
  0x13, 0x2f, 0x1e, 0x1d, 0x2d, 0x1d, 0x25, 0xdf, 0xcc, 0xf7, 0x21, 0xdd,
  0xd6, 0x0e, 0x2c, 0xf9, 0x13, 0x2f, 0xea, 0x28, 0x27, 0x28, 0x21, 0x29,
  0x1c, 0x17, 0xe3, 0x2f, 0x26, 0x10, 0x18, 0xd5, 0xd8, 0x22, 0x21, 0x2b,
  0x1e, 0x21, 0x1c, 0x04, 0x0e, 0xde, 0x04, 0x31, 0xd7, 0xdd, 0x01, 0x20,
  0x07, 0x26, 0xd5, 0xe6, 0x2c, 0x1e, 0x26, 0x2c, 0x18, 0x19, 0x28, 0xd7,
  0x24, 0xe1, 0x2a, 0x2a, 0x0f, 0x28, 0x2e, 0x23, 0x21, 0x1b, 0x23, 0xf8,
  0xe0, 0x03, 0x1d, 0xd8, 0xda, 0x01, 0x13, 0x03, 0x15, 0x2b, 0xd3, 0x23,
  0x25, 0x16, 0x22, 0x25, 0x13, 0x24, 0xdc, 0x28, 0x17, 0x0a, 0x26, 0xe6,
  0xe1, 0x24, 0x17, 0x1e, 0x17, 0x16, 0x17, 0x05, 0x06, 0xc9, 0xfc, 0x04,
  0xd8, 0xe6, 0x02, 0x1c, 0x01, 0x28, 0xe4, 0xd5, 0x20, 0xec, 0x2d, 0x1c,
  0x27, 0x17, 0x10, 0xd4, 0x19, 0xd0, 0x2b, 0x23, 0x0b, 0x1f, 0x23, 0x20,
  0xed, 0x29, 0x19, 0x19, 0xe0, 0x07, 0x26, 0xe1, 0x1a, 0xf7, 0xe8, 0xfb,
  0x09, 0xdf, 0x17, 0x1d, 0xe9, 0xe5, 0xdd, 0xdd, 0xe5, 0x21, 0x1b, 0xec,
  0xd7, 0x02, 0x12, 0x09, 0x1d, 0xfd, 0x0c, 0x13, 0x12, 0x1b, 0xe0, 0xf5,
  0xfa, 0xcf, 0xfe, 0xd3, 0x2f, 0x0d, 0x09, 0xe6, 0xf8, 0xce, 0x24, 0x1b,
  0x1a, 0xe5, 0xdb, 0xe4, 0xed, 0x1a, 0xd7, 0x25, 0xed, 0x30, 0x21, 0xdc,
  0x1c, 0xe4, 0xd4, 0xde, 0xd2, 0xd8, 0xdf, 0xdd, 0x29, 0x0a, 0x06, 0x34,
  0xd3, 0xf9, 0x1d, 0x0a, 0x03, 0x1b, 0xde, 0x0c, 0x1c, 0x13, 0x27, 0x28,
  0x11, 0x10, 0xda, 0xea, 0x25, 0xf2, 0x11, 0x00, 0xd0, 0x17, 0x0b, 0xfb,
  0x16, 0x17, 0x21, 0x00, 0xda, 0xc3, 0x09, 0x18, 0xd9, 0xdf, 0xfc, 0x21,
  0x03, 0x29, 0xd5, 0xe0, 0x29, 0x1d, 0x1d, 0x2c, 0xe7, 0x12, 0x1c, 0xe1,
  0xec, 0xdc, 0x14, 0x21, 0x13, 0x1c, 0xea, 0x1d, 0x2e, 0x2f, 0x06, 0x1d,
  0xdb, 0xff, 0x1f, 0xde, 0x21, 0x01, 0xdf, 0xfb, 0x03, 0x06, 0x14, 0x25,
  0x0e, 0xe9, 0xd6, 0xe3, 0xe3, 0x11, 0x28, 0xef, 0xdd, 0x1c, 0x1d, 0xfe,
  0xe2, 0x1b, 0x08, 0xe4, 0x11, 0x2f, 0xe2, 0xfd, 0xfc, 0xcb, 0xf5, 0xd4,
  0x24, 0xf8, 0x00, 0xde, 0xfb, 0xd4, 0xe7, 0x0d, 0x19, 0xcf, 0xe6, 0xdb,
  0xe5, 0xe5, 0xe9, 0x1b, 0xe5, 0x1b, 0x23, 0xe5, 0xf6, 0xe1, 0xd3, 0xe5,
  0xd6, 0xd3, 0xeb, 0xdc, 0x07, 0x0a, 0x29, 0x11, 0x1e, 0x06, 0xdd, 0x0c,
  0x09, 0xdb, 0x27, 0x26, 0xe9, 0xdb, 0xce, 0xd7, 0xdd, 0x27, 0x24, 0x10,
  0xd9, 0x08, 0x17, 0x0e, 0x2d, 0x01, 0x14, 0x1b, 0x0e, 0xee, 0xd1, 0xfd,
  0x19, 0xd0, 0xfd, 0xe2, 0x1b, 0x11, 0x07, 0xe8, 0x0d, 0xe5, 0x27, 0x30,
  0x1c, 0xe5, 0xd8, 0xdc, 0x21, 0x1a, 0xe6, 0x2d, 0x21, 0x1b, 0x22, 0xde,
  0x14, 0xd9, 0xdf, 0xe2, 0xe5, 0xd9, 0x0e, 0xe1, 0x28, 0x07, 0xf7, 0x31,
  0xda, 0x09, 0x22, 0xf6, 0xf7, 0x2d, 0xe7, 0x23, 0x29, 0x1e, 0x27, 0x1d,
  0x1e, 0xe8, 0xd2, 0x22, 0x20, 0x0d, 0x15, 0xe5, 0xd4, 0x22, 0xeb, 0x0f,
  0x1d, 0x2a, 0x20, 0xf8, 0x0b, 0xd5, 0x08, 0x2f, 0xd0, 0xdf, 0xf9, 0x18,
  0x02, 0x20, 0xd6, 0xd7, 0x23, 0x1f, 0x32, 0x25, 0x20, 0xf3, 0x25, 0xd2,
  0x0e, 0xd7, 0x1c, 0x1c, 0xe4, 0x2c, 0x26, 0x28, 0x2c, 0x2a, 0x1b, 0x20,
  0xde, 0x09, 0x24, 0xdd, 0x23, 0xff, 0xe6, 0x02, 0x17, 0xdc, 0x24, 0xe8,
  0xe7, 0xd7, 0xe1, 0xdf, 0xea, 0x1b, 0x1d, 0xdf, 0xdf, 0xf8, 0xe6, 0x09,
  0x2b, 0xea, 0x15, 0xfa, 0xee, 0xe7, 0xdf, 0x03, 0xfa, 0x3a, 0xf7, 0xd7,
  0x28, 0x13, 0xf6, 0xda, 0xfd, 0xdd, 0x18, 0x1a, 0xd8, 0xce, 0xda, 0xdf,
  0xea, 0x1f, 0xe1, 0x20, 0x12, 0x27, 0xdb, 0xdd, 0x0e, 0xe0, 0xd4, 0xdb,
  0xd5, 0xd0, 0xe4, 0xe0, 0x2e, 0x04, 0xe1, 0x1f, 0xe6, 0x02, 0x28, 0x08,
  0x15, 0x2c, 0xcf, 0x1f, 0x2b, 0x1e, 0x21, 0x25, 0x16, 0x0f, 0xde, 0x27,
  0x20, 0x15, 0x1d, 0xf4, 0xd8, 0x17, 0x11, 0x21, 0x08, 0x23, 0xe2, 0xf5,
  0x14, 0xd4, 0xf7, 0xf4, 0xe2, 0xe5, 0x07, 0x29, 0x00, 0x2d, 0xda, 0xc8,
  0x16, 0xe3, 0x1e, 0x1a, 0x1e, 0x18, 0xeb, 0xe6, 0x1f, 0xe5, 0x18, 0x25,
  0x0b, 0x1c, 0x1b, 0x23, 0xe3, 0x29, 0x19, 0x28, 0xc7, 0x0a, 0x1d, 0xe0,
  0xdd, 0xfa, 0x2d, 0x04, 0x06, 0x21, 0xe3, 0x1a, 0x2c, 0x22, 0x20, 0x1e,
  0x25, 0xf7, 0xd9, 0x26, 0x1d, 0x0f, 0x0c, 0xf7, 0xe5, 0x1e, 0x11, 0x2a,
  0x0f, 0x20, 0x2a, 0x0b, 0x0e, 0xd2, 0x05, 0x1f, 0xe4, 0xe5, 0xf6, 0x2e,
  0x0e, 0x2c, 0xe2, 0xd8, 0x23, 0x20, 0x25, 0x29, 0x19, 0x25, 0x1a, 0xe3,
  0x1c, 0xdd, 0x0c, 0x1d, 0xfa, 0x22, 0x22, 0x25, 0x2d, 0x22, 0x22, 0x1b,
  0xda, 0xfb, 0x1c, 0xce, 0xd3, 0x01, 0x1b, 0xfc, 0x09, 0x21, 0xe2, 0x2a,
  0x1d, 0x27, 0x2c, 0x1f, 0x1c, 0x27, 0xe0, 0x2b, 0x2e, 0x08, 0x21, 0xc6,
  0xd9, 0x22, 0x10, 0x1b, 0x25, 0x2d, 0x21, 0x06, 0x14, 0xdc, 0xff, 0x26,
  0xd9, 0xd6, 0x09, 0x21, 0x02, 0x33, 0xd9, 0xe3, 0x21, 0x2b, 0x21, 0x23,
  0x22, 0x26, 0x21, 0xd6, 0x23, 0xd7, 0x1c, 0x21, 0x07, 0x1e, 0x1c, 0x24,
  0x2a, 0x26, 0x27, 0xc2, 0xd6, 0x02, 0x2b, 0xe1, 0xe5, 0x09, 0x1c, 0xf6,
  0x14, 0x1f, 0xed, 0x1b, 0x27, 0x1f, 0x20, 0x2b, 0x29, 0x17, 0xe2, 0x2f,
  0x2d, 0x13, 0x24, 0xdd, 0xe4, 0x1e, 0x0e, 0x2e, 0x13, 0x24, 0x24, 0xf5,
  0x10, 0xcd, 0xf9, 0x23, 0xe7, 0xdf, 0xfe, 0x28, 0x01, 0x26, 0x16, 0xe4,
  0x18, 0x1e, 0x2f, 0x25, 0x1d, 0x2d, 0x18, 0xd9, 0x17, 0xde, 0x29, 0x23,
  0x12, 0x1b, 0x29, 0x1c, 0x1f, 0x2b, 0x23, 0xdd, 0xea, 0xfb, 0x21, 0xe3,
  0x22, 0x0e, 0x1e, 0x01, 0x08, 0x19, 0x2e, 0x1e, 0x26, 0x1e, 0x28, 0x21,
  0x28, 0x2d, 0x1e, 0x27, 0x2b, 0x09, 0x1e, 0x0f, 0x37, 0x28, 0x18, 0x23,
  0x1e, 0x2d, 0x20, 0x08, 0x09, 0xd1, 0x05, 0x2e, 0x24, 0xf6, 0x00, 0x2a,
  0x06, 0x24, 0xe5, 0x23, 0x2e, 0x25, 0x27, 0x31, 0x1c, 0x1f, 0x26, 0x24,
  0x2a, 0x1e, 0x2b, 0x32, 0x12, 0x1b, 0x26, 0x2f, 0x2d, 0x28, 0x1c, 0xe0,
  0x1f, 0x04, 0x20, 0x1f, 0xe4, 0x09, 0x28, 0xf8, 0x04, 0x27, 0xdf, 0x1b,
  0x22, 0x20, 0x25, 0x2f, 0x1e, 0x24, 0xe0, 0x1b, 0x26, 0x1f, 0x27, 0xf1,
  0xd9, 0x24, 0x1b, 0x27, 0x11, 0x21, 0x23, 0x07, 0x07, 0x7f, 0x06, 0x21,
  0xd2, 0xe9, 0x06, 0x1e, 0x0f, 0x32, 0xe1, 0xdc, 0x2c, 0x2c, 0x2f, 0x20,
  0x1c, 0x1c, 0x1e, 0xe1, 0x2b, 0xe4, 0x16, 0x2f, 0x0d, 0x28, 0x28, 0x1e,
  0x23, 0x29, 0x1d, 0x1c, 0xe6, 0xfe, 0x27, 0xe1, 0x24, 0x0a, 0x1e, 0xfc,
  0x0c, 0x21, 0x3b, 0x20, 0x1f, 0x2a, 0x27, 0x1c, 0x18, 0x19, 0x29, 0x19,
  0x2e, 0x15, 0x20, 0x10, 0x20, 0x20, 0x1b, 0x20, 0x1b, 0x24, 0x31, 0x08,
  0x20, 0xc8, 0x03, 0x21, 0x2a, 0x1d, 0xfb, 0x22, 0x07, 0x2a, 0xd6, 0x27,
  0x1b, 0x27, 0x1b, 0x31, 0x2b, 0x24, 0x24, 0x29, 0x1d, 0x24, 0x29, 0x26,
  0x07, 0x1d, 0x26, 0x1b, 0x31, 0x25, 0x24, 0xd3, 0x22, 0x03, 0x21, 0x1c,
  0x26, 0x0e, 0x1c, 0xf6, 0x09, 0x1c, 0x26, 0x1e, 0x20, 0x1d, 0x25, 0x32,
  0x2d, 0x1d, 0x1b, 0x2a, 0x21, 0x09, 0x1d, 0xf5, 0x23, 0x21, 0x22, 0x21,
  0x25, 0x21, 0x20, 0x01, 0x31, 0xca, 0x05, 0x26, 0x22, 0x0f, 0x04, 0x1e,
  0x12, 0x2b, 0xdb, 0x29, 0x26, 0x2b, 0x25, 0x2b, 0x23, 0x18, 0x1b, 0x26,
  0x23, 0x28, 0x19, 0x32, 0x0e, 0x21, 0x25, 0x2b, 0x28, 0x2b, 0x1b, 0xd3,
  0x21, 0x03, 0x32, 0x1e, 0xe6, 0x06, 0x0c, 0x03, 0xf3, 0x1e, 0xd8, 0x1f,
  0x12, 0x21, 0x1b, 0xf7, 0x1f, 0xfa, 0xe6, 0x18, 0x02, 0x0e, 0x0f, 0x01,
  0xd3, 0x15, 0xf7, 0x28, 0x12, 0x18, 0xd5, 0xf7, 0x09, 0xcf, 0x05, 0xe5,
  0xdd, 0xf1, 0xf8, 0x18, 0xfd, 0x2b, 0xe2, 0xdb, 0x1f, 0xe0, 0x1b, 0x1f,
  0x28, 0x27, 0x02, 0xd3, 0x19, 0xd6, 0x2b, 0x17, 0x0f, 0x1e, 0x1c, 0x18,
  0xd7, 0xed, 0x0f, 0x2b, 0xdf, 0x03, 0x2e, 0xd8, 0xdc, 0x09, 0x23, 0x05,
  0x12, 0x2a, 0xeb, 0x1a, 0x29, 0x27, 0x29, 0x23, 0x1e, 0x1d, 0xda, 0x2b,
  0x29, 0x12, 0x13, 0xce, 0xd4, 0x26, 0x10, 0x2c, 0x11, 0x26, 0x2b, 0x01,
  0x05, 0xcd, 0x02, 0x31, 0xd3, 0xd9, 0xf8, 0x18, 0xfe, 0x29, 0xd9, 0xdb,
  0x2b, 0x27, 0x2a, 0x1c, 0x23, 0x18, 0x21, 0xe4, 0x27, 0xe3, 0x1d, 0x1f,
  0x19, 0x20, 0x1e, 0x25, 0x2e, 0x1f, 0x1a, 0xee, 0xd6, 0x09, 0x2a, 0xda,
  0xd9, 0xfb, 0x2f, 0x06, 0x08, 0x1d, 0xdd, 0x14, 0x22, 0x1d, 0x26, 0x1c,
  0x2d, 0x1c, 0xd3, 0x2a, 0x1c, 0x15, 0x01, 0xe1, 0xe2, 0x23, 0x18, 0x2a,
  0x16, 0x22, 0x26, 0xf7, 0x15, 0xcb, 0x04, 0x20, 0xdc, 0xe7, 0x01, 0x2d,
  0xfc, 0x30, 0xdf, 0xe0, 0x25, 0x26, 0x30, 0x1f, 0x18, 0x28, 0x20, 0xd2,
  0x18, 0xe4, 0x1d, 0x20, 0x1b, 0x1d, 0x2b, 0x2b, 0x1c, 0x21, 0x2d, 0xfa,
  0xd5, 0x04, 0x30, 0xe0, 0xd4, 0x08, 0x1d, 0xf7, 0x06, 0x22, 0xee, 0x30,
  0x22, 0x25, 0x2c, 0x1c, 0x29, 0x18, 0xe1, 0x2e, 0x29, 0x1e, 0x14, 0xe2,
  0xdf, 0x27, 0x18, 0x1c, 0x10, 0x1b, 0x23, 0xfa, 0x09, 0xde, 0xf6, 0x29,
  0xe6, 0xda, 0xf7, 0x20, 0x12, 0x22, 0xe3, 0xe3, 0x24, 0x2f, 0x1d, 0x29,
  0x20, 0x2a, 0x2b, 0xdd, 0x25, 0xe3, 0x21, 0x1f, 0x0a, 0x24, 0x22, 0x27,
  0x31, 0x1b, 0x20, 0xea, 0xdb, 0xf6, 0x2e, 0xe3, 0xd8, 0x0a, 0x2b, 0xfb,
  0x0a, 0x26, 0xe4, 0x22, 0x24, 0x1b, 0x22, 0x2a, 0x1e, 0x18, 0xe2, 0x26,
  0x1f, 0x09, 0x24, 0xdc, 0xe0, 0x21, 0x1c, 0x22, 0x1f, 0x25, 0x2c, 0xfc,
  0x19, 0xca, 0x04, 0x21, 0xdc, 0xd6, 0xf7, 0x1b, 0x0a, 0x1d, 0xdb, 0xdc,
  0x2e, 0x1f, 0x27, 0x2e, 0x26, 0x1e, 0x2a, 0xdd, 0x2a, 0xd3, 0x19, 0x27,
  0x0c, 0x22, 0x23, 0x22, 0x2e, 0x21, 0x2e, 0xe4, 0xe1, 0x00, 0x22, 0xd3,
  0xe3, 0x02, 0x29, 0x02, 0x14, 0x24, 0xe8, 0x1a, 0x26, 0x16, 0x20, 0x1e,
  0x23, 0x1c, 0xe5, 0x1c, 0x2a, 0x14, 0x10, 0xc5, 0xd4, 0x24, 0x23, 0x20,
  0x10, 0x1b, 0x32, 0xfd, 0x14, 0xd4, 0x04, 0x2b, 0xe2, 0xd7, 0xfb, 0x1e,
  0x0f, 0x27, 0xdb, 0xd9, 0x1e, 0x23, 0x23, 0x2c, 0x28, 0x2c, 0x1e, 0xd0,
  0x1f, 0xdf, 0x29, 0x29, 0x1c, 0x2d, 0x2b, 0x27, 0x20, 0x28, 0x2e, 0xd5,
  0xce, 0xfc, 0x30, 0xd1, 0xe4, 0x04, 0xe7, 0x06, 0x09, 0x1f, 0xd6, 0x1b,
  0x2e, 0x15, 0xe3, 0xe6, 0x05, 0x20, 0xd4, 0x16, 0xda, 0x0f, 0x27, 0xe5,
  0xe0, 0x1c, 0x1a, 0x19, 0x19, 0x1f, 0xdd, 0x04, 0x06, 0xdb, 0xf8, 0xff,
  0xde, 0xe6, 0xf5, 0x1b, 0xff, 0x1b, 0xd2, 0xcc, 0x2a, 0xf0, 0x0e, 0x06,
  0x2a, 0x1e, 0x14, 0xd6, 0x21, 0xdd, 0x18, 0xe6, 0x19, 0x20, 0x30, 0x25,
  0xe5, 0x18, 0x21, 0x12, 0xdf, 0xfc, 0x1e, 0xe2, 0xd5, 0xfb, 0x10, 0x04,
  0x0b, 0x28, 0xd6, 0x1a, 0x22, 0x15, 0x26, 0x23, 0x27, 0x1c, 0xe5, 0x21,
  0x24, 0x16, 0x16, 0xde, 0xe6, 0x16, 0x0c, 0x2d, 0x24, 0x1d, 0x10, 0xf9,
  0x1a, 0xde, 0xfe, 0xf4, 0xd8, 0xe1, 0xf6, 0x26, 0x06, 0x2f, 0xdd, 0xd0,
  0x1b, 0xdf, 0x26, 0x18, 0x1f, 0x1b, 0x0f, 0xe6, 0x1a, 0xd9, 0x23, 0x1c,
  0x14, 0x2c, 0x1e, 0x2b, 0xf2, 0x13, 0x19, 0x17, 0xd6, 0x07, 0x31, 0xd3,
  0xdc, 0x0b, 0x1b, 0xff, 0x10, 0x2a, 0xe3, 0x1e, 0x20, 0x20, 0x29, 0x25,
  0x19, 0x1f, 0xdc, 0x30, 0x18, 0x1a, 0x16, 0xe1, 0xe1, 0x25, 0x20, 0x29,
  0x0f, 0x27, 0x08, 0xfb, 0x14, 0xd9, 0x02, 0x00, 0xd4, 0xe9, 0xfd, 0x29,
  0x12, 0x30, 0xdc, 0xde, 0x2c, 0xea, 0x2f, 0x29, 0x20, 0x24, 0x0c, 0xd9,
  0x2a, 0xd0, 0x19, 0x1e, 0x12, 0x2e, 0x27, 0x20, 0xeb, 0x1c, 0x17, 0x16,
  0xcc, 0xf6, 0x26, 0xd7, 0xd2, 0xf7, 0x1a, 0x08, 0x17, 0x1e, 0xe6, 0x1b,
  0x23, 0x17, 0x26, 0x26, 0x21, 0x18, 0xdc, 0x30, 0x20, 0x0c, 0x25, 0xca,
  0xd5, 0x2a, 0x23, 0x1e, 0x1e, 0x26, 0x2e, 0x04, 0x08, 0xce, 0x07, 0x1b,
  0xe2, 0xd8, 0x04, 0x28, 0x0f, 0x2f, 0xda, 0xde, 0x1b, 0x24, 0x1b, 0x24,
  0x21, 0x2a, 0x21, 0xd9, 0x20, 0xd4, 0x16, 0x27, 0x0e, 0x20, 0x28, 0x25,
  0x1e, 0x32, 0x25, 0xed, 0xe3, 0xfa, 0x24, 0xcd, 0xdc, 0x07, 0x21, 0xfb,
  0x04, 0x1b, 0xe2, 0x1b, 0x1f, 0x20, 0x2e, 0x28, 0x17, 0x15, 0xcf, 0x19,
  0x1b, 0x0b, 0x25, 0xd2, 0xd2, 0x1b, 0x1f, 0x20, 0x26, 0x1d, 0x26, 0x04,
  0x0d, 0xcf, 0xf8, 0x2a, 0xe1, 0xdb, 0xfd, 0x2d, 0x0e, 0x1d, 0xe3, 0xd2,
  0x28, 0x1e, 0x21, 0x1b, 0x22, 0x20, 0x20, 0xe6, 0x25, 0xe4, 0x2d, 0x22,
  0x0e, 0x23, 0x20, 0x1c, 0x27, 0x2b, 0x1f, 0xde, 0xd3, 0x08, 0x31, 0xd3,
  0xd8, 0xfc, 0x2b, 0xf9, 0x17, 0x21, 0xde, 0x1e, 0x25, 0x18, 0x27, 0x22,
  0x22, 0x19, 0xe5, 0x1d, 0x1b, 0x12, 0x1c, 0xd6, 0xe5, 0x22, 0x1c, 0x27,
  0x10, 0x24, 0x21, 0x04, 0x1a, 0xde, 0x02, 0x24, 0xde, 0xde, 0xf6, 0x2b,
  0x08, 0x33, 0xe4, 0xe4, 0x1f, 0x2e, 0x20, 0x28, 0x1d, 0x19, 0x1d, 0xe2,
  0x15, 0xe2, 0x1a, 0x23, 0x18, 0x22, 0x2a, 0x24, 0x1b, 0x1f, 0x26, 0xe8,
  0xd4, 0xfc, 0x1b, 0xd5, 0xda, 0x06, 0x27, 0xfb, 0x14, 0x2b, 0xef, 0x19,
  0x1c, 0x16, 0x1e, 0x33, 0x2e, 0x1b, 0xdf, 0x2f, 0x1e, 0x1e, 0x11, 0xdf,
  0xd1, 0x1d, 0x12, 0x1f, 0x1c, 0x2f, 0x32, 0xfe, 0x18, 0xdd, 0x08, 0x23,
  0xdf, 0xde, 0xfd, 0x2e, 0x08, 0x1e, 0xde, 0xdb, 0x19, 0x1e, 0x32, 0x28,
  0x23, 0x17, 0x1d, 0xe2, 0x23, 0xd8, 0x1b, 0x25, 0x08, 0x2a, 0x2f, 0x1f,
  0x1f, 0x1e, 0x1a, 0x0d, 0xe1, 0x02, 0x24, 0xd5, 0xe5, 0xf9, 0x23, 0xfa,
  0x0e, 0x30, 0xe6, 0x23, 0x19, 0x1f, 0x1e, 0x22, 0x23, 0x24, 0xde, 0x25,
  0x2c, 0x13, 0x19, 0xd2, 0xd5, 0x1f, 0x18, 0x1a, 0x15, 0x25, 0x1e, 0x06,
  0x12, 0xd5, 0xf7, 0x31, 0xe3, 0xe0, 0xf6, 0x24, 0x0d, 0x2e, 0xdf, 0xd9,
  0x21, 0x24, 0x1d, 0x21, 0x24, 0x2e, 0x2f, 0xe3, 0x15, 0xd7, 0x26, 0x33,
  0x15, 0x2c, 0x2e, 0x25, 0x23, 0x2e, 0x1e, 0x17, 0xda, 0xfe, 0x25, 0xdc,
  0xde, 0x04, 0xf6, 0xf5, 0x0c, 0x1f, 0xd1, 0x1c, 0x1b, 0x08, 0xe6, 0xe6,
  0x02, 0x12, 0xe0, 0x17, 0xec, 0x17, 0x14, 0xde, 0xd9, 0x2e, 0x21, 0x20,
  0x25, 0x23, 0xdb, 0x00, 0xfc, 0xdb, 0xfb, 0x0a, 0xe3, 0xdc, 0xfb, 0x09,
  0x08, 0x19, 0xda, 0xca, 0x29, 0xe5, 0x13, 0xfd, 0x27, 0x1f, 0x06, 0xe3,
  0x1f, 0xdf, 0x1b, 0xeb, 0x08, 0x1d, 0x2b, 0x17, 0xf1, 0x24, 0x25, 0x33,
  0xd4, 0x0b, 0x1f, 0xde, 0xd4, 0x03, 0xe6, 0x03, 0x12, 0x0b, 0xd7, 0x19,
  0x0a, 0xdf, 0xe2, 0xdf, 0xe5, 0x1f, 0xd8, 0xff, 0xdc, 0x10, 0x22, 0xfb,
  0xd4, 0x24, 0x18, 0x10, 0x15, 0x18, 0xdc, 0x0a, 0xe7, 0xc9, 0x04, 0xd9,
  0xdb, 0xee, 0xf5, 0xe8, 0xf4, 0xe0, 0xe8, 0xdb, 0x1c, 0xd0, 0xe4, 0xd3,
  0xea, 0x2a, 0xde, 0xe1, 0x07, 0xd3, 0x29, 0xe2, 0x0d, 0xdb, 0xd4, 0xdf,
  0xe2, 0xd9, 0xe8, 0x20, 0xdf, 0x0b, 0x25, 0xe8, 0xe3, 0x0a, 0x2d, 0x01,
  0x12, 0x24, 0xd9, 0x2e, 0x2e, 0x26, 0x1c, 0x1d, 0x1d, 0x28, 0xdf, 0x26,
  0x2f, 0x10, 0x1e, 0xd5, 0xdf, 0x20, 0x18, 0x27, 0x23, 0x26, 0x2d, 0xfe,
  0x19, 0xcc, 0x05, 0x2c, 0xd6, 0xdc, 0xf5, 0x2f, 0x01, 0x22, 0xd9, 0xd3,
  0x18, 0x26, 0x20, 0x2c, 0x29, 0x29, 0x1d, 0xd0, 0x2b, 0xd1, 0x2a, 0x22,
  0x0f, 0x29, 0x30, 0x2c, 0x29, 0x1d, 0x22, 0xf9, 0xd9, 0x03, 0x20, 0xde,
  0xd0, 0x06, 0x24, 0x01, 0x04, 0x24, 0xdc, 0x2e, 0xeb, 0x25, 0x31, 0x2f,
  0x23, 0xf7, 0xe5, 0x27, 0x1b, 0x10, 0x0b, 0xfc, 0xe6, 0x0c, 0x17, 0x26,
  0x08, 0xfa, 0x32, 0x07, 0x07, 0xd5, 0x06, 0x22, 0xdd, 0xed, 0x0a, 0x26,
  0x06, 0x1b, 0xdf, 0xe5, 0x22, 0x20, 0x31, 0x2f, 0x1e, 0x21, 0x1d, 0xe1,
  0x22, 0xe4, 0xf2, 0x1e, 0xf1, 0x24, 0x25, 0x1e, 0x2a, 0x2b, 0x22, 0x2a,
  0xd6, 0xfb, 0x1d, 0xe0, 0xda, 0x0d, 0x1a, 0xf7, 0x0a, 0x1e, 0xef, 0x27,
  0x17, 0x16, 0x2c, 0x22, 0x26, 0x1f, 0xd8, 0x1f, 0x28, 0xf7, 0x18, 0xf4,
  0xe3, 0x20, 0x1a, 0x23, 0x0a, 0x23, 0x2c, 0xfe, 0x11, 0xcc, 0x01, 0x1e,
  0xd5, 0xe4, 0xf6, 0x29, 0x01, 0x2c, 0xd4, 0xe2, 0xf4, 0x2a, 0x2f, 0x21,
  0x1e, 0x19, 0x19, 0xda, 0x19, 0xd7, 0x15, 0x1f, 0x06, 0x29, 0x1e, 0x2a,
  0x1e, 0x20, 0x2a, 0x25, 0xe6, 0xfa, 0x28, 0xd5, 0xe2, 0xf5, 0x1f, 0xfb,
  0x0a, 0xe8, 0xe1, 0x26, 0x1b, 0x15, 0x20, 0x1f, 0x13, 0x16, 0xe0, 0x14,
  0x22, 0x02, 0x10, 0xfc, 0xdd, 0x22, 0xfa, 0x2b, 0xfa, 0x17, 0x2f, 0x08,
  0xf8, 0xc7, 0x02, 0x24, 0xe2, 0xea, 0x0a, 0xe1, 0x10, 0x30, 0xd4, 0xe2,
  0x0b, 0x27, 0x2b, 0x2c, 0x24, 0x14, 0x1a, 0xdd, 0x25, 0xd2, 0x22, 0x2b,
  0x07, 0xf2, 0xdd, 0x29, 0x1b, 0x22, 0x1d, 0x31, 0xd5, 0xf9, 0x20, 0xe3,
  0xde, 0xfe, 0x1a, 0x06, 0x16, 0x1e, 0xd0, 0x28, 0x17, 0x25, 0x16, 0x2f,
  0x1e, 0x17, 0xd8, 0x29, 0x24, 0x19, 0x1a, 0xdc, 0xd7, 0x1f, 0xfc, 0x26,
  0x13, 0x27, 0x10, 0xf6, 0x09, 0xc6, 0x01, 0xee, 0xdf, 0xd5, 0x02, 0x1b,
  0x10, 0x28, 0xe0, 0xde, 0x29, 0xe8, 0x1a, 0x22, 0x18, 0x22, 0x05, 0xe0,
  0x1a, 0xe6, 0x25, 0x25, 0x16, 0x1d, 0x27, 0x2c, 0xf2, 0x17, 0x26, 0xf9,
  0xd1, 0xfd, 0x2c, 0xe2, 0xd6, 0xff, 0x22, 0xf5, 0x06, 0x21, 0xdc, 0x1a,
  0x2b, 0x19, 0x17, 0x1b, 0x18, 0x27, 0xd3, 0x1d, 0x20, 0xec, 0x1a, 0xec,
  0xdc, 0x19, 0x1f, 0x22, 0x19, 0x1c, 0xec, 0x05, 0x14, 0xd3, 0xfa, 0xfc,
  0xd3, 0xdc, 0x07, 0x2e, 0x09, 0x29, 0xe3, 0xd2, 0x1d, 0xf1, 0x1c, 0x1e,
  0x2a, 0x1e, 0x18, 0xdb, 0x19, 0xe2, 0x25, 0x26, 0x0e, 0x30, 0x22, 0x23,
  0xf5, 0x1f, 0x27, 0x15, 0xe0, 0x08, 0x1b, 0xdd, 0xdd, 0x08, 0x22, 0xfd,
  0x1b, 0x2e, 0xdd, 0x1b, 0x23, 0x2a, 0x2b, 0x26, 0x26, 0x27, 0xe7, 0x21,
  0x32, 0x1a, 0x12, 0xda, 0xe1, 0x2c, 0x1d, 0x2e, 0x12, 0x22, 0x24, 0xf9,
  0x0c, 0xd2, 0x04, 0x1f, 0xd3, 0xd5, 0xfd, 0x2e, 0x0b, 0x24, 0xe3, 0xda,
  0x1a, 0x20, 0x2f, 0x1e, 0x25, 0x1c, 0x23, 0xdc, 0x16, 0xd3, 0x18, 0x1e,
  0x09, 0x21, 0x29, 0x21, 0x20, 0x2a, 0x1f, 0xf7, 0xd5, 0xf6, 0x28, 0xdc,
  0xe5, 0xf9, 0xf1, 0xf5, 0x06, 0x26, 0xd5, 0x2b, 0x2a, 0x14, 0xdd, 0xe5,
  0xea, 0x12, 0xdd, 0x2c, 0xe7, 0x09, 0x12, 0xf7, 0xd4, 0x19, 0x14, 0x18,
  0x18, 0x20, 0xe2, 0x04, 0x07, 0xc9, 0x0b, 0xd7, 0xe4, 0xee, 0x06, 0xea,
  0x01, 0xd7, 0xd9, 0xd7, 0x1d, 0xe1, 0xe8, 0xd3, 0x2d, 0x1a, 0xfa, 0xe1,
  0x23, 0xe5, 0x1c, 0xd7, 0x0c, 0x0e, 0x10, 0x10, 0xe2, 0xef, 0x26, 0x2a,
  0xd9, 0x02, 0x22, 0xdd, 0xd2, 0x06, 0xdd, 0xfd, 0x0a, 0xe5, 0xcc, 0x16,
  0xe0, 0xf4, 0xe4, 0xda, 0xee, 0x0d, 0xe2, 0xf1, 0xe0, 0xf0, 0xe4, 0xfe,
  0xc9, 0x09, 0x21, 0x27, 0xf1, 0xe2, 0xe1, 0x07, 0xfd, 0x41, 0x0a, 0xeb,
  0xd7, 0xf1, 0xfd, 0xdf, 0x0f, 0xe1, 0xe4, 0xd9, 0xe9, 0xd0, 0xe6, 0xe0,
  0x1e, 0x18, 0xe7, 0xd8, 0x18, 0xd3, 0xe1, 0xdd, 0x08, 0xdf, 0x07, 0xe5,
  0xdb, 0xe4, 0x16, 0x24, 0xd2, 0xf8, 0x17, 0xd6, 0xe4, 0x0e, 0x22, 0x04,
  0x09, 0x1a, 0xec, 0x22, 0x29, 0x15, 0x2a, 0x20, 0x1b, 0x18, 0xd9, 0x24,
  0x1b, 0x12, 0x20, 0xce, 0xe3, 0x17, 0x19, 0x28, 0x11, 0x2b, 0x1e, 0xf4,
  0x17, 0xd7, 0x06, 0x1b, 0xe3, 0xd2, 0x0a, 0x2a, 0x0d, 0x1e, 0xe5, 0xdc,
  0x1c, 0x2f, 0x28, 0x2c, 0x2d, 0x21, 0x28, 0xda, 0x20, 0xe2, 0x2d, 0x2b,
  0x15, 0x29, 0x1f, 0x29, 0x28, 0x1c, 0x1b, 0xe2, 0xe1, 0x06, 0x28, 0xd0,
  0xd6, 0x09, 0x1e, 0xff, 0x06, 0x18, 0xe5, 0x20, 0xf2, 0x14, 0x28, 0x32,
  0x17, 0x10, 0xd9, 0x18, 0x2f, 0x09, 0x10, 0xf1, 0xe6, 0x15, 0x1e, 0xeb,
  0x19, 0x1c, 0x28, 0xfc, 0xf4, 0xce, 0x05, 0x1a, 0xe8, 0xf1, 0x03, 0x1c,
  0xf3, 0x28, 0xe1, 0xe5, 0x28, 0x26, 0x1c, 0x2c, 0xec, 0xef, 0x27, 0xde,
  0x18, 0xda, 0x1b, 0x2a, 0xf4, 0x2e, 0x2f, 0x2f, 0x2c, 0x2e, 0x19, 0x24,
  0xcc, 0x05, 0x1f, 0xd6, 0xe5, 0xfe, 0x25, 0x05, 0x06, 0x1f, 0xee, 0x2e,
  0x21, 0x17, 0x28, 0x31, 0x29, 0x26, 0xd8, 0x21, 0x25, 0x18, 0x19, 0xd7,
  0xd2, 0x17, 0x1a, 0x21, 0x10, 0x24, 0x2f, 0xfd, 0x0a, 0xc9, 0x02, 0x23,
  0xd5, 0xe2, 0xf9, 0x1f, 0x04, 0x1d, 0xe7, 0xd6, 0x21, 0x28, 0x20, 0x27,
  0x1f, 0x18, 0x22, 0xd6, 0x17, 0xda, 0x16, 0x2f, 0x17, 0x1e, 0x1b, 0x1c,
  0x1e, 0x20, 0x26, 0x0e, 0xe2, 0x01, 0x23, 0xdb, 0xd5, 0xf9, 0x22, 0x0b,
  0x13, 0x2e, 0xed, 0x1f, 0x2e, 0x0f, 0x29, 0x25, 0x1f, 0x03, 0xdd, 0x23,
  0x1e, 0x18, 0x13, 0xcf, 0xda, 0x1a, 0x15, 0x25, 0x1b, 0x16, 0x24, 0xf9,
  0x0b, 0xc7, 0x02, 0x28, 0xe1, 0xdf, 0x0b, 0x20, 0x0b, 0x24, 0xe4, 0xdf,
  0x1b, 0x1d, 0x23, 0x31, 0x0d, 0x22, 0x2d, 0xe2, 0x27, 0xe2, 0x22, 0x21,
  0xf8, 0x22, 0x1e, 0x1c, 0x2d, 0x2b, 0x2b, 0xf0, 0xcf, 0xfa, 0x2d, 0xca,
  0xde, 0x0a, 0x16, 0xf7, 0x10, 0x1b, 0xe3, 0x23, 0x26, 0x20, 0x28, 0x1d,
  0x1d, 0x1f, 0xdc, 0x1e, 0x24, 0x1f, 0x26, 0xd2, 0xdc, 0x18, 0x1f, 0x1b,
  0x20, 0x2c, 0x1c, 0x01, 0x0e, 0xc9, 0x0b, 0xfd, 0xe6, 0xd6, 0xfb, 0x2b,
  0xfd, 0x2c, 0xdd, 0xd9, 0x2f, 0xdc, 0x18, 0x2d, 0x21, 0x21, 0x10, 0xd5,
  0x19, 0xe2, 0x23, 0x2d, 0x08, 0x1d, 0x1b, 0x16, 0xf0, 0x15, 0x29, 0xe5,
  0xce, 0xf9, 0x1b, 0xe0, 0x27, 0xfb, 0xd6, 0xfa, 0x01, 0xea, 0x12, 0xe9,
  0xe3, 0xdb, 0xe5, 0xe1, 0xe9, 0x19, 0x28, 0xd8, 0xdc, 0x0b, 0x09, 0x01,
  0x1d, 0xe6, 0xea, 0xe2, 0x19, 0xf4, 0xdc, 0xfc, 0xf5, 0xae, 0x09, 0xe5,
  0x2c, 0x1c, 0xfb, 0xe3, 0xf6, 0xd8, 0x1a, 0x29, 0x11, 0xdb, 0xe4, 0xd0,
  0xe3, 0xf1, 0xdc, 0x2d, 0xe6, 0x27, 0x2a, 0xe1, 0x05, 0xd1, 0xd3, 0xe3,
  0xd7, 0xe3, 0xe7, 0xda, 0x38, 0x0b, 0xdb, 0x28, 0x32, 0xf9, 0xe4, 0x03,
  0x04, 0xda, 0x1c, 0x26, 0xda, 0xea, 0xe5, 0xd1, 0xde, 0x1f, 0x25, 0xeb,
  0xd8, 0x04, 0x0c, 0x13, 0x1d, 0xfd, 0x15, 0x18, 0x08, 0xf2, 0xdb, 0x00,
  0x0e, 0xce, 0x04, 0xdd, 0x23, 0x0e, 0x09, 0xe7, 0x13, 0xd8, 0x2e, 0x1d,
  0x1c, 0xdd, 0xe5, 0xd8, 0x1e, 0x18, 0xdd, 0x2d, 0x10, 0x28, 0x20, 0xd8,
  0x0d, 0xe2, 0xdb, 0xdd, 0xd2, 0xe4, 0xfe, 0xce, 0x2c, 0x06, 0xdc, 0x29,
  0xe3, 0x0d, 0x1f, 0xfa, 0x0f, 0x26, 0xea, 0x23, 0x23, 0x14, 0x31, 0x20,
  0x19, 0x1d, 0xd6, 0x2b, 0x2a, 0x12, 0x1b, 0xe5, 0xd7, 0x1b, 0x1f, 0x22,
  0x08, 0x28, 0x22, 0x03, 0x05, 0xd9, 0x0c, 0x24, 0xdc, 0xe7, 0xfe, 0x0b,
  0x11, 0x28, 0xdf, 0xd8, 0x1a, 0x2f, 0x2d, 0x2f, 0x2c, 0x19, 0x1a, 0xe7,
  0x16, 0xd8, 0x16, 0x1c, 0x1a, 0x1b, 0x2e, 0x1e, 0x23, 0x1f, 0x1f, 0x2b,
  0xd1, 0x04, 0x1c, 0xd7, 0xd1, 0x00, 0x27, 0xfd, 0x0f, 0x21, 0xdd, 0x21,
  0x1b, 0x24, 0x26, 0x28, 0x19, 0x17, 0xd7, 0x2c, 0x27, 0x02, 0x19, 0xc5,
  0xde, 0x22, 0x0f, 0x1a, 0x18, 0x25, 0x25, 0xfa, 0x10, 0xd5, 0x06, 0x1a,
  0xd2, 0xd6, 0xf8, 0x22, 0x01, 0x25, 0xd6, 0xde, 0x27, 0x1e, 0x20, 0x30,
  0x29, 0x24, 0x23, 0xcf, 0x23, 0xd4, 0x2a, 0x24, 0x1b, 0x28, 0x20, 0x1a,
  0x23, 0x1c, 0x2e, 0xec, 0xdd, 0xf4, 0x1f, 0xdb, 0xdd, 0x07, 0x1c, 0x0a,
  0x13, 0x11, 0xe3, 0x1a, 0x1d, 0xe4, 0x1a, 0x2b, 0x0a, 0x24, 0xda, 0x1e,
  0x2b, 0x13, 0x1a, 0xf5, 0xd8, 0x1a, 0x14, 0x1a, 0x12, 0x20, 0x1c, 0x07,
  0x0a, 0xc7, 0x05, 0x30, 0xd8, 0xeb, 0xf7, 0xe3, 0x00, 0x24, 0xd5, 0xd9,
  0x22, 0x1d, 0x19, 0x29, 0x1d, 0x25, 0x26, 0xd1, 0x1b, 0xda, 0x28, 0x25,
  0x16, 0xe6, 0xe4, 0x2e, 0x25, 0x25, 0x1b, 0x25, 0xdc, 0x00, 0x29, 0xe7,
  0xe7, 0x0a, 0x21, 0x05, 0x05, 0x26, 0xe4, 0x29, 0x18, 0x1c, 0x1f, 0x1c,
  0x24, 0x14, 0xe3, 0x2f, 0x32, 0x1a, 0x12, 0xca, 0xd9, 0x1a, 0x1c, 0x21,
  0x13, 0x25, 0x22, 0xf6, 0x06, 0xc8, 0x00, 0x1c, 0xd1, 0xdb, 0x0b, 0x2c,
  0x05, 0x26, 0xda, 0xdb, 0x23, 0x1c, 0x32, 0x1f, 0x18, 0x24, 0x2a, 0xe2,
  0x27, 0xd9, 0x19, 0x28, 0x13, 0x26, 0x27, 0x1f, 0x21, 0x1b, 0x1a, 0xe9,
  0xd3, 0xf5, 0x2d, 0xd3, 0xd6, 0x0c, 0xeb, 0xf8, 0x0a, 0xe1, 0xd3, 0x21,
  0x1c, 0xec, 0x1c, 0x25, 0xde, 0x15, 0xde, 0xdb, 0x1b, 0x01, 0x15, 0xfb,
  0xd9, 0x18, 0x1b, 0xfc, 0x1e, 0x17, 0x26, 0xfc, 0xe5, 0xd1, 0xfa, 0x25,
  0xdd, 0xe8, 0x00, 0xe2, 0xee, 0x29, 0xd2, 0xce, 0x19, 0x22, 0xda, 0x1d,
  0xe8, 0x19, 0x1d, 0xda, 0xea, 0xe1, 0x1c, 0xe1, 0x0b, 0xd6, 0xe2, 0x22,
  0x1e, 0x22, 0xff, 0x2d, 0xce, 0xf9, 0x13, 0xe0, 0xe6, 0xf9, 0x1e, 0x06,
  0x0f, 0x1c, 0xe9, 0x1e, 0x1f, 0x18, 0x2d, 0x23, 0x1e, 0x13, 0xde, 0x29,
  0x26, 0x0e, 0x11, 0xd2, 0xd3, 0x21, 0x1c, 0x19, 0x1f, 0x18, 0x32, 0x0b,
  0x0c, 0xd7, 0x09, 0x26, 0xe2, 0xda, 0x08, 0x24, 0x03, 0x2a, 0xdd, 0xd1,
  0x1e, 0x1d, 0x24, 0x23, 0x23, 0x1f, 0x1f, 0xda, 0x28, 0xd7, 0x18, 0x2d,
  0x07, 0x2b, 0x1e, 0x22, 0x28, 0x29, 0x29, 0xe0, 0xdc, 0x08, 0x1e, 0xda,
  0xe3, 0xff, 0x2d, 0x0c, 0x0f, 0x1d, 0xef, 0x1b, 0x22, 0x2b, 0x2d, 0x1e,
  0x1e, 0x26, 0xe5, 0x29, 0x28, 0x11, 0x1a, 0xd0, 0xd1, 0x17, 0x0f, 0x23,
  0x12, 0x1a, 0x2e, 0x00, 0x17, 0xd4, 0xfa, 0x31, 0xe3, 0xc7, 0x03, 0x21,
  0x0b, 0x1f, 0xe6, 0xde, 0x20, 0x28, 0x21, 0x23, 0x1a, 0x1d, 0x22, 0xd4,
  0x16, 0xd3, 0x2a, 0x26, 0x18, 0x30, 0x24, 0x2b, 0x27, 0x2a, 0x19, 0xe1,
  0xcd, 0x03, 0x22, 0xdc, 0xe5, 0x03, 0x19, 0x09, 0x18, 0x28, 0xe9, 0x1a,
  0x22, 0x28, 0x25, 0x25, 0x25, 0x12, 0xd4, 0x19, 0x22, 0x1d, 0x16, 0xc8,
  0xe3, 0x24, 0x0c, 0x30, 0x07, 0x1f, 0x21, 0xfe, 0x19, 0xd2, 0x01, 0x21,
  0xde, 0xdd, 0x00, 0x1d, 0xfe, 0x2f, 0xe7, 0xd7, 0x2a, 0x27, 0x27, 0x1e,
  0x1c, 0x20, 0x2d, 0xdb, 0x2b, 0xd1, 0x17, 0x28, 0x11, 0x25, 0x21, 0x1d,
  0x32, 0x1f, 0x20, 0xf0, 0xdd, 0x0b, 0x27, 0xcd, 0x2e, 0x06, 0xe5, 0xfc,
  0xf2, 0xe6, 0x18, 0xda, 0xe9, 0xdf, 0xcf, 0xe2, 0xe9, 0xdc, 0x1d, 0xd4,
  0xd7, 0xf2, 0xe1, 0x2e, 0x2d, 0xe7, 0xe4, 0xd7, 0xe1, 0xd3, 0xdf, 0xff,
  0xf9, 0x32, 0xfa, 0xe5, 0x23, 0x27, 0xff, 0xe3, 0xf6, 0xd8, 0x2a, 0x2c,
  0xe4, 0xe4, 0xe1, 0xde, 0xe8, 0xe4, 0xe4, 0x29, 0xea, 0x24, 0xe3, 0xd0,
  0xf2, 0xdf, 0xe5, 0xdf, 0xd3, 0xe2, 0xe2, 0x1e, 0x34, 0xf6, 0xdc, 0x2d,
  0x2e, 0xfc, 0xe3, 0xfd, 0xf3, 0xe9, 0x27, 0xd9, 0xe6, 0xdc, 0xe3, 0xdc,
  0xdf, 0xea, 0x1c, 0xe7, 0xcf, 0xe8, 0x0c, 0x10, 0x1a, 0xda, 0xee, 0xe2,
  0x11, 0xda, 0xd4, 0x05, 0xf7, 0x33, 0xfc, 0xdf, 0x2d, 0x20, 0xf5, 0xdd,
  0x00, 0xd3, 0x27, 0x1b, 0xf5, 0xe2, 0xd6, 0xe5, 0xd7, 0xdd, 0xe3, 0x24,
  0xe4, 0x2f, 0xf9, 0xdf, 0xf8, 0xe6, 0xd0, 0xdb, 0xd4, 0xe1, 0xd7, 0xef,
  0x21, 0xf4, 0xe1, 0x2b, 0x1d, 0xf9, 0xd6, 0xfa, 0x03, 0xda, 0x26, 0xe7,
  0xe8, 0xe9, 0xd9, 0xe2, 0xe4, 0xe8, 0x2f, 0xda, 0xd7, 0xf0, 0xe6, 0x2c,
  0x21, 0xe9, 0xe6, 0xe7, 0xed, 0xda, 0xdc, 0xfb, 0xf1, 0x25, 0xfd, 0xdc,
  0x2e, 0x32, 0xfc, 0xdf, 0xf8, 0xd4, 0x22, 0x1a, 0xe7, 0xe2, 0xd6, 0xdc,
  0xeb, 0xd9, 0xe4, 0x26, 0xf1, 0x1a, 0xe4, 0xd4, 0xf0, 0xe2, 0xe2, 0xd4,
  0xd8, 0xd7, 0xe6, 0x1b, 0x21, 0xf7, 0xda, 0x20, 0xe3, 0xfe, 0x13, 0x04,
  0x1b, 0xe4, 0xdb, 0x1a, 0xe2, 0xe7, 0x10, 0x21, 0x05, 0x12, 0xe4, 0xe6,
  0xf1, 0xef, 0x1b, 0x02, 0xd3, 0x0f, 0x0c, 0x1d, 0xf9, 0x0e, 0x10, 0xf5,
  0x01, 0xc5, 0xfc, 0x2b, 0xd6, 0xef, 0xfd, 0xf3, 0x09, 0x23, 0xe5, 0xe2,
  0xf3, 0x29, 0x2b, 0x1d, 0x1e, 0x20, 0x25, 0xd1, 0x26, 0xde, 0x0c, 0x2c,
  0x1a, 0xde, 0xd3, 0x21, 0x26, 0x1c, 0x1c, 0x1d, 0xcc, 0xfa, 0xe5, 0xd9,
  0x29, 0xfd, 0xd0, 0xf8, 0x02, 0xd6, 0x28, 0xdc, 0xed, 0xe3, 0xd1, 0xe3,
  0xdd, 0x0c, 0x23, 0xdb, 0xcf, 0xee, 0xf3, 0x01, 0x1b, 0xe1, 0xf7, 0xde,
  0xf5, 0xe8, 0xd4, 0xfc, 0xf2, 0x2b, 0x06, 0xd5, 0x1b, 0x12, 0xfa, 0xd2,
  0xef, 0xe4, 0x23, 0x25, 0xdd, 0xe4, 0xd7, 0xe3, 0xe7, 0xee, 0xda, 0x21,
  0xdd, 0x31, 0xf9, 0xe4, 0x17, 0xd8, 0xe4, 0xda, 0xd2, 0xe0, 0xdb, 0xdf,
  0x28, 0xf8, 0xd4, 0x2b, 0xdf, 0xf9, 0x24, 0x09, 0xfc, 0x28, 0xdb, 0x17,
  0xeb, 0x0e, 0x2e, 0x30, 0x17, 0x1f, 0xd9, 0x1a, 0x22, 0xff, 0x24, 0xfd,
  0xe1, 0x1e, 0x0c, 0x23, 0x18, 0x20, 0x23, 0x02, 0x0e, 0xc5, 0x06, 0x22,
  0xdd, 0xf0, 0xfc, 0x29, 0x00, 0x27, 0xe5, 0xd6, 0x2b, 0x1e, 0x24, 0x1d,
  0x21, 0x18, 0x2d, 0xdd, 0x22, 0xd4, 0x18, 0x24, 0x05, 0x29, 0x1e, 0x26,
  0x2b, 0x1f, 0x26, 0x2b, 0xd5, 0xf9, 0x05, 0xdb, 0x29, 0xf8, 0xda, 0xf7,
  0xef, 0xe4, 0x16, 0xe4, 0xe9, 0xda, 0xdf, 0xdb, 0xd6, 0xef, 0x2d, 0xe2,
  0xd5, 0xe7, 0xde, 0x30, 0x26, 0xe3, 0xe9, 0xe2, 0xdf, 0xda, 0xd9, 0xfd,
  0xf0, 0x28, 0xfb, 0xd1, 0x2c, 0x31, 0xfe, 0xdf, 0xf2, 0xe4, 0x27, 0x1c,
  0xd4, 0xe4, 0xd1, 0xd4, 0xe4, 0xda, 0xd8, 0x1d, 0xe2, 0x2f, 0xe9, 0xd0,
  0xeb, 0xdd, 0xe1, 0xd2, 0xdd, 0xd7, 0xe0, 0x1c, 0x21, 0x0b, 0xe5, 0x26,
  0xd3, 0x02, 0x22, 0x05, 0x0b, 0x1f, 0xda, 0x18, 0x17, 0x1a, 0x27, 0x2f,
  0x16, 0x0f, 0xe5, 0x21, 0x20, 0xee, 0x1f, 0xf0, 0xe0, 0x17, 0xf0, 0x1b,
  0x15, 0x21, 0x1b, 0x0a, 0xf8, 0xd1, 0xf5, 0x1c, 0xd4, 0xe9, 0x08, 0x29,
  0xf2, 0x24, 0xd4, 0xdd, 0x2a, 0x1d, 0x23, 0x1e, 0xf1, 0x16, 0x1b, 0xdf,
  0x05, 0xd7, 0x23, 0x2b, 0x17, 0x22, 0x2f, 0x2e, 0x1f, 0x2c, 0x1e, 0x1e,
  0xce, 0xfd, 0x1a, 0xe2, 0xd4, 0x03, 0x24, 0x07, 0xfa, 0x19, 0xdf, 0x28,
  0x2d, 0x26, 0x28, 0x22, 0x17, 0x09, 0xe5, 0x22, 0x27, 0x0a, 0x18, 0xee,
  0xd3, 0x1f, 0xf7, 0x27, 0x15, 0x21, 0x2d, 0x00, 0x11, 0xca, 0xfb, 0x2f,
  0xe4, 0xe4, 0x04, 0x2a, 0xfe, 0x1d, 0xe3, 0xe2, 0x2d, 0x24, 0x1b, 0x21,
  0x21, 0x17, 0x22, 0xe1, 0x13, 0xe5, 0x21, 0x2a, 0x08, 0x2d, 0x1b, 0x2b,
  0x28, 0x29, 0x26, 0x1b, 0xcd, 0x0b, 0x27, 0xd5, 0x1e, 0x09, 0xdc, 0x0a,
  0xfd, 0xe7, 0x1a, 0xdf, 0xe4, 0xeb, 0xe5, 0xe2, 0xe4, 0xf6, 0x30, 0xd3,
  0xd9, 0xf3, 0x03, 0x17, 0x25, 0xea, 0xe4, 0xde, 0xe6, 0xdb, 0xe4, 0xf6,
  0xfe, 0x32, 0xfa, 0xd7, 0x21, 0x22, 0x02, 0xd5, 0xee, 0xe0, 0x2c, 0x21,
  0xde, 0xe4, 0xe0, 0xde, 0xe4, 0xe0, 0xe2, 0x1a, 0xdd, 0x24, 0xee, 0xe4,
  0xe7, 0xe0, 0xd5, 0xdd, 0xcf, 0xe2, 0xe1, 0xe3, 0x25, 0x08, 0xd4, 0x28,
  0xe2, 0x05, 0x1e, 0x05, 0x02, 0x1b, 0xe1, 0x18, 0x17, 0x21, 0x27, 0x20,
  0x28, 0x06, 0xe0, 0x2d, 0x31, 0x1e, 0x04, 0xe0, 0xe5, 0x1e, 0x0d, 0x18,
  0xfc, 0x25, 0x20, 0xfd, 0x13, 0xd4, 0xff, 0x1c, 0xd1, 0xda, 0x00, 0x2f,
  0x07, 0x22, 0xd1, 0xdc, 0x1a, 0x23, 0x1b, 0x32, 0x21, 0x15, 0x19, 0xe1,
  0x21, 0xd0, 0xee, 0x2b, 0xe8, 0x2b, 0x20, 0x25, 0x30, 0x24, 0x25, 0x17,
  0xd3, 0xfe, 0x27, 0xdb, 0xda, 0xf9, 0x1a, 0x02, 0x06, 0x22, 0xdf, 0x1d,
  0x18, 0x19, 0x32, 0x25, 0x1f, 0x1f, 0xd1, 0x1d, 0x27, 0x16, 0x25, 0xd5,
  0xd6, 0x28, 0x1c, 0x2f, 0x11, 0x21, 0x1e, 0x04, 0x10, 0xd2, 0xff, 0x28,
  0xdd, 0xce, 0xf8, 0x1f, 0xff, 0x20, 0xe5, 0xe6, 0x27, 0x1d, 0x1b, 0x24,
  0x1a, 0x1d, 0x1b, 0xe2, 0x1d, 0xe0, 0x1f, 0x30, 0x0b, 0x26, 0x25, 0x21,
  0x1e, 0x32, 0x2e, 0xde, 0xdf, 0x06, 0x1c, 0xd1, 0x27, 0x08, 0xe7, 0xfa,
  0xfb, 0x13, 0x25, 0xe5, 0x24, 0x1f, 0xd5, 0xd9, 0xee, 0xf2, 0x1a, 0xe5,
  0xdd, 0xef, 0xdf, 0x0f, 0x2f, 0xdd, 0xe1, 0xe6, 0xe9, 0xe5, 0xda, 0x00,
  0x08, 0x2f, 0x00, 0xd9, 0x2f, 0x1d, 0xfd, 0x1c, 0xfd, 0xe1, 0x25, 0x1f,
  0xed, 0xd5, 0xd5, 0xe3, 0xd8, 0xe4, 0xe8, 0x2a, 0xea, 0x24, 0xf1, 0xe4,
  0xe5, 0x14, 0xdd, 0xe6, 0xd4, 0xe2, 0xe3, 0xce, 0x30, 0xfd, 0xdc, 0x2d,
  0xd3, 0x04, 0x2b, 0xfc, 0x06, 0x25, 0xe4, 0x1a, 0x22, 0x15, 0x22, 0x1c,
  0x2a, 0x18, 0xd9, 0x28, 0x2e, 0x12, 0x16, 0xd4, 0xdf, 0x23, 0x12, 0x23,
  0x13, 0x2a, 0x28, 0xf8, 0x14, 0xd9, 0x04, 0x23, 0xe2, 0xe3, 0x0b, 0x28,
  0x10, 0x29, 0xe5, 0xd8, 0x1f, 0x25, 0x23, 0x2d, 0x1d, 0x1b, 0x20, 0xd6,
  0x1e, 0xdf, 0x13, 0x26, 0x14, 0x25, 0x2c, 0x1b, 0x22, 0x1e, 0x29, 0x05,
  0xe2, 0xfb, 0x1f, 0xd9, 0x23, 0xf3, 0x0b, 0x02, 0xed, 0xe7, 0x29, 0xdc,
  0xe9, 0x08, 0x1d, 0x2b, 0x16, 0xe7, 0x20, 0xe3, 0x24, 0xf8, 0xee, 0x11,
  0x38, 0xde, 0xea, 0xe0, 0xe5, 0xe0, 0x1d, 0x08, 0xff, 0x37, 0xfa, 0x15,
  0x28, 0x1b, 0xf8, 0x17, 0xfc, 0x1d, 0x1c, 0x2d, 0xe7, 0x20, 0x13, 0x1f,
  0xea, 0xd9, 0x19, 0x28, 0xdd, 0x27, 0xd5, 0x1f, 0xf2, 0xe3, 0xe3, 0xda,
  0x2d, 0x17, 0xec, 0xd1, 0x28, 0xf9, 0xdf, 0x24, 0xd6, 0xf9, 0x1e, 0x04,
  0xfc, 0x2d, 0xde, 0x20, 0x17, 0x1b, 0x26, 0x2a, 0x25, 0xe5, 0xdb, 0x2a,
  0x24, 0x12, 0x10, 0xfa, 0xde, 0x1e, 0xe4, 0x0f, 0x0c, 0x20, 0x25, 0x01,
  0x05, 0xc7, 0x08, 0x1a, 0xd8, 0xee, 0x03, 0x28, 0x0e, 0x1e, 0xe0, 0xe1,
  0x27, 0x1f, 0x1c, 0x23, 0x15, 0xee, 0x23, 0xd3, 0x0d, 0xd7, 0x16, 0x29,
  0xee, 0x2a, 0x1e, 0x1f, 0x2c, 0x2e, 0x2a, 0x31, 0xcc, 0x08, 0x31, 0xcf,
  0xd7, 0x0e, 0x25, 0x07, 0x07, 0xfb, 0xe9, 0x24, 0x14, 0xe3, 0x28, 0x24,
  0x27, 0x22, 0xdd, 0x17, 0x30, 0x0d, 0x1c, 0xfe, 0xe1, 0x20, 0x1d, 0x1c,
  0x10, 0x21, 0x23, 0x00, 0x07, 0xcb, 0x09, 0x24, 0xdf, 0xea, 0xfb, 0xe8,
  0x0e, 0x29, 0xdd, 0xda, 0x20, 0x20, 0x2a, 0x2d, 0x27, 0x18, 0x1a, 0xdc,
  0x1f, 0xcf, 0x14, 0x21, 0x11, 0x16, 0x19, 0x1d, 0x1b, 0x22, 0x2d, 0x1f,
  0xde, 0xfc, 0x2c, 0xd9, 0x1b, 0x05, 0xe0, 0xfd, 0xf5, 0x1f, 0x1d, 0xe0,
  0xed, 0x0d, 0xd5, 0xe4, 0xe3, 0xe2, 0x2b, 0x08, 0xdb, 0x08, 0xed, 0x13,
  0x2c, 0xd8, 0xe5, 0xe6, 0x02, 0xe0, 0xd4, 0x0c, 0x00, 0x2f, 0xfd, 0xd3,
  0x1b, 0x0f, 0x03, 0xf5, 0xf6, 0xe2, 0x22, 0x2e, 0x0d, 0xdb, 0xd4, 0xdb,
  0xd4, 0xe9, 0xe3, 0x20, 0xec, 0x2a, 0xf1, 0xd5, 0xee, 0x1c, 0xd5, 0xe1,
  0xe6, 0xe4, 0xdd, 0xe0, 0x33, 0x03, 0xda, 0x1b, 0xe0, 0xf7, 0xed, 0xf5,
  0x05, 0xdd, 0xcb, 0x1a, 0xe6, 0x00, 0xd6, 0xd9, 0xe4, 0x18, 0xd3, 0x08,
  0xd6, 0xeb, 0x05, 0xff, 0xd4, 0x11, 0x0f, 0x20, 0xf9, 0xec, 0xe5, 0x06,
  0xff, 0x3a, 0x03, 0xe1, 0xe8, 0xed, 0xf7, 0xd9, 0xfc, 0xd9, 0xe5, 0xda,
  0xee, 0xd0, 0xd9, 0xdd, 0x24, 0x21, 0xd6, 0xe4, 0x1c, 0xd1, 0xf9, 0xe0,
  0x17, 0xe5, 0xe3, 0xe3, 0xd7, 0xdb, 0x13, 0x1c, 0xcb, 0x03, 0x1a, 0xdd,
  0xe8, 0xf8, 0x21, 0x03, 0xff, 0x1a, 0xe0, 0x23, 0x28, 0x27, 0x25, 0x1d,
  0x2d, 0xe6, 0xd7, 0x2b, 0x2d, 0x1f, 0x0c, 0xf1, 0xdc, 0x11, 0xdf, 0x0f,
  0x12, 0x1c, 0x1f, 0x07, 0x05, 0xd2, 0xf5, 0x2a, 0xdd, 0xea, 0x06, 0x2f,
  0x05, 0x23, 0xd9, 0xe1, 0x22, 0x21, 0x1f, 0x2d, 0x1f, 0xf2, 0x1e, 0xd8,
  0x1f, 0xdd, 0x23, 0x1f, 0xf0, 0x1c, 0x23, 0x1c, 0x32, 0x2f, 0x1c, 0x27,
  0xe1, 0x06, 0x25, 0xd9, 0x1e, 0xf9, 0xdf, 0x02, 0xef, 0xd6, 0x17, 0xe4,
  0xe8, 0xe5, 0xdc, 0xdf, 0xdc, 0xea, 0x1f, 0xd4, 0xd7, 0xeb, 0xe5, 0x23,
  0x2c, 0xd6, 0xed, 0xd6, 0xf9, 0xdf, 0xd2, 0x04, 0xea, 0x2e, 0xf8, 0xe3,
  0x1b, 0x20, 0x0a, 0xd9, 0xfb, 0xda, 0x26, 0x26, 0xe0, 0xd7, 0xe2, 0xd3,
  0xe4, 0xe0, 0xe5, 0x1a, 0xe2, 0x24, 0xdb, 0xe2, 0xf5, 0xdb, 0xe5, 0xe5,
  0xe4, 0xdf, 0xe0, 0xea, 0x21, 0x04, 0xe4, 0x26, 0x1e, 0xf5, 0xe3, 0x05,
  0xfc, 0x06, 0x1a, 0xe7, 0xee, 0x1f, 0xdb, 0xe1, 0xea, 0x0f, 0x21, 0xf8,
  0xe0, 0xf0, 0xe2, 0x11, 0x1f, 0xe1, 0xec, 0xec, 0xf0, 0xe5, 0xd9, 0xf8,
  0x07, 0x39, 0x07, 0xde, 0x18, 0x13, 0xf5, 0x0e, 0xfe, 0xda, 0x20, 0x28,
  0xdc, 0xe0, 0xe3, 0xd8, 0xf8, 0xe0, 0xda, 0x20, 0xe0, 0x1b, 0xf7, 0xe7,
  0x0a, 0xde, 0x13, 0xcf, 0xd2, 0xe5, 0xd8, 0xdc, 0x21, 0x04, 0xee, 0x2e,
  0x22, 0x08, 0xe2, 0x07, 0xf1, 0xdf, 0x23, 0xe4, 0xd6, 0xe3, 0xde, 0xda,
  0xe7, 0xf0, 0x21, 0xf4, 0xcf, 0x1d, 0x1e, 0x08, 0x1f, 0xe7, 0xe0, 0xe8,
  0x1f, 0xf0, 0xd5, 0xfc, 0xfd, 0xcf, 0xf9, 0xd9, 0x2d, 0x0c, 0x02, 0xe5,
  0xfe, 0xd5, 0x2d, 0x2d, 0x17, 0xdf, 0xdd, 0xe2, 0x08, 0xdf, 0xe4, 0x29,
  0xf1, 0x24, 0x15, 0xda, 0xf7, 0xe2, 0xd5, 0xd5, 0xdb, 0xe0, 0xe6, 0xe2,
  0x29, 0x07, 0xe4, 0x29, 0xe0, 0xfc, 0x22, 0x00, 0x04, 0x1a, 0xe9, 0x27,
  0x20, 0x27, 0x2e, 0x33, 0x2d, 0x1a, 0xe2, 0x1c, 0x20, 0x0f, 0x1c, 0xd8,
  0xd7, 0x1b, 0x0d, 0x20, 0x18, 0x27, 0x1e, 0xf8, 0x11, 0xc8, 0x07, 0x1b,
  0xe5, 0xe0, 0xf8, 0x18, 0x07, 0x1e, 0xdd, 0xd3, 0x24, 0x25, 0x2f, 0x29,
  0x24, 0x19, 0x2d, 0xd7, 0x24, 0xe1, 0x1a, 0x25, 0x1a, 0x2a, 0x1b, 0x2c,
  0x1e, 0x28, 0x25, 0x06, 0xd1, 0x03, 0x27, 0xdf, 0x2e, 0xff, 0xd9, 0x04,
  0x18, 0xe4, 0x1e, 0x16, 0xe2, 0xf2, 0xe2, 0xd7, 0xe9, 0x18, 0x2f, 0xe3,
  0xe4, 0xf5, 0xeb, 0x0d, 0x2f, 0xe8, 0x20, 0x1f, 0xe5, 0xde, 0xdc, 0xf6,
  0x17, 0x33, 0xfb, 0xe6, 0x2e, 0x15, 0x0b, 0xdd, 0x07, 0xdc, 0x25, 0x1f,
  0xe8, 0xe2, 0xe3, 0xe5, 0x29, 0x29, 0xd5, 0x23, 0x19, 0x1e, 0xef, 0xd4,
  0x07, 0xdf, 0xd2, 0xe1, 0xe3, 0xd1, 0x1a, 0xdb, 0x20, 0x0a, 0xf0, 0x20,
  0x2e, 0xfb, 0xe7, 0x09, 0xf4, 0xd8, 0x16, 0xde, 0xe8, 0xe3, 0xd3, 0xe4,
  0xd7, 0xed, 0x2d, 0xdc, 0xe1, 0xe3, 0xe6, 0x30, 0x1e, 0xe4, 0xea, 0xdc,
  0xdc, 0xd6, 0xda, 0xff, 0xeb, 0x29, 0x0b, 0xdd, 0x1a, 0x2f, 0xf9, 0xe5,
  0xf4, 0xe2, 0x20, 0x1c, 0xe7, 0xd1, 0xd5, 0xd5, 0xe4, 0xda, 0xe4, 0x20,
  0xe7, 0x2a, 0xe5, 0xde, 0xea, 0xe2, 0xce, 0xce, 0xe5, 0xe4, 0xe6, 0x1e,
  0x2c, 0x0b, 0xdf, 0x27, 0x1d, 0x02, 0xf4, 0xf5, 0x0a, 0xe7, 0x35, 0x0a,
  0xeb, 0xdf, 0x19, 0x1b, 0x0d, 0x14, 0x2e, 0xe5, 0x24, 0xf9, 0x20, 0x08,
  0x36, 0xed, 0x0b, 0xe8, 0x11, 0x2a, 0x25, 0x09, 0xfb, 0xc5, 0xf5, 0x2b,
  0x20, 0x13, 0xfd, 0xe8, 0xef, 0x2a, 0x2b, 0x2f, 0x1b, 0x1a, 0xf4, 0x13,
  0xe4, 0xed, 0x18, 0x20, 0xe6, 0x1d, 0x03, 0x10, 0xed, 0xe6, 0xe2, 0x25,
  0x20, 0x23, 0xf3, 0xd3, 0x28, 0x07, 0xe0, 0x1b, 0x2d, 0x00, 0xda, 0xf6,
  0x06, 0xdb, 0x21, 0x13, 0xdb, 0xd4, 0xe5, 0xe0, 0xe3, 0x18, 0x2b, 0xe7,
  0xd2, 0xe6, 0x0d, 0x03, 0x26, 0xfd, 0x21, 0x1b, 0x0b, 0xee, 0xe1, 0x05,
  0x22, 0xbc, 0x07, 0xe1, 0x23, 0x12, 0x08, 0xdb, 0x00, 0xd9, 0x29, 0x30,
  0xf0, 0xd7, 0xda, 0xdc, 0x12, 0x1b, 0xde, 0x26, 0x0c, 0x26, 0x1b, 0xd1,
  0x05, 0xd7, 0xe0, 0xd2, 0xe4, 0xe5, 0xf9, 0xd9, 0x2b, 0xfd, 0xdb, 0x2c,
  0x19, 0x01, 0xde, 0xfe, 0xf0, 0xdc, 0x1b, 0xd7, 0xe6, 0xdd, 0xce, 0xe0,
  0xdb, 0xd9, 0x26, 0xe3, 0xe0, 0xed, 0xe8, 0x35, 0x2b, 0xe7, 0xf4, 0xd2,
  0xe7, 0xe3, 0xda, 0xff, 0xea, 0x31, 0x07, 0xe2, 0x2b, 0x27, 0x01, 0xe4,
  0xef, 0xd8, 0x2b, 0x2b, 0xe6, 0xdd, 0xdf, 0xd6, 0xe8, 0xd4, 0xd3, 0x2c,
  0xec, 0x2a, 0xd4, 0xe4, 0xfa, 0xe3, 0xe3, 0xce, 0xe2, 0xd2, 0xe8, 0x19,
  0x2f, 0x0a, 0xe4, 0x2b, 0xda, 0xfc, 0xdc, 0xfd, 0x07, 0x13, 0xd7, 0x26,
  0xdc, 0xed, 0xe6, 0xd7, 0xec, 0x15, 0xe4, 0x15, 0xe4, 0x01, 0x14, 0xeb,
  0xc6, 0x0c, 0x1e, 0x22, 0x13, 0x08, 0xd5, 0xf5, 0x08, 0xce, 0xfc, 0xd5,
  0xe2, 0xee, 0xf7, 0x02, 0x08, 0xe2, 0xd2, 0xce, 0x17, 0xe5, 0xe5, 0xd8,
  0x26, 0x2b, 0xde, 0xe1, 0x18, 0xd6, 0x15, 0xd1, 0x1a, 0xf1, 0xdf, 0xe2,
  0xde, 0xdc, 0xf4, 0x2e, 0xda, 0x09, 0xdc, 0xe0, 0xd2, 0x0e, 0x20, 0x03,
  0x0b, 0x1c, 0xd8, 0x1a, 0x20, 0x23, 0x22, 0x26, 0x23, 0x0a, 0xe2, 0x22,
  0x20, 0x11, 0x10, 0xe0, 0xd9, 0x18, 0x0a, 0x1a, 0x0c, 0x27, 0x1d, 0x08,
  0x10, 0xd1, 0x01, 0x1d, 0xd1, 0xdd, 0x05, 0x1c, 0xfc, 0x1e, 0xe8, 0xd3,
  0x17, 0x32, 0x31, 0x1c, 0x29, 0x0f, 0x28, 0xe0, 0x17, 0xda, 0xfa, 0x26,
  0xe9, 0x2e, 0x1c, 0x22, 0x2b, 0x25, 0x2c, 0x30, 0xdd, 0x0a, 0x30, 0xcf,
  0xe9, 0xf7, 0x20, 0xfb, 0x13, 0x23, 0xe9, 0x1a, 0x1a, 0x15, 0x27, 0x21,
  0x27, 0x1c, 0xe7, 0x2c, 0x29, 0x11, 0x23, 0xcd, 0xdd, 0x18, 0x0e, 0x29,
  0x26, 0x1f, 0x25, 0xff, 0x0e, 0xda, 0x0a, 0x1e, 0xd6, 0xd0, 0x00, 0x27,
  0x06, 0x20, 0xd6, 0xd7, 0x2a, 0x20, 0x20, 0x25, 0x21, 0x26, 0x1b, 0xdd,
  0x1d, 0xe6, 0x17, 0x24, 0x0d, 0x21, 0x2d, 0x1a, 0x20, 0x28, 0x2d, 0xf0,
  0xde, 0xfd, 0x1f, 0xcc, 0x29, 0x02, 0xe2, 0x04, 0xf6, 0xdd, 0x24, 0xdf,
  0xe3, 0xdb, 0xe5, 0xd7, 0xd9, 0xda, 0x26, 0xd8, 0xe2, 0xe2, 0xde, 0x28,
  0x19, 0xdc, 0xe9, 0xe7, 0xef, 0xdd, 0xd2, 0x0a, 0xf7, 0x27, 0xfb, 0xd7,
  0x1c, 0x28, 0x02, 0xdc, 0xf8, 0xe3, 0x18, 0x19, 0xd9, 0xdd, 0xd8, 0xdf,
  0xd4, 0xda, 0xda, 0x28, 0xea, 0x25, 0xd8, 0xe4, 0xf9, 0xd8, 0xdc, 0xd2,
  0xe5, 0xe3, 0xe2, 0x11, 0x33, 0xf8, 0xde, 0x2b, 0xe5, 0x00, 0x1a, 0x0a,
  0xff, 0x25, 0xea, 0xe9, 0xf1, 0x29, 0x2d, 0x27, 0x28, 0x15, 0xe5, 0x24,
  0x1e, 0xff, 0xf6, 0xec, 0xe6, 0xf8, 0x08, 0x13, 0x04, 0x16, 0x2b, 0xfa,
  0xf3, 0x41, 0xfc, 0x1a, 0xd3, 0xe0, 0x06, 0x21, 0xf5, 0x1c, 0xdb, 0xd3,
  0xf5, 0x30, 0x2a, 0x1d, 0xef, 0x0a, 0x29, 0xe3, 0xea, 0xd5, 0x18, 0x27,
  0x11, 0x28, 0x22, 0x2d, 0x1d, 0x1b, 0x1d, 0x25, 0xcf, 0xfe, 0x21, 0xdd,
  0xd6, 0xf9, 0x2b, 0xfc, 0x0b, 0x1a, 0xe1, 0x20, 0x21, 0x1a, 0x21, 0x26,
  0x27, 0x08, 0xdd, 0x1c, 0x20, 0x15, 0x25, 0xd7, 0xe3, 0x1d, 0x0b, 0x28,
  0x14, 0x27, 0x1e, 0x0b, 0x0a, 0xc8, 0x07, 0x23, 0xd4, 0xdb, 0x08, 0x23,
  0x0c, 0x1d, 0xd1, 0xe5, 0x1e, 0x2f, 0x32, 0x30, 0x23, 0x0f, 0x25, 0xe1,
  0x22, 0xd1, 0x21, 0x1d, 0xeb, 0x2d, 0x20, 0x1d, 0x2f, 0x30, 0x20, 0xe0,
  0xda, 0xf8, 0x1d, 0xd7, 0x24, 0xf8, 0xe6, 0xfc, 0xe7, 0xdd, 0x21, 0xe8,
  0xdf, 0xe7, 0xe2, 0xce, 0xe6, 0xd9, 0x25, 0xd9, 0xd3, 0xe2, 0xed, 0x2a,
  0x24, 0xe8, 0xec, 0xe2, 0xe4, 0xe5, 0xd3, 0xf8, 0xf3, 0x32, 0xf9, 0xde,
  0x24, 0x1c, 0x07, 0xdc, 0xfb, 0xe4, 0x2c, 0x24, 0xe1, 0xd6, 0xde, 0xd3,
  0xe8, 0xd3, 0xda, 0x19, 0xea, 0x2b, 0xe6, 0xe4, 0xf1, 0xda, 0xdb, 0xd5,
  0xe5, 0xd6, 0xe4, 0xfd, 0x32, 0xfc, 0xd5, 0x25, 0x19, 0x04, 0xd2, 0xfd,
  0xfb, 0xd9, 0x1c, 0xe0, 0xe7, 0xe2, 0xd6, 0xe0, 0xdf, 0xe0, 0x22, 0xdd,
  0xdc, 0x0a, 0xe7, 0x2c, 0x2a, 0xe7, 0xec, 0xe4, 0x02, 0xe4, 0xd3, 0xf8,
  0xf6, 0x2a, 0xfa, 0xd7, 0x23, 0x29, 0x03, 0xe5, 0x05, 0xd9, 0x2d, 0x29,
  0xde, 0xdf, 0xe5, 0xd5, 0xe3, 0xd5, 0xe1, 0x2e, 0xec, 0x1f, 0xdb, 0xd4,
  0xf4, 0xe4, 0xda, 0xd7, 0xd8, 0xdc, 0xdf, 0x19, 0x1e, 0xf5, 0xe3, 0x2e,
  0xe0, 0x04, 0x1c, 0xfa, 0xec, 0x27, 0xe4, 0x26, 0x2a, 0x19, 0x23, 0x1f,
  0x23, 0xe3, 0xe7, 0x29, 0x21, 0x13, 0x1c, 0xf2, 0xe6, 0x17, 0xf0, 0x16,
  0x0f, 0x18, 0x2e, 0x0a, 0x01, 0xd6, 0xf7, 0x1a, 0xd8, 0xe1, 0xf9, 0x2d,
  0x12, 0x20, 0xdd, 0xd1, 0x1e, 0x26, 0x1f, 0x28, 0x23, 0xea, 0x2a, 0xd9,
  0x0c, 0xd8, 0x10, 0x23, 0xea, 0x27, 0x1b, 0x27, 0x21, 0x30, 0x1d, 0x25,
  0xe2, 0x0c, 0x23, 0xcd, 0x26, 0xf3, 0xe6, 0x08, 0xfd, 0xe7, 0x26, 0xd7,
  0xd5, 0xd6, 0xe0, 0xdf, 0xe1, 0xe7, 0x20, 0xe6, 0xd5, 0xeb, 0xde, 0x36,
  0x2f, 0xea, 0xeb, 0xdf, 0xe3, 0xe5, 0xcf, 0x06, 0xf8, 0x28, 0xfb, 0xdb,
  0x1f, 0x39, 0x09, 0xe4, 0xfb, 0xd5, 0x22, 0x21, 0xe1, 0xd8, 0xdd, 0xe0,
  0xd9, 0xdf, 0xe1, 0x2f, 0xd9, 0x1a, 0xe7, 0xce, 0xf7, 0xe2, 0xe1, 0xda,
  0xd7, 0xdd, 0xd6, 0x17, 0x21, 0x09, 0xe3, 0x34, 0x23, 0xfc, 0xd4, 0x07,
  0x15, 0xdc, 0x1c, 0xf9, 0xd9, 0xe2, 0xd7, 0xdf, 0xe2, 0x22, 0x22, 0xe7,
  0xda, 0xf8, 0x15, 0x11, 0x1d, 0xfc, 0x15, 0xec, 0x0b, 0xea, 0xe0, 0x0b,
  0xfc, 0xbd, 0xf5, 0xd8, 0x2c, 0x16, 0xfe, 0xe6, 0xf6, 0xce, 0x2e, 0x25,
  0xe9, 0xe2, 0xdd, 0xe5, 0xea, 0x14, 0xe3, 0x1b, 0xe7, 0x2b, 0x0d, 0xdf,
  0x08, 0xcf, 0xe4, 0xe5, 0xdf, 0xdb, 0xdb, 0xd6, 0x1e, 0xf5, 0xe1, 0x22,
  0x33, 0x0d, 0xe9, 0xf5, 0x03, 0xe6, 0x28, 0x19, 0xd2, 0xe2, 0xda, 0xdb,
  0xe1, 0x24, 0x1e, 0xe9, 0xd8, 0xe2, 0xec, 0x05, 0x28, 0xeb, 0x17, 0x1f,
  0xe4, 0xe8, 0xe2, 0x03, 0x2b, 0x39, 0x05, 0xda, 0x24, 0x0e, 0xfa, 0xf0,
  0x0b, 0xe5, 0x24, 0x27, 0xe3, 0xe4, 0xdc, 0xd2, 0x25, 0x1c, 0xe8, 0x1f,
  0x25, 0x1b, 0xf0, 0xd3, 0x0d, 0xe2, 0x06, 0xdd, 0xe3, 0xd3, 0x13, 0xd4,
  0x2f, 0x0c, 0xe9, 0x25, 0x2c, 0x08, 0xdf, 0xfa, 0xfe, 0xe3, 0x27, 0xe2,
  0xe7, 0xea, 0xd1, 0xdf, 0xe9, 0x1b, 0x2b, 0xd6, 0xdd, 0xea, 0x14, 0x02,
  0x23, 0x0e, 0xed, 0xe2, 0x0e, 0x1a, 0xe4, 0x0c, 0xef, 0x37, 0xf6, 0xd6,
  0x25, 0x17, 0xfe, 0xe4, 0xf2, 0xd8, 0x2b, 0x23, 0x26, 0xd0, 0xd1, 0xd1,
  0xe9, 0xf4, 0xe0, 0x2e, 0xf0, 0x1d, 0x22, 0xe5, 0x0c, 0xe0, 0xd4, 0xe1,
  0xe1, 0xda, 0xe5, 0xde, 0x32, 0xf6, 0xdc, 0x30, 0xe0, 0x01, 0x26, 0x07,
  0x11, 0x1f, 0xe3, 0x1b, 0x27, 0x0f, 0x1c, 0x20, 0x2a, 0x01, 0xe4, 0x1e,
  0x22, 0x13, 0x18, 0xda, 0xe2, 0x27, 0x10, 0x1b, 0x20, 0x22, 0x20, 0xfd,
  0x0c, 0xd9, 0xf9, 0x30, 0xe5, 0xd9, 0xf9, 0x2d, 0xfc, 0x1d, 0xdc, 0xe6,
  0x1a, 0x29, 0x22, 0x1c, 0x19, 0x13, 0x22, 0xd1, 0x28, 0xde, 0x1f, 0x2b,
  0xf9, 0x28, 0x28, 0x1e, 0x2d, 0x2e, 0x25, 0xf0, 0xd5, 0x06, 0x27, 0xca,
  0xd6, 0xfa, 0x1a, 0xfe, 0xff, 0x1d, 0xdb, 0x26, 0x1b, 0x1c, 0x2f, 0x21,
  0x18, 0xe7, 0xd9, 0x20, 0x22, 0x12, 0x14, 0xd7, 0xe0, 0x14, 0xed, 0x1c,
  0x24, 0x16, 0x1e, 0x04, 0x09, 0xd3, 0xfa, 0x2c, 0xd9, 0xc7, 0x0a, 0x1a,
  0x06, 0x22, 0xde, 0xcf, 0x21, 0x2f, 0x30, 0x31, 0x15, 0xfb, 0x2e, 0xe0,
  0x26, 0xe6, 0x23, 0x21, 0xef, 0x24, 0x20, 0x25, 0x20, 0x2b, 0x19, 0xee,
  0xd9, 0xfd, 0x1f, 0xd7, 0x2b, 0x02, 0xd5, 0xfc, 0x06, 0xe1, 0x1d, 0xd8,
  0xe1, 0xd7, 0xda, 0xe1, 0xdf, 0x20, 0x2a, 0xe5, 0xe1, 0xec, 0xfb, 0x07,
  0x1d, 0xda, 0x18, 0xfb, 0xfa, 0xee, 0xd7, 0xfd, 0xf0, 0x36, 0x05, 0xde,
  0x23, 0x0d, 0xff, 0xe4, 0xf5, 0xde, 0x25, 0x2c, 0xe1, 0xd2, 0xe1, 0xcf,
  0xd8, 0x0e, 0xe1, 0x29, 0xef, 0x21, 0xf5, 0xe0, 0x06, 0xd3, 0xd1, 0xda,
  0xd7, 0xd8, 0xe4, 0xd5, 0x33, 0x0a, 0xe4, 0x28, 0xd7, 0x05, 0x24, 0xfb,
  0xfd, 0x20, 0xda, 0xf1, 0x25, 0x15, 0x1d, 0x1c, 0x2c, 0xf5, 0xd6, 0x1b,
  0x24, 0x00, 0xf4, 0xfe, 0xe4, 0x0f, 0xf6, 0x1b, 0xf3, 0x19, 0x2e, 0x04,
  0x02, 0x32, 0x0c, 0x22, 0xd1, 0xe5, 0x0b, 0x24, 0x0b, 0x2f, 0xde, 0xe0,
  0xed, 0x1e, 0x1a, 0x30, 0x1f, 0x16, 0x16, 0xdf, 0x11, 0xdf, 0x0d, 0x20,
  0x14, 0x1d, 0x1e, 0x27, 0x30, 0x30, 0x1f, 0x2b, 0xe2, 0x01, 0x26, 0xd5,
  0x26, 0xfb, 0xd1, 0xfe, 0xf4, 0xe1, 0x15, 0xe0, 0xd6, 0xe4, 0xdc, 0xdd,
  0xd4, 0xe3, 0x28, 0xdf, 0xe3, 0xeb, 0xea, 0x27, 0x1f, 0xe2, 0xef, 0xd8,
  0xdd, 0xdc, 0xe5, 0xfe, 0xf3, 0x2c, 0x03, 0xd1, 0x1d, 0x35, 0x05, 0xd3,
  0xfa, 0xde, 0x19, 0x25, 0xe2, 0xda, 0xda, 0xe2, 0xe7, 0xe4, 0xe0, 0x26,
  0xd9, 0x24, 0xdb, 0xde, 0xf6, 0xdf, 0xd1, 0xe4, 0xe3, 0xd9, 0xd1, 0x26,
  0x23, 0x01, 0xde, 0x2d, 0x19, 0xf9, 0xe1, 0x05, 0xeb, 0x16, 0x24, 0xec,
  0x28, 0x13, 0xe1, 0xe5, 0xed, 0xee, 0x1e, 0x10, 0xdb, 0x0d, 0x0e, 0xfc,
  0x1e, 0x17, 0xea, 0xe7, 0x22, 0x28, 0xd3, 0xf6, 0xf4, 0xce, 0xfc, 0xd6,
  0x18, 0x05, 0xfc, 0xe4, 0x03, 0xd9, 0xdc, 0x1f, 0x26, 0xd1, 0xd7, 0xd9,
  0xe5, 0xe0, 0xef, 0x23, 0xe7, 0x28, 0x16, 0xdf, 0xf7, 0x0b, 0xd9, 0xe3,
  0xd4, 0xe2, 0xe9, 0xc5, 0x1f, 0x08, 0x1d, 0x14, 0x25, 0x07, 0xe0, 0xfa,
  0xf6, 0xe0, 0x28, 0xde, 0xd3, 0xf2, 0xdc, 0xe4, 0xe4, 0xe8, 0x2a, 0xf2,
  0xe0, 0x05, 0xe7, 0xfe, 0x1e, 0xea, 0xf3, 0xde, 0xe2, 0xe8, 0xd2, 0x09,
  0x0b, 0x36, 0xfb, 0xda, 0x22, 0x10, 0xf7, 0xea, 0xff, 0xce, 0x21, 0x2c,
  0xe7, 0xd9, 0xd5, 0xda, 0x22, 0xd7, 0xe7, 0x1f, 0xf6, 0x21, 0xd8, 0xdf,
  0xfb, 0xd9, 0xe4, 0xd8, 0xe0, 0xd8, 0xf7, 0xdf, 0x26, 0x0a, 0xe6, 0x2a,
  0xd4, 0xf7, 0xdd, 0x03, 0x06, 0xe1, 0xd1, 0x18, 0x1b, 0xf5, 0xdb, 0xe0,
  0xed, 0x24, 0xdf, 0xf3, 0xda, 0xff, 0x15, 0xee, 0xd4, 0x28, 0x19, 0x1a,
  0x06, 0x14, 0xd6, 0xf4, 0x0e, 0xc5, 0x04, 0xd8, 0xdc, 0xe8, 0x06, 0xdf,
  0x00, 0xde, 0xe4, 0xd7, 0x14, 0xd8, 0xdf, 0xdd, 0x16, 0x29, 0xef, 0xe1,
  0x1a, 0xda, 0x11, 0xd6, 0x12, 0xe0, 0xe4, 0xe4, 0xe9, 0xe1, 0x20, 0x1f,
  0xd2, 0xff, 0x20, 0xd8, 0x2a, 0xf9, 0x16, 0x00, 0xfd, 0xe3, 0x2c, 0xea,
  0xe9, 0xea, 0xea, 0xe2, 0xee, 0x1b, 0x24, 0xd8, 0xdd, 0xf7, 0xeb, 0xfe,
  0x2e, 0xec, 0x1b, 0x1e, 0xf7, 0xf4, 0x25, 0xf7, 0xf1, 0x35, 0x07, 0x0e,
  0x1c, 0x1b, 0xfd, 0xd8, 0xfc, 0xdd, 0x19, 0x38, 0xe5, 0x22, 0xeb, 0xe4,
  0x23, 0x19, 0x15, 0x1c, 0xf7, 0x24, 0xf7, 0x03, 0x0f, 0xdf, 0xe0, 0xeb,
  0x24, 0x06, 0x15, 0xdc, 0x27, 0xff, 0xe4, 0x34, 0xe5, 0x0b, 0x29, 0xf9,
  0xfd, 0x1e, 0xdb, 0x23, 0xe0, 0x0d, 0x28, 0x1c, 0x16, 0xe5, 0xd2, 0x17,
  0x2c, 0x03, 0x0d, 0xed, 0xd0, 0xf6, 0x1d, 0x24, 0xfd, 0xde, 0x1e, 0x07,
  0x08, 0xc6, 0x00, 0x26, 0xdb, 0xe2, 0x06, 0x19, 0x13, 0x2b, 0xdb, 0xd8,
  0x1c, 0x2e, 0x1c, 0x29, 0x03, 0x23, 0x1f, 0xdf, 0x19, 0xd8, 0xe8, 0x2c,
  0xe7, 0x2b, 0x1c, 0x1f, 0x27, 0x28, 0x21, 0x27, 0xca, 0x09, 0xe5, 0xdf,
  0xd9, 0xff, 0xd9, 0xf5, 0x15, 0xe5, 0xdc, 0x1b, 0x0e, 0xee, 0xd5, 0xe1,
  0xea, 0x12, 0xda, 0x1d, 0xd1, 0x1e, 0x1c, 0xee, 0xc9, 0x18, 0x11, 0x2e,
  0x10, 0x13, 0xd7, 0xf8, 0x0b, 0xc8, 0xf7, 0xe1, 0xe2, 0xe5, 0xfe, 0xe4,
  0xff, 0xe1, 0xdc, 0xd4, 0x23, 0xe1, 0xdc, 0xe3, 0x1b, 0x19, 0xe8, 0xdc,
  0x22, 0xd9, 0x16, 0xd3, 0x0f, 0xd4, 0xe2, 0xfa, 0xe0, 0xd9, 0x12, 0x25,
  0xd4, 0x03, 0x19, 0xe8, 0xd9, 0x08, 0x26, 0x06, 0x10, 0x25, 0xe9, 0x1a,
  0x2e, 0x24, 0x27, 0x25, 0x2a, 0x14, 0xe0, 0x1d, 0x1f, 0x12, 0x1e, 0xd9,
  0xd7, 0x1a, 0x1e, 0x27, 0x10, 0x1f, 0x2d, 0xfe, 0x0c, 0xcc, 0x08, 0x1a,
  0xe6, 0xd8, 0xff, 0x21, 0x0d, 0x1d, 0xdb, 0xd6, 0x27, 0x21, 0x1c, 0x1f,
  0x1c, 0x1c, 0x27, 0xe2, 0x23, 0xd5, 0x1b, 0x20, 0xed, 0x1a, 0x28, 0x1e,
  0x27, 0x22, 0x30, 0x0c, 0xce, 0x06, 0x29, 0xd8, 0x20, 0x03, 0xea, 0x05,
  0x0f, 0xe0, 0x21, 0x13, 0xe6, 0xe8, 0xd2, 0xe4, 0xdb, 0x02, 0x1b, 0xe2,
  0xdf, 0xe9, 0xf3, 0x10, 0x30, 0xe8, 0x10, 0x23, 0xe4, 0xd8, 0xe1, 0xfc,
  0x1c, 0x29, 0x04, 0xdb, 0x1b, 0x16, 0xf5, 0xe1, 0xff, 0xda, 0x21, 0x2a,
  0xea, 0xd4, 0xe9, 0xdf, 0x1d, 0x09, 0xd8, 0x24, 0x22, 0x21, 0xe6, 0xd6,
  0xe6, 0xdd, 0x06, 0xe3, 0xdc, 0xd6, 0x11, 0xe3, 0x1d, 0xfc, 0xdd, 0x1e,
  0x28, 0x00, 0xdb, 0xf9, 0xf9, 0xe8, 0x12, 0xe3, 0xdb, 0xe7, 0xd0, 0xcf,
  0xe9, 0xf5, 0x25, 0xe8, 0xe1, 0x08, 0xe0, 0x14, 0x22, 0xe6, 0xf4, 0xd9,
  0xeb, 0xdd, 0xd7, 0x05, 0xfa, 0x2f, 0xf8, 0xdf, 0x1d, 0x1e, 0x09, 0xe4,
  0xfe, 0xe2, 0x2a, 0x23, 0xdf, 0xdf, 0xe5, 0xe3, 0xe3, 0xe6, 0xe6, 0x2c,
  0xeb, 0x28, 0xec, 0xdd, 0x12, 0xda, 0xd4, 0xd0, 0xdb, 0xd1, 0xd3, 0xe7,
  0x2f, 0x01, 0xe2, 0x28, 0xdf, 0x09, 0x04, 0x06, 0x0f, 0x04, 0xdf, 0x2c,
  0xf2, 0x1b, 0xdd, 0xd0, 0xe4, 0x16, 0xd9, 0x23, 0xe7, 0xf3, 0xec, 0xfc,
  0xce, 0x00, 0x1e, 0x20, 0xe3, 0xdb, 0xd8, 0x06, 0x08, 0x3d, 0x05, 0xd8,
  0xdd, 0xf2, 0x01, 0x0e, 0x01, 0xd3, 0xe8, 0xcf, 0xd6, 0xe3, 0x12, 0xe6,
  0x20, 0x19, 0xd9, 0xe0, 0x16, 0xd8, 0xef, 0xe6, 0x09, 0x0e, 0x2d, 0xe1,
  0xdb, 0xe6, 0x11, 0x2e, 0xdb, 0x06, 0x19, 0xe6, 0xd6, 0x0d, 0x14, 0x00,
  0x17, 0x1e, 0xd3, 0x18, 0x1d, 0x0f, 0x17, 0x29, 0x17, 0x16, 0xcf, 0x25,
  0x17, 0x15, 0x12, 0xd2, 0xde, 0x19, 0x0d, 0x1b, 0x1a, 0x1b, 0x09, 0x07,
  0x04, 0xd0, 0x08, 0xe4, 0xd1, 0xcd, 0x00, 0x1b, 0x0f, 0x28, 0xe1, 0xd1,
  0x25, 0xed, 0x28, 0x19, 0x11, 0x1b, 0xf7, 0xe2, 0x23, 0xd7, 0x1d, 0x1c,
  0x14, 0x1c, 0x20, 0x1c, 0xe7, 0xf1, 0x15, 0xec, 0xd0, 0xfa, 0x2f, 0xd6,
  0x1e, 0xf9, 0xdf, 0x01, 0xf2, 0xde, 0x17, 0xe0, 0xe4, 0xea, 0xd8, 0xcd,
  0xdc, 0xdf, 0x1b, 0xd8, 0xe0, 0xe6, 0xfa, 0x11, 0x2d, 0xe8, 0xf2, 0xe5,
  0xf3, 0xdc, 0xd7, 0xfb, 0x0f, 0x36, 0xfa, 0xd6, 0x27, 0x20, 0x05, 0xd9,
  0xfc, 0xe2, 0x25, 0x28, 0xd9, 0xdf, 0xe5, 0xe1, 0x08, 0xf3, 0xe3, 0x2f,
  0xf1, 0x1a, 0xdc, 0xd3, 0xe8, 0xdb, 0xdd, 0xd4, 0xda, 0xe0, 0xe3, 0xd4,
  0x27, 0xfd, 0xda, 0x24, 0x2a, 0x01, 0xd4, 0x03, 0x05, 0xe6, 0x21, 0x09,
  0xe4, 0xe3, 0xe5, 0xdc, 0xd4, 0x22, 0x1e, 0xe7, 0xd8, 0xe4, 0xf6, 0x09,
  0x26, 0xec, 0x13, 0x18, 0xe0, 0xea, 0xe3, 0x0b, 0x18, 0x30, 0xfa, 0xde,
  0x2e, 0x16, 0x02, 0xe6, 0x12, 0xd8, 0x21, 0x2f, 0xe9, 0xdc, 0xd1, 0xd5,
  0x19, 0x29, 0xdc, 0x25, 0x13, 0x1a, 0xdb, 0xd1, 0x0a, 0xd7, 0xe4, 0xe5,
  0xdc, 0xe3, 0x12, 0xda, 0x2a, 0xf8, 0xd9, 0x28, 0xdf, 0x05, 0x1d, 0x04,
  0x10, 0x2d, 0xdc, 0x2d, 0x2a, 0x2c, 0x1b, 0x20, 0x2a, 0x1e, 0xe2, 0x26,
  0x20, 0x09, 0x26, 0xce, 0xd8, 0x1f, 0x14, 0x23, 0x25, 0x18, 0x29, 0x09,
  0x0d, 0xcb, 0x07, 0x1b, 0xd5, 0xd6, 0x0b, 0x2f, 0x06, 0x22, 0xd9, 0xd7,
  0x26, 0x2f, 0x1b, 0x25, 0x26, 0x1b, 0x21, 0xdb, 0x1f, 0xd2, 0x1d, 0x26,
  0x06, 0x2c, 0x28, 0x2a, 0x21, 0x22, 0x1b, 0xda, 0xe0, 0x07, 0x27, 0xd7,
  0xdb, 0x06, 0x22, 0x08, 0xfb, 0x21, 0xdd, 0xec, 0x2a, 0x1f, 0x1e, 0x1b,
  0x25, 0xee, 0xd8, 0xf3, 0x2f, 0xf9, 0x11, 0x0b, 0xe9, 0x0b, 0x0c, 0xe2,
  0x1a, 0x1b, 0x1b, 0xfa, 0xe9, 0xc2, 0xf9, 0x2b, 0xd5, 0xf6, 0xfc, 0x0f,
  0xf8, 0x23, 0x22, 0xe2, 0x17, 0x1b, 0x2c, 0x27, 0xe4, 0xe8, 0x2b, 0xe4,
  0xda, 0xda, 0x0d, 0x21, 0xe8, 0x26, 0xee, 0x1d, 0x1a, 0x26, 0xfd, 0x30,
  0xed, 0x08, 0x09, 0xe5, 0x21, 0x06, 0x1a, 0xfc, 0xfb, 0x1c, 0x2e, 0xf3,
  0xf0, 0x15, 0x23, 0x20, 0x24, 0xf4, 0x22, 0x20, 0x1c, 0x10, 0xeb, 0xd0,
  0x26, 0xec, 0x03, 0x05, 0x03, 0x00, 0x2a, 0x02, 0x19, 0x32, 0x01, 0x2a,
  0xdc, 0xe2, 0xfd, 0x25, 0x06, 0x2b, 0x1e, 0x24, 0xfb, 0x1d, 0x2e, 0x1c,
  0x15, 0xf2, 0x1a, 0x27, 0x01, 0x1f, 0xf2, 0x20, 0xf4, 0x2b, 0x1b, 0x26,
  0x19, 0x24, 0x16, 0xd5, 0xe9, 0xf6, 0xe6, 0xd5, 0x00, 0x00, 0x00, 0x00,
  0xb6, 0xd0, 0xff, 0xff, 0x04, 0x00, 0x00, 0x00, 0x00, 0x04, 0x00, 0x00,
  0x2d, 0xe7, 0x0c, 0x87, 0xdc, 0xfc, 0x46, 0xf1, 0x89, 0xad, 0xf7, 0x02,
  0xb9, 0xe5, 0xe7, 0xc9, 0xff, 0x24, 0xce, 0xe3, 0x27, 0xf1, 0xc2, 0xf5,
  0xf6, 0xe3, 0xea, 0x1a, 0x0e, 0x28, 0xca, 0xe7, 0xe2, 0x9b, 0xc5, 0x9f,
  0xad, 0xc6, 0xa3, 0xc9, 0xfc, 0xa0, 0xb0, 0x94, 0x81, 0xfc, 0xd1, 0x94,
  0x1b, 0x07, 0xe3, 0xf6, 0x09, 0x1e, 0xf4, 0xdc, 0x20, 0xde, 0xde, 0xec,
  0xd8, 0xfb, 0x22, 0xff, 0xf2, 0xd9, 0x95, 0xda, 0xee, 0xca, 0xa8, 0xb7,
  0x89, 0xbb, 0x98, 0xdd, 0xb1, 0xe2, 0xaf, 0xd9, 0xaa, 0x9d, 0xc2, 0x98,
  0xe0, 0xea, 0xce, 0xc0, 0xe6, 0x9e, 0x9b, 0x90, 0x99, 0x1c, 0xac, 0x9f,
  0x90, 0xbf, 0xad, 0x97, 0xdd, 0x0a, 0xa5, 0xcf, 0x9d, 0xb2, 0x97, 0x85,
  0xb5, 0x9b, 0xa6, 0xb9, 0xd0, 0xbd, 0x85, 0xae, 0xca, 0xbe, 0xb4, 0x81,
  0x16, 0xc9, 0xaa, 0xb7, 0xce, 0xaa, 0xc8, 0x8b, 0xda, 0x8f, 0xcf, 0xa5,
  0xde, 0x0e, 0xd1, 0xc3, 0x10, 0xa9, 0x8c, 0xaa, 0xc6, 0x16, 0x8d, 0xd4,
  0xbb, 0xba, 0x97, 0x91, 0xbe, 0xeb, 0xb4, 0xa4, 0x21, 0xba, 0xbd, 0xb7,
  0xb0, 0xf1, 0xb7, 0xa7, 0xc2, 0xb1, 0xb5, 0x97, 0xae, 0x20, 0xc5, 0xb4,
  0x66, 0x31, 0xbb, 0xae, 0xa7, 0x1f, 0x85, 0xbc, 0xc2, 0xca, 0xc9, 0x88,
  0xae, 0xe3, 0xc6, 0xc3, 0xdc, 0xb3, 0xb8, 0xbc, 0x9a, 0xd8, 0xa6, 0xa8,
  0xb2, 0xaf, 0xa5, 0x8c, 0xaa, 0xec, 0xc2, 0x95, 0xfe, 0xeb, 0x9c, 0xad,
  0xc4, 0xd9, 0xba, 0xb5, 0xec, 0x25, 0xdb, 0x87, 0x23, 0x05, 0xde, 0xf0,
  0xb8, 0xba, 0x9f, 0xd2, 0xb5, 0x21, 0x8f, 0xc6, 0xb0, 0x1c, 0xe8, 0x97,
  0xe3, 0x07, 0xee, 0xe4, 0xc6, 0x94, 0xee, 0x05, 0xba, 0xbc, 0xf3, 0xd2,
  0xd6, 0x8c, 0xab, 0xa3, 0xdf, 0xf5, 0xc0, 0xb9, 0xff, 0xa9, 0xc8, 0xa8,
  0x9e, 0xec, 0xd2, 0xcd, 0x0e, 0xca, 0x99, 0xb7, 0xe7, 0x23, 0xcf, 0xa6,
  0xfc, 0x92, 0xc2, 0xb9, 0xb2, 0x14, 0x83, 0x9c, 0x1f, 0xa6, 0x8f, 0xab,
  0x20, 0xe9, 0xd7, 0xad, 0x0d, 0xc1, 0xd1, 0x41, 0xdb, 0x01, 0xcd, 0xa9,
  0xdb, 0xb5, 0x89, 0xb8, 0xff, 0x21, 0xb6, 0xba, 0xe1, 0xbe, 0xa8, 0xfe,
  0xd9, 0x10, 0xaf, 0xc9, 0xb2, 0x54, 0x29, 0xc9, 0xe5, 0xf3, 0x55, 0x53,
  0xa9, 0xa7, 0x2a, 0x09, 0xa3, 0x25, 0x24, 0xb0, 0xd9, 0xc3, 0xc6, 0xb2,
  0x01, 0x24, 0x94, 0x9f, 0x9b, 0xc4, 0xd3, 0xa8, 0xa1, 0x88, 0xb1, 0x9f,
  0xb5, 0xbb, 0xb4, 0x98, 0xbf, 0xdf, 0xb1, 0x85, 0xa5, 0xcb, 0x84, 0xc8,
  0xc6, 0x0d, 0xa4, 0xc9, 0xb8, 0x08, 0xcf, 0xc5, 0x27, 0x0f, 0xa9, 0xcb,
  0x50, 0xba, 0x1b, 0xfe, 0xde, 0x27, 0xd6, 0x12, 0xc3, 0x62, 0xbb, 0xf3,
  0x1e, 0xa0, 0x95, 0xa0, 0xb6, 0xcf, 0xce, 0x14, 0xc4, 0xb7, 0xc2, 0xbf,
  0xc6, 0x89, 0x8a, 0xc4, 0xef, 0xff, 0xca, 0xc1, 0xb6, 0xa4, 0x9a, 0xe0,
  0xe8, 0x13, 0xa0, 0xcb, 0x51, 0xce, 0x9a, 0xa1, 0xf6, 0xec, 0xbd, 0x90,
  0xb4, 0xc8, 0xb7, 0xc5, 0x93, 0xde, 0xb4, 0xc3, 0xd0, 0xc7, 0xce, 0x9c,
  0xba, 0xc8, 0xab, 0xa5, 0xe2, 0xa6, 0xcc, 0xb5, 0xbb, 0xd4, 0x8f, 0x83,
  0x1c, 0xe7, 0xf5, 0xf4, 0x1c, 0xe2, 0x08, 0xed, 0xec, 0xec, 0xf9, 0x11,
  0xeb, 0x03, 0x15, 0x05, 0xc8, 0x94, 0xab, 0x92, 0xc2, 0xeb, 0xb4, 0x83,
  0xc6, 0xac, 0xc6, 0xbf, 0xb9, 0xe1, 0x97, 0xbe, 0x38, 0xcb, 0x44, 0xe0,
  0x0a, 0xff, 0xc7, 0x29, 0xe3, 0xcd, 0x44, 0x43, 0xa6, 0xe9, 0xba, 0x12,
  0xf6, 0x10, 0xe6, 0xf1, 0xea, 0x13, 0xeb, 0x11, 0xef, 0xf5, 0xdc, 0xf9,
  0xf7, 0xf1, 0x21, 0xfd, 0xd7, 0xba, 0xc9, 0xa5, 0xca, 0xea, 0x86, 0xc9,
  0x06, 0xd2, 0xa0, 0xce, 0x94, 0x25, 0xa2, 0xae, 0x91, 0xf2, 0xfd, 0x98,
  0x18, 0x15, 0x02, 0xee, 0xcb, 0xa2, 0xe4, 0xf1, 0x8e, 0xc1, 0x22, 0xae,
  0x02, 0x36, 0x30, 0xb5, 0xda, 0xf2, 0x2d, 0xed, 0x95, 0x8c, 0x47, 0x06,
  0x99, 0x39, 0xfe, 0xc8, 0x1c, 0xe0, 0xd9, 0xdc, 0x16, 0x07, 0xfb, 0xee,
  0x16, 0xdb, 0xee, 0xe4, 0xfd, 0x01, 0xfd, 0xe3, 0xcb, 0x9a, 0xae, 0xb8,
  0xd4, 0x25, 0xc1, 0xcb, 0xdc, 0xd0, 0x8b, 0xc9, 0xbe, 0xfb, 0xb1, 0xac,
  0x1b, 0xef, 0xdf, 0xdd, 0xf6, 0x0a, 0xeb, 0xb2, 0xe0, 0xca, 0xc1, 0xf9,
  0xe3, 0x0d, 0xc6, 0x20, 0xda, 0xc5, 0xa7, 0x9d, 0xc0, 0xd9, 0xce, 0xc1,
  0xdc, 0xba, 0xc8, 0xc5, 0x90, 0x1e, 0x9e, 0xc6, 0xe7, 0xeb, 0xd8, 0xd5,
  0xe1, 0x1f, 0xe0, 0x09, 0x0d, 0xe1, 0x06, 0xe1, 0x0c, 0xd0, 0xdf, 0xe5,
  0xae, 0x61, 0x6a, 0xb7, 0x0e, 0x1a, 0x32, 0x65, 0xbf, 0xa0, 0x5f, 0x41,
  0xab, 0x29, 0x30, 0xcd, 0xe2, 0xc1, 0xa0, 0xbf, 0x10, 0xeb, 0xc6, 0xaf,
  0xe8, 0xc1, 0xba, 0xca, 0xa9, 0xe4, 0x97, 0x86, 0x94, 0xcd, 0xb9, 0x90,
  0xe1, 0x02, 0xc1, 0xc4, 0xf5, 0xb7, 0xc1, 0xcd, 0x82, 0x17, 0x82, 0xc7,
  0xd2, 0xa5, 0xb9, 0x8c, 0xd7, 0xb5, 0xa7, 0xc0, 0x00, 0xb5, 0x8e, 0x8d,
  0xc9, 0x0a, 0xb8, 0xbc, 0xd9, 0xba, 0x94, 0x93, 0xc6, 0xfd, 0xc8, 0xc0,
  0xcb, 0xbc, 0xad, 0xa6, 0xc5, 0x25, 0x9c, 0xab, 0x19, 0xc9, 0xa8, 0x1d,
  0xe9, 0xec, 0x8c, 0xa8, 0x53, 0xbd, 0xcb, 0xad, 0xc0, 0xf7, 0xd6, 0x2b,
  0xd6, 0xd7, 0x8a, 0x87, 0x27, 0xea, 0xb0, 0xbd, 0xd0, 0xc9, 0xb3, 0x12,
  0xae, 0xd6, 0xb6, 0xa5, 0xef, 0xa7, 0xb9, 0xbc, 0xfc, 0xe1, 0xa0, 0xa0,
  0x00, 0xbb, 0xb4, 0xd1, 0x95, 0x14, 0xb6, 0xa8, 0xf7, 0x25, 0xdf, 0xb1,
  0x11, 0x0b, 0xf1, 0xe9, 0xce, 0xa6, 0x02, 0xf5, 0xb9, 0xfe, 0x06, 0xc3,
  0x19, 0xc2, 0xb9, 0x39, 0x1f, 0xb4, 0x03, 0x8d, 0x29, 0x5f, 0xbe, 0xfa,
  0xd5, 0xfe, 0xcf, 0x1b, 0xba, 0xe4, 0xef, 0xc2, 0xe6, 0x25, 0xf6, 0xe9,
  0xb5, 0x92, 0xfe, 0x01, 0xcc, 0xd2, 0xd8, 0xd4, 0x17, 0xe4, 0xac, 0x9b,
  0x19, 0xe6, 0xea, 0xc1, 0xc6, 0xc3, 0xcb, 0x1d, 0xd8, 0x1f, 0x9b, 0xc1,
  0xc2, 0xab, 0xc2, 0x93, 0xda, 0xc0, 0xa6, 0xb5, 0x10, 0xcc, 0xc4, 0x87,
  0xce, 0xc0, 0x8a, 0x9b, 0x1d, 0xed, 0xd8, 0xd1, 0xf5, 0x10, 0xe2, 0xe8,
  0xbb, 0xb3, 0xe2, 0x11, 0x18, 0x10, 0xbc, 0xe3, 0xd0, 0xb0, 0xba, 0xbc,
  0xd7, 0xee, 0xbc, 0xc5, 0x19, 0x9b, 0x95, 0x9f, 0xb4, 0xf3, 0xa4, 0xa3,
  0xe1, 0x86, 0xb3, 0x9f, 0xc8, 0xa5, 0xb4, 0xce, 0xd8, 0x89, 0xbc, 0xb3,
  0xb3, 0xf2, 0xbd, 0xd4, 0xcf, 0x98, 0xa3, 0xa7, 0xfb, 0xb3, 0xbb, 0xb1,
  0xdb, 0xc0, 0xc2, 0xb3, 0xa0, 0xd3, 0xc7, 0xb5, 0x0a, 0x94, 0xb3, 0xa7,
  0xbf, 0x3c, 0xb1, 0xcb, 0xc6, 0xb8, 0x9b, 0xcd, 0xbf, 0x2c, 0x9d, 0xc4,
  0xd7, 0x95, 0x9a, 0xce, 0xa2, 0xba, 0xcc, 0xd0, 0xc2, 0xb4, 0x90, 0xca,
  0xbd, 0xd3, 0xa9, 0x8b, 0xa5, 0x9e, 0x9f, 0xc3, 0xed, 0xd3, 0x97, 0xbb,
  0x25, 0xc3, 0x90, 0xb6, 0xc9, 0xfd, 0xc1, 0xbb, 0x00, 0xd9, 0xee, 0x9e,
  0x03, 0x09, 0xff, 0x12, 0xe2, 0xfa, 0xdb, 0xd8, 0x27, 0x70, 0xe0, 0xf2,
  0xb5, 0x59, 0xf2, 0xc6, 0x02, 0xf4, 0x2b, 0xd2, 0xcd, 0xbb, 0xb8, 0xad,
  0x82, 0x3d, 0x51, 0xc6, 0xfe, 0xdb, 0x1d, 0xfa, 0x12, 0x25, 0xe9, 0xe9,
  0x03, 0xeb, 0x01, 0x1e, 0xe3, 0xfc, 0x01, 0xff, 0xb4, 0xc9, 0x8f, 0xb4,
  0xe1, 0x14, 0xba, 0xc8, 0xcd, 0xb7, 0xa6, 0xab, 0xce, 0xe1, 0xcb, 0xb0,
  0x95, 0x3b, 0x44, 0xd7, 0xff, 0xe1, 0x5a, 0x4b, 0xa4, 0xb7, 0x51, 0xf7,
  0x90, 0x3d, 0x25, 0xda, 0x00, 0x00, 0x00, 0x00, 0xc6, 0xd4, 0xff, 0xff,
  0x04, 0x00, 0x00, 0x00, 0x00, 0x02, 0x00, 0x00, 0x08, 0x1a, 0x41, 0xbf,
  0x78, 0x89, 0x0e, 0xbf, 0xa7, 0xfe, 0x2b, 0xbf, 0x17, 0x76, 0x3a, 0xbf,
  0x8c, 0x61, 0x34, 0xbe, 0xe4, 0x49, 0x24, 0xbd, 0xc3, 0x4f, 0xec, 0xbd,
  0x0e, 0x57, 0x13, 0xbf, 0xd6, 0x53, 0xb1, 0xbe, 0x37, 0x0c, 0x5f, 0xbf,
  0x05, 0x70, 0xa3, 0xbe, 0x58, 0x81, 0x2b, 0xbf, 0x03, 0x95, 0x52, 0xbf,
  0x7c, 0x68, 0xe2, 0xbe, 0x40, 0xb3, 0x4f, 0xbf, 0x3c, 0xc7, 0x89, 0xbe,
  0x11, 0xe0, 0x06, 0xbf, 0x91, 0x4f, 0x36, 0xbf, 0x47, 0xab, 0x49, 0xbe,
  0x14, 0xb1, 0x33, 0xbf, 0x44, 0x97, 0x59, 0xbe, 0x18, 0x56, 0x01, 0xbe,
  0x93, 0x56, 0x5b, 0x3e, 0x04, 0xb1, 0xd8, 0xbd, 0xeb, 0xa3, 0x53, 0x3f,
  0xe3, 0x6e, 0x0d, 0xbf, 0xaf, 0xd4, 0x69, 0x3f, 0x7e, 0x51, 0xc6, 0x3d,
  0xcf, 0x5c, 0x2a, 0x3f, 0x6a, 0x09, 0x36, 0xbf, 0x27, 0x29, 0x43, 0x3f,
  0x38, 0x11, 0x52, 0x3f, 0x60, 0xcc, 0x42, 0xbe, 0x38, 0x9a, 0xe2, 0xbe,
  0xe4, 0x12, 0xf3, 0x3e, 0xcc, 0x29, 0x0d, 0xbf, 0x2e, 0x66, 0xe3, 0xbe,
  0xac, 0x67, 0x9d, 0x3e, 0x49, 0x32, 0xd1, 0xbe, 0x97, 0x95, 0x11, 0xbf,
  0xf8, 0x11, 0x76, 0xbe, 0x36, 0x1a, 0x16, 0xbf, 0x72, 0x40, 0x3e, 0x3d,
  0x77, 0xf7, 0xb6, 0x3c, 0x00, 0xd5, 0xf5, 0x3b, 0x00, 0x0f, 0x48, 0xbd,
  0x68, 0x92, 0x59, 0x3e, 0x11, 0xb2, 0x2a, 0xbf, 0x24, 0x04, 0x14, 0xbe,
  0xbc, 0x48, 0x64, 0xbf, 0xec, 0x40, 0xe0, 0xbe, 0xff, 0x36, 0x5e, 0xbf,
  0xa8, 0xce, 0x44, 0xbf, 0x8c, 0x86, 0xe3, 0xbe, 0x56, 0x1c, 0x60, 0xbe,
  0xa6, 0xbb, 0x11, 0xbe, 0xf5, 0x14, 0x34, 0xbf, 0x46, 0x43, 0x6c, 0xbf,
  0x2f, 0x6d, 0x7a, 0xbf, 0xab, 0x1d, 0x8c, 0xbe, 0xd1, 0x0f, 0xb1, 0xbe,
  0x50, 0x03, 0x69, 0xbe, 0x54, 0xa2, 0x84, 0xbf, 0x94, 0x12, 0x45, 0xbe,
  0x20, 0xd5, 0xc9, 0xbe, 0xa0, 0xde, 0xbe, 0xbe, 0x30, 0xea, 0xae, 0xbe,
  0x48, 0x44, 0xe0, 0xbe, 0x80, 0x95, 0xf6, 0x3c, 0x85, 0x12, 0x10, 0xbf,
  0xc9, 0x53, 0x1f, 0xbe, 0xc8, 0x2b, 0xeb, 0xbe, 0xe3, 0x89, 0xc8, 0xbe,
  0x51, 0x50, 0xca, 0xbe, 0x05, 0xed, 0xac, 0xbe, 0x15, 0xb0, 0x0e, 0xbe,
  0x30, 0xc0, 0x87, 0xbe, 0xd1, 0x70, 0xff, 0xbe, 0x11, 0x60, 0xb4, 0xbe,
  0x8c, 0xe4, 0x67, 0xbf, 0xc9, 0x75, 0x2c, 0xbf, 0x33, 0x55, 0xd9, 0xbe,
  0xf9, 0x1c, 0x5f, 0xbe, 0xde, 0xe2, 0xf7, 0xbe, 0x98, 0xc5, 0x26, 0xbf,
  0x00, 0x17, 0xaf, 0x3b, 0xea, 0x3b, 0xac, 0xbd, 0xa0, 0xc2, 0x87, 0xbe,
  0x44, 0xea, 0x6e, 0xbf, 0x3c, 0x2c, 0x52, 0xbf, 0x2c, 0x3b, 0xc1, 0xbe,
  0xc8, 0x74, 0x59, 0xbf, 0xf7, 0x0f, 0x5b, 0xbf, 0x84, 0x10, 0x91, 0xbe,
  0xbb, 0xf6, 0x1a, 0xbf, 0xab, 0xe4, 0x40, 0xbe, 0x18, 0xa7, 0x10, 0xbf,
  0x2a, 0xa5, 0xa0, 0xbe, 0x37, 0xe1, 0x4c, 0xbf, 0x86, 0x85, 0xf2, 0xbe,
  0x79, 0x69, 0x77, 0xbb, 0xa0, 0xa5, 0xaf, 0xbe, 0xe2, 0x94, 0x2c, 0xbf,
  0x3e, 0x08, 0xed, 0xbd, 0x58, 0xdc, 0x92, 0xbe, 0x65, 0xc7, 0x57, 0xbf,
  0x66, 0xf0, 0x60, 0x3d, 0x5f, 0x76, 0x66, 0x3f, 0x1c, 0xc0, 0xf2, 0xbe,
  0xfa, 0x66, 0xa4, 0xbe, 0x2c, 0x76, 0x8e, 0xbe, 0x59, 0x78, 0x56, 0x3e,
  0xf9, 0x16, 0x3e, 0x3f, 0x25, 0x7c, 0x58, 0xbf, 0xd3, 0x25, 0x53, 0xbd,
  0x60, 0x76, 0x66, 0xbe, 0x1e, 0xef, 0x5f, 0x3e, 0x00, 0xa4, 0xfd, 0xbb,
  0x9c, 0xb8, 0xab, 0xbe, 0x61, 0x95, 0xb5, 0x3e, 0xbf, 0xd0, 0x08, 0xbf,
  0x6f, 0x63, 0x63, 0xbe, 0x24, 0x5c, 0x4f, 0xbe, 0x02, 0x76, 0x83, 0xbf,
  0xb3, 0x30, 0x05, 0xbe, 0xb9, 0x6b, 0x47, 0xbe, 0x08, 0x99, 0x5f, 0xbf,
  0xea, 0x4b, 0xf1, 0xbe, 0x00, 0x00, 0x00, 0x00, 0xd6, 0xd6, 0xff, 0xff,
  0x04, 0x00, 0x00, 0x00, 0x00, 0x02, 0x00, 0x00, 0x28, 0x46, 0x89, 0xbe,
  0x3e, 0x7e, 0x18, 0xbf, 0x40, 0xcc, 0xd8, 0xbe, 0xe3, 0x5a, 0x2f, 0xbe,
  0x2c, 0xc3, 0x5d, 0xbf, 0xd0, 0x90, 0xb1, 0xbe, 0xfd, 0x03, 0x5c, 0xbf,
  0x8e, 0xe9, 0xd9, 0xbd, 0xc0, 0x42, 0x6c, 0xbe, 0x1a, 0xcf, 0x27, 0xbf,
  0x8f, 0x6a, 0x3f, 0xbf, 0x56, 0x56, 0x2b, 0xbf, 0x01, 0xcd, 0x8a, 0xbf,
  0x47, 0xcd, 0x16, 0xbf, 0x18, 0xdf, 0xe1, 0xbe, 0xbd, 0xd5, 0x49, 0xbf,
  0xd9, 0x62, 0xda, 0x3d, 0x3b, 0xb6, 0x43, 0xbe, 0xe1, 0x10, 0xf9, 0xbe,
  0xe1, 0x0e, 0x8b, 0x3e, 0x1d, 0xe0, 0xbe, 0xbe, 0x3b, 0x02, 0x19, 0xbf,
  0x26, 0xfd, 0x60, 0xbe, 0x92, 0x6e, 0xf7, 0xbe, 0xf5, 0xce, 0x1e, 0xbe,
  0xbb, 0x52, 0x67, 0xbf, 0xda, 0x79, 0x56, 0xbe, 0x62, 0x73, 0x81, 0x3d,
  0xe6, 0x9d, 0x2a, 0x3f, 0x9b, 0x17, 0x7f, 0x3f, 0x83, 0xbe, 0x34, 0xbf,
  0x20, 0x27, 0x93, 0xbe, 0xe9, 0x69, 0x48, 0xbf, 0x5d, 0x79, 0x76, 0x3e,
  0xc3, 0xfa, 0x1d, 0xbf, 0xc3, 0x4a, 0x64, 0xbf, 0xe9, 0xec, 0x10, 0xbf,
  0x37, 0x5b, 0x76, 0xbd, 0x36, 0xb4, 0x19, 0xbf, 0x87, 0xde, 0x24, 0xbf,
  0xec, 0xd2, 0xf7, 0xbe, 0x31, 0x3c, 0x34, 0xbf, 0xa0, 0xf3, 0x54, 0xbe,
  0xc0, 0x54, 0x17, 0x3d, 0x9b, 0x4f, 0x4a, 0xbf, 0x2a, 0xe4, 0x23, 0xbf,
  0xc0, 0xc0, 0xad, 0xbe, 0x40, 0x2e, 0xe2, 0xbd, 0x37, 0x97, 0x29, 0xbf,
  0x65, 0x72, 0x33, 0xbf, 0xc3, 0xd6, 0x3f, 0xbf, 0xc7, 0x2b, 0x5c, 0xbf,
  0x21, 0xce, 0x45, 0xbf, 0x02, 0xc6, 0x25, 0xbf, 0x43, 0xc4, 0x12, 0xbf,
  0x4a, 0x8c, 0x79, 0xbe, 0xb5, 0x46, 0x28, 0xbe, 0xd3, 0xd3, 0x41, 0xbe,
  0x1a, 0x95, 0x06, 0xbf, 0xa1, 0x35, 0x20, 0x3f, 0x5a, 0xe0, 0xb2, 0xbe,
  0x64, 0xac, 0x11, 0xbf, 0xc0, 0xd7, 0xda, 0xbe, 0x78, 0x55, 0xfd, 0x3e,
  0x1d, 0x12, 0x79, 0xbe, 0xe6, 0xdf, 0x27, 0xbe, 0x24, 0xd4, 0x12, 0xbf,
  0x9b, 0x23, 0x0c, 0xbf, 0xeb, 0xad, 0x3d, 0xbf, 0x0a, 0x03, 0x36, 0xbd,
  0x7c, 0x19, 0xd9, 0xbe, 0xbd, 0x4d, 0xe8, 0xbe, 0x15, 0xe2, 0x62, 0x3f,
  0x7b, 0x42, 0x05, 0x3f, 0x2d, 0x2e, 0x74, 0xbf, 0x00, 0xb7, 0x45, 0xbf,
  0xe4, 0x79, 0x3b, 0xbf, 0xa4, 0x7f, 0x7c, 0xbf, 0x20, 0x93, 0xdf, 0xbd,
  0xe4, 0xe3, 0x99, 0xbe, 0x48, 0xba, 0xd5, 0xbe, 0x08, 0x97, 0x3e, 0x3e,
  0x1b, 0x90, 0x1d, 0xbf, 0x00, 0x56, 0x51, 0xbc, 0xd7, 0xe5, 0x03, 0xbf,
  0x40, 0x2d, 0x32, 0x3e, 0xfc, 0xa1, 0x38, 0xbe, 0x30, 0x18, 0x92, 0xbd,
  0x64, 0xe7, 0x00, 0xbe, 0x90, 0x03, 0x0b, 0x3e, 0x04, 0xa9, 0xda, 0xbe,
  0x00, 0x60, 0xe1, 0xbb, 0x28, 0xbd, 0xaf, 0xbe, 0xe0, 0x3f, 0xd7, 0xbd,
  0xe8, 0xfa, 0xb9, 0xbe, 0x60, 0x06, 0x34, 0xbd, 0x15, 0x4e, 0x5b, 0xbf,
  0xff, 0x34, 0xd3, 0xbe, 0xb8, 0x58, 0x4b, 0xbf, 0xfc, 0x1c, 0xd3, 0xbe,
  0x03, 0x5d, 0x4a, 0xbf, 0x7b, 0xc2, 0x52, 0xbf, 0x5d, 0xef, 0x69, 0xbf,
  0x46, 0x4e, 0x25, 0xbe, 0xa8, 0x4b, 0x8c, 0x3e, 0x78, 0x50, 0x7c, 0xbe,
  0x18, 0x01, 0xc3, 0xbe, 0xb0, 0x2a, 0x7c, 0xbe, 0xee, 0x06, 0xc5, 0xbe,
  0x46, 0x3d, 0x2a, 0xbf, 0x9a, 0x4a, 0xeb, 0xbe, 0x68, 0x72, 0x8a, 0x3e,
  0x0d, 0x0d, 0xd9, 0xbe, 0xdb, 0x53, 0xe3, 0x3e, 0x70, 0x37, 0x8c, 0xbf,
  0xee, 0x32, 0xaa, 0xbe, 0x88, 0xb1, 0x10, 0xbf, 0x02, 0xfc, 0xfe, 0xbe,
  0x48, 0x7b, 0x77, 0xbf, 0xa7, 0x5d, 0x06, 0xbf, 0x61, 0x0e, 0x83, 0xbf,
  0x00, 0x47, 0xd3, 0xbe, 0x74, 0xd0, 0x63, 0xbf, 0xb4, 0x21, 0xfa, 0xbe,
  0x03, 0xee, 0xe2, 0xbd, 0xe0, 0x17, 0xc5, 0xbe, 0xaf, 0xc8, 0x52, 0xbf,
  0xee, 0x06, 0xa9, 0xbd, 0x00, 0x00, 0x00, 0x00, 0xe6, 0xd8, 0xff, 0xff,
  0x04, 0x00, 0x00, 0x00, 0x00, 0x04, 0x00, 0x00, 0xe9, 0x1c, 0xd9, 0xd0,
  0x1a, 0xdc, 0xe3, 0xea, 0x31, 0xe6, 0xd1, 0xe5, 0xe8, 0xe4, 0xe1, 0xff,
  0x2f, 0xdc, 0xd9, 0xf2, 0xfb, 0xd9, 0xea, 0xd0, 0xd6, 0x2a, 0xe4, 0xd7,
  0xd4, 0xfc, 0xd5, 0xe1, 0x18, 0xe7, 0xea, 0xd1, 0xd0, 0xec, 0x0b, 0xd6,
  0x1d, 0xd7, 0xd8, 0xcf, 0xe8, 0x1d, 0xe5, 0xda, 0x0e, 0x15, 0xe0, 0x19,
  0xe8, 0xe2, 0xf8, 0xfd, 0x1d, 0xe8, 0xca, 0x29, 0x23, 0xcd, 0xe6, 0xea,
  0xdc, 0xf1, 0xee, 0xef, 0xf2, 0xd0, 0xf5, 0xd2, 0x0b, 0xf7, 0xf2, 0x01,
  0xf7, 0x0d, 0xd6, 0xf9, 0xe9, 0x0b, 0xdd, 0x0e, 0xef, 0xd5, 0xfc, 0xf0,
  0xdb, 0xdf, 0xd0, 0xda, 0xf9, 0x0f, 0xe4, 0xf6, 0xfd, 0xfd, 0xeb, 0xeb,
  0xef, 0x08, 0xe9, 0xe5, 0xde, 0xe5, 0x10, 0x03, 0xf2, 0xdf, 0xfc, 0xce,
  0xeb, 0xe9, 0xf3, 0xe0, 0xd7, 0xf8, 0x09, 0xf4, 0xe0, 0xe1, 0xe8, 0xea,
  0xf2, 0xfb, 0x07, 0xfa, 0x20, 0x33, 0x1e, 0x28, 0x17, 0x18, 0x15, 0x16,
  0xdc, 0x15, 0x1d, 0x1f, 0x1a, 0xe5, 0x1d, 0x21, 0x1b, 0x10, 0x2e, 0xed,
  0x23, 0x2e, 0x0c, 0x27, 0x20, 0xfd, 0x26, 0x1e, 0x19, 0xff, 0x2b, 0x28,
  0xe7, 0x2b, 0x26, 0x21, 0x1d, 0x23, 0x16, 0x0e, 0x0e, 0x0d, 0x1f, 0x16,
  0x26, 0x32, 0x22, 0x29, 0x21, 0x30, 0x19, 0x1b, 0x16, 0x2f, 0x2c, 0x2a,
  0x07, 0x20, 0xf0, 0x17, 0x32, 0x2e, 0x24, 0x16, 0xe8, 0x20, 0xe1, 0xfb,
  0xd1, 0xdd, 0xdb, 0xdd, 0xce, 0xd8, 0xe6, 0xe3, 0xe7, 0xd0, 0xca, 0xec,
  0xf1, 0xcb, 0xe0, 0xec, 0xeb, 0xe4, 0x02, 0xe7, 0xd3, 0xde, 0xd4, 0xe3,
  0xeb, 0xf2, 0xe7, 0xe8, 0xfe, 0xe8, 0xe2, 0xe0, 0xe5, 0xe7, 0xde, 0xd6,
  0xff, 0xd4, 0xd8, 0xce, 0xdb, 0xe8, 0xe0, 0xe6, 0xd3, 0xe8, 0xda, 0xf2,
  0xd9, 0xcf, 0x00, 0xcc, 0xe0, 0xd3, 0xdd, 0xf1, 0xeb, 0xe8, 0xea, 0xea,
  0x35, 0x01, 0xef, 0x02, 0xd5, 0x21, 0x15, 0x1f, 0xe6, 0xe3, 0x1b, 0xe7,
  0xf0, 0xf4, 0xe6, 0x29, 0x25, 0xe6, 0xee, 0xd8, 0xff, 0xf4, 0xe1, 0xda,
  0x1c, 0xe8, 0x18, 0x1c, 0xfd, 0xf2, 0x08, 0xee, 0xda, 0xe7, 0x20, 0x2a,
  0xea, 0xdd, 0x32, 0xf6, 0xfc, 0x09, 0xf6, 0xf1, 0x18, 0x2f, 0x2d, 0x1b,
  0x18, 0x17, 0x33, 0xf5, 0x25, 0xfd, 0x0c, 0xe5, 0xe3, 0xee, 0x10, 0xf0,
  0x0f, 0xe8, 0x0f, 0x2a, 0x20, 0x16, 0xc3, 0xdf, 0xb3, 0xe8, 0xdc, 0xdd,
  0xd8, 0xd9, 0xce, 0xf5, 0x22, 0x06, 0xc8, 0xf0, 0x25, 0xf9, 0x87, 0xf8,
  0xfb, 0xce, 0xed, 0xe1, 0x1b, 0xef, 0xe6, 0xe4, 0x0a, 0x04, 0xcb, 0x81,
  0x00, 0xd1, 0xf5, 0xe1, 0xf9, 0xe0, 0xf3, 0xe8, 0xfb, 0x99, 0xf6, 0xf0,
  0xd7, 0xeb, 0xe2, 0x2c, 0xb9, 0xfd, 0xdb, 0x2c, 0xe5, 0xf7, 0x1a, 0xe2,
  0xac, 0xce, 0xe9, 0x33, 0xf9, 0x14, 0xe1, 0xe7, 0x31, 0x16, 0xe8, 0xfe,
  0xef, 0x31, 0x2b, 0x27, 0xd7, 0xec, 0x28, 0xdb, 0x2c, 0x2d, 0xe5, 0x2b,
  0x19, 0xf4, 0xff, 0xd7, 0xfe, 0xef, 0xea, 0xf2, 0x16, 0xd6, 0x29, 0x2b,
  0xf6, 0x0c, 0x15, 0xe3, 0xcf, 0x03, 0x1a, 0x22, 0x05, 0xfe, 0x20, 0xe8,
  0xf1, 0xd9, 0x1a, 0xe1, 0x15, 0x30, 0x22, 0x2d, 0x1a, 0x25, 0x1a, 0xf8,
  0x1d, 0x1f, 0x00, 0xd9, 0xd7, 0xe8, 0x1e, 0xfd, 0xf1, 0xf9, 0x1f, 0x27,
  0xcd, 0xfe, 0xda, 0x0f, 0xe6, 0xe2, 0xda, 0xdc, 0xd2, 0xdf, 0xda, 0xd0,
  0xcd, 0xf0, 0xe5, 0xcf, 0xe1, 0xed, 0xca, 0xe0, 0xdf, 0xcc, 0xf3, 0xd9,
  0xcd, 0xd2, 0xe9, 0xea, 0xe0, 0x05, 0xd5, 0xe0, 0xf2, 0xd4, 0xe3, 0xdd,
  0xd5, 0xec, 0xdf, 0xea, 0xe1, 0xd7, 0xf5, 0xd6, 0xdf, 0xd7, 0xdd, 0xce,
  0xe4, 0xeb, 0xd7, 0xde, 0xdb, 0xdf, 0xf4, 0xd6, 0xcc, 0xe3, 0xde, 0xec,
  0xe0, 0xd7, 0xd5, 0xd5, 0xf4, 0x15, 0xe4, 0x10, 0xce, 0x2d, 0x32, 0xf3,
  0xdc, 0xe4, 0x27, 0xd8, 0x2b, 0x1c, 0xdd, 0x08, 0x04, 0xdd, 0xdc, 0xe8,
  0x09, 0xe8, 0xd7, 0xde, 0x31, 0xe9, 0x16, 0x02, 0x1c, 0x10, 0x1b, 0xd3,
  0xe0, 0xf7, 0x33, 0x27, 0xe5, 0xe3, 0x12, 0xdd, 0xe9, 0xf1, 0x17, 0xe2,
  0x22, 0x1a, 0x2d, 0xf0, 0xe0, 0xf4, 0x25, 0xf8, 0x2c, 0x21, 0x0e, 0xd7,
  0xe3, 0xe1, 0x1e, 0x0e, 0xf6, 0xf0, 0x22, 0x17, 0xe9, 0xe8, 0xf4, 0x01,
  0xcc, 0xe3, 0xd0, 0xdd, 0x1f, 0xdf, 0xe9, 0xdf, 0xea, 0xf7, 0xe5, 0xeb,
  0xd1, 0xe4, 0xda, 0xe5, 0xd6, 0x0d, 0x04, 0xd0, 0xdc, 0xeb, 0xd2, 0xe4,
  0xe5, 0x01, 0xd0, 0xdc, 0xf7, 0xe6, 0xea, 0xdc, 0xd1, 0xd5, 0xe9, 0xe8,
  0xd8, 0xe8, 0xe0, 0xf9, 0xd0, 0xde, 0xdd, 0xd9, 0xe2, 0xe6, 0xd5, 0x0f,
  0xdf, 0xe4, 0x0c, 0xd3, 0xfb, 0xd1, 0xd0, 0xfc, 0xde, 0xe9, 0xd3, 0xe6,
  0x27, 0xd0, 0xf3, 0x1c, 0xec, 0x36, 0x2e, 0x2d, 0xd9, 0xf5, 0x17, 0xe8,
  0x1f, 0x15, 0xf1, 0x1c, 0xea, 0xfa, 0x03, 0xe5, 0x2d, 0x06, 0xe6, 0xfe,
  0x17, 0xeb, 0x2b, 0x15, 0x32, 0xf7, 0x15, 0x0c, 0xe6, 0x04, 0x18, 0x16,
  0x14, 0x09, 0xf0, 0xd8, 0xcf, 0xf5, 0x1f, 0x00, 0x33, 0x1b, 0x25, 0x26,
  0x26, 0x14, 0x31, 0xf1, 0x1c, 0x29, 0x09, 0xda, 0xf1, 0x19, 0x12, 0xfd,
  0x2d, 0xf8, 0x2d, 0x17, 0x15, 0x02, 0xe7, 0xf8, 0xe1, 0x2e, 0xd0, 0xe3,
  0xe9, 0xe9, 0x30, 0xe8, 0xf8, 0x11, 0xd8, 0xfa, 0x00, 0xd8, 0xdb, 0xe6,
  0xf9, 0xe7, 0xdf, 0xdc, 0x29, 0xcd, 0xdf, 0x1e, 0x01, 0xfe, 0xe6, 0xe3,
  0xe5, 0xed, 0xfe, 0x17, 0xde, 0xee, 0x06, 0xdc, 0xe8, 0xda, 0x00, 0xf6,
  0xe2, 0xf0, 0xff, 0x19, 0xdc, 0xfb, 0x12, 0x0d, 0xcd, 0x1f, 0x0d, 0xd3,
  0xd1, 0xc4, 0xe0, 0x03, 0x09, 0xd4, 0x2e, 0x26, 0xe4, 0xd8, 0xcd, 0xe4,
  0xd8, 0xe4, 0xe4, 0xdc, 0xe9, 0xd9, 0xea, 0xcd, 0xe7, 0xed, 0xd1, 0xfe,
  0xd4, 0xe1, 0xd6, 0xf8, 0x07, 0xd5, 0xd2, 0xcb, 0xe1, 0xd0, 0xe0, 0xca,
  0xd4, 0x03, 0xeb, 0xd6, 0xf3, 0xdf, 0xda, 0xe1, 0xe2, 0xd1, 0xed, 0xd2,
  0xf9, 0xeb, 0xe8, 0xe5, 0xe8, 0xe8, 0xe0, 0xeb, 0x07, 0xfd, 0xdc, 0xd8,
  0xe8, 0xec, 0xed, 0xeb, 0xcf, 0xd6, 0xd8, 0xea, 0xfb, 0xe9, 0xea, 0xd2,
  0xd9, 0xd6, 0xe4, 0xeb, 0xd7, 0xcd, 0xdb, 0xd7, 0xde, 0xe7, 0xe9, 0xd2,
  0xe9, 0xe4, 0xe8, 0x14, 0x15, 0xd5, 0xd5, 0x05, 0xf8, 0xd9, 0xee, 0xd2,
  0xcc, 0xd9, 0xea, 0xd0, 0xe8, 0xf4, 0xe1, 0xdd, 0xf3, 0xd8, 0xe6, 0xe2,
  0xe4, 0xd3, 0x1b, 0xdc, 0x1d, 0xcb, 0xd8, 0xec, 0xe3, 0xe5, 0xd5, 0xd8,
  0x1e, 0x2c, 0xeb, 0x1f, 0xcd, 0xd4, 0x0e, 0xf7, 0xea, 0xea, 0xdd, 0x15,
  0xe8, 0xd0, 0xd9, 0xd7, 0x17, 0x12, 0x2f, 0x32, 0x10, 0x2f, 0x19, 0x06,
  0x17, 0x2a, 0x2f, 0x2e, 0x35, 0x14, 0x18, 0x08, 0xf4, 0x2c, 0x26, 0x2e,
  0x09, 0x1d, 0x23, 0x3c, 0x34, 0x11, 0x2f, 0xf9, 0x10, 0xf7, 0x1b, 0x2a,
  0x1c, 0x24, 0x31, 0x1a, 0x2f, 0x20, 0x1e, 0x1c, 0x23, 0x22, 0x2f, 0x17,
  0x1a, 0x2d, 0x28, 0xf7, 0xf1, 0x08, 0x20, 0xf9, 0xef, 0x2f, 0xf2, 0x12,
  0x2d, 0x3b, 0x2c, 0xfa, 0xf7, 0x26, 0x1a, 0x18, 0xce, 0x07, 0x05, 0xf8,
  0xf6, 0xd2, 0xf5, 0x0a, 0x06, 0xfd, 0xd2, 0xe2, 0x01, 0x03, 0xd1, 0xec,
  0xfb, 0x10, 0xcc, 0xd2, 0xea, 0xcf, 0x0c, 0xe4, 0xd8, 0xe6, 0x00, 0xe2,
  0xe4, 0xf9, 0xdf, 0xe8, 0x09, 0xf5, 0xfc, 0x09, 0x11, 0xe8, 0x0e, 0xcf,
  0x09, 0xdf, 0xfe, 0xfb, 0x06, 0xff, 0xfb, 0xe7, 0xd9, 0xd3, 0xe8, 0xfb,
  0xe1, 0xf3, 0x06, 0xec, 0x10, 0xd1, 0xf3, 0xf2, 0xe9, 0xd9, 0xfb, 0xd0,
  0x00, 0x00, 0x00, 0x00, 0xf6, 0xdc, 0xff, 0xff, 0x04, 0x00, 0x00, 0x00,
  0x00, 0x20, 0x00, 0x00, 0xf8, 0x03, 0xfd, 0xe8, 0xd4, 0xe3, 0xdd, 0x08,
  0xf8, 0xe4, 0xe6, 0xf6, 0xee, 0xf5, 0xfa, 0x02, 0x0b, 0x0d, 0xdb, 0xda,
  0x2e, 0x20, 0xd7, 0xd3, 0xe0, 0xd9, 0xd4, 0xe4, 0xdc, 0xe5, 0xd8, 0xe3,
  0xda, 0xdb, 0xdf, 0xec, 0xef, 0xe3, 0xe3, 0xdc, 0xeb, 0x14, 0xe6, 0xd4,
  0xe9, 0xe8, 0xe2, 0xd4, 0xd7, 0xe6, 0xe6, 0xe4, 0xe6, 0xdf, 0xee, 0xea,
  0x00, 0xfc, 0xee, 0xeb, 0xea, 0xf1, 0xea, 0xf4, 0x01, 0xfe, 0xea, 0xfb,
  0xf9, 0x01, 0x01, 0xef, 0x06, 0x03, 0x07, 0x05, 0xf2, 0x08, 0xfe, 0x04,
  0xfc, 0x0a, 0x06, 0x00, 0x01, 0x00, 0xf8, 0x03, 0xff, 0xf8, 0x04, 0x09,
  0x09, 0x06, 0x06, 0xfd, 0x05, 0x0a, 0x04, 0xfc, 0xf7, 0x06, 0xf7, 0xf9,
  0x05, 0xf8, 0xf9, 0x04, 0x02, 0x08, 0xf6, 0xfa, 0x04, 0xfe, 0xfc, 0x09,
  0xfd, 0xf9, 0xf6, 0x06, 0xfa, 0x0a, 0x04, 0x00, 0x02, 0xfd, 0x05, 0x03,
  0xf9, 0xfd, 0x03, 0xf3, 0xdf, 0xe5, 0xe6, 0xf8, 0xe4, 0xd5, 0xe1, 0xff,
  0xf8, 0x02, 0xf3, 0xf7, 0xfa, 0xe8, 0xdd, 0x27, 0xdb, 0xd8, 0xde, 0xe4,
  0xd6, 0xe7, 0xe6, 0xe3, 0xdd, 0xd2, 0xdc, 0xe0, 0xe3, 0xd3, 0xe5, 0xf1,
  0xde, 0xda, 0x22, 0x15, 0x14, 0xdd, 0xd7, 0xdd, 0xeb, 0x19, 0xde, 0xd3,
  0xe3, 0x18, 0xf0, 0xdb, 0xd6, 0xe6, 0xef, 0xf3, 0xe7, 0xf2, 0xf4, 0x00,
  0xf2, 0xf2, 0xf9, 0x0b, 0x09, 0x05, 0xf4, 0xf7, 0xfa, 0xf2, 0xfa, 0xf6,
  0xf0, 0x08, 0xe9, 0xf1, 0x06, 0x05, 0x07, 0x02, 0xfc, 0xf9, 0xfe, 0x06,
  0x09, 0xf6, 0x00, 0xfc, 0xf9, 0xf8, 0xfd, 0x01, 0xf8, 0xf7, 0x0a, 0xf9,
  0xff, 0x03, 0xf9, 0xf8, 0x02, 0x0a, 0x04, 0xf5, 0xf8, 0xff, 0x02, 0x07,
  0x02, 0x07, 0xf8, 0x09, 0x01, 0x0a, 0xfd, 0xfc, 0x06, 0x03, 0xf6, 0x09,
  0xfd, 0x02, 0xf6, 0xfa, 0xf8, 0xf9, 0x03, 0x0a, 0xff, 0xfd, 0x0c, 0xe8,
  0xec, 0xff, 0x0f, 0xfd, 0xd5, 0xe7, 0xfd, 0xfd, 0x02, 0xc9, 0xb1, 0xda,
  0xe5, 0xc8, 0xec, 0x15, 0x17, 0xad, 0x9c, 0xbe, 0xf8, 0xef, 0x0c, 0x00,
  0x15, 0x13, 0x19, 0xde, 0xdc, 0xbd, 0xed, 0xe9, 0x95, 0xca, 0xff, 0x0c,
  0xea, 0xc2, 0xfd, 0x03, 0xfb, 0xce, 0xc0, 0x0c, 0x17, 0xf8, 0xcb, 0xeb,
  0x12, 0x12, 0xb7, 0xc5, 0xcd, 0xd1, 0xd1, 0xeb, 0x04, 0x0e, 0x13, 0xe4,
  0xd6, 0xdd, 0x08, 0xfa, 0xda, 0xd6, 0x02, 0x09, 0xed, 0xd5, 0xf6, 0xed,
  0xf9, 0xf3, 0xf4, 0x03, 0x03, 0xf8, 0xfe, 0xf5, 0xfc, 0xff, 0x06, 0x08,
  0x05, 0xf7, 0x07, 0x05, 0x03, 0x08, 0xf6, 0x04, 0xf6, 0xf6, 0x02, 0xfc,
  0x06, 0x0a, 0x09, 0x04, 0x06, 0x09, 0xfe, 0x04, 0x07, 0x05, 0x05, 0x00,
  0xfd, 0x02, 0x04, 0x03, 0x01, 0x00, 0xfa, 0xf6, 0x03, 0xfe, 0x08, 0xfa,
  0xfa, 0xfc, 0xf6, 0x09, 0x09, 0x07, 0xfa, 0xfa, 0xe5, 0xe9, 0xea, 0x0a,
  0x04, 0xe5, 0xf1, 0xf4, 0x01, 0xf7, 0x01, 0x03, 0x02, 0xfd, 0xef, 0xf0,
  0xdf, 0xfa, 0xed, 0xe8, 0xdc, 0xf4, 0xef, 0xf6, 0xde, 0xdf, 0xd9, 0xe6,
  0xe2, 0xf5, 0xf8, 0xfe, 0xf4, 0xec, 0xf1, 0xf1, 0xf2, 0xf5, 0xee, 0xe3,
  0xef, 0xf0, 0xf7, 0xe2, 0xf7, 0xff, 0xf7, 0xf0, 0xdf, 0xfe, 0x01, 0xf9,
  0x09, 0xfc, 0xfb, 0x04, 0xfa, 0x01, 0xf7, 0xff, 0xfa, 0xff, 0xff, 0xfb,
  0xf5, 0xfc, 0x01, 0xfb, 0xf9, 0xf7, 0x05, 0xf9, 0xf8, 0x00, 0xf8, 0xfc,
  0x0b, 0x06, 0xfd, 0x06, 0x02, 0x01, 0x00, 0x00, 0xfc, 0xfd, 0xf8, 0x09,
  0x0a, 0x05, 0xf6, 0x06, 0xfa, 0x00, 0x04, 0x03, 0xff, 0xf8, 0xfb, 0x08,
  0xf7, 0x05, 0x09, 0xfe, 0xfd, 0x04, 0xfb, 0xfe, 0xfd, 0x07, 0x05, 0x03,
  0xf6, 0x01, 0x08, 0x0a, 0x00, 0x01, 0xfe, 0xfb, 0xf7, 0x00, 0x09, 0x00,
  0xfa, 0xf8, 0x0c, 0x06, 0x0b, 0x12, 0x0e, 0x06, 0x07, 0x1c, 0x0a, 0x02,
  0x03, 0xfa, 0x05, 0x02, 0x0d, 0x0f, 0x18, 0x02, 0xf3, 0x08, 0x0b, 0x14,
  0x1e, 0x16, 0x1f, 0x17, 0x18, 0x19, 0x29, 0x21, 0x1e, 0x13, 0x0b, 0x01,
  0xd2, 0x1a, 0x15, 0x1d, 0x07, 0xe2, 0x0b, 0x0e, 0x26, 0x09, 0x18, 0x16,
  0x14, 0x09, 0x04, 0x11, 0x0e, 0x26, 0xff, 0xff, 0x01, 0x0b, 0xf5, 0xf6,
  0x00, 0x14, 0x1b, 0x02, 0x01, 0xf3, 0x07, 0x02, 0xfc, 0xf6, 0x01, 0x01,
  0x0a, 0x07, 0x0a, 0xff, 0x08, 0x02, 0xfc, 0xfa, 0xfa, 0xf9, 0xfa, 0x04,
  0xfa, 0x05, 0xfd, 0xfe, 0x07, 0xf6, 0xf7, 0xf6, 0x04, 0x09, 0xf9, 0xfe,
  0x07, 0x04, 0xfc, 0x0a, 0x08, 0xfd, 0xfa, 0x07, 0x06, 0xfb, 0x07, 0x06,
  0xfc, 0x07, 0xf8, 0x07, 0xfb, 0x0a, 0x0a, 0xfc, 0x04, 0xfc, 0xf7, 0xf6,
  0x02, 0x05, 0xf5, 0x0a, 0x0a, 0x00, 0x04, 0x07, 0xee, 0xf1, 0xfd, 0xfe,
  0xe8, 0xda, 0xe9, 0x09, 0xf3, 0xeb, 0xda, 0x03, 0x03, 0xea, 0xe9, 0xfe,
  0xf1, 0x17, 0xe4, 0xdf, 0xd9, 0xe1, 0xe2, 0xde, 0x27, 0x26, 0x1c, 0x2b,
  0x2e, 0x1f, 0x29, 0xe7, 0xe0, 0x1d, 0xdd, 0xe1, 0xe8, 0xd7, 0xd9, 0xea,
  0xe0, 0xd7, 0xde, 0x20, 0xed, 0xd4, 0xd3, 0x1f, 0xe5, 0xe6, 0xe6, 0xde,
  0xe7, 0xeb, 0xf5, 0xe7, 0xe5, 0x03, 0x00, 0xed, 0xff, 0xf9, 0xfb, 0xfc,
  0xe9, 0xf3, 0xfb, 0xfc, 0xfa, 0xf8, 0xfc, 0x0a, 0x08, 0xf7, 0xf5, 0xf3,
  0xfe, 0xfe, 0xfa, 0x02, 0xf8, 0xfa, 0xfd, 0x00, 0x05, 0x08, 0x01, 0xfd,
  0x06, 0x00, 0x09, 0x0a, 0xf6, 0x03, 0x05, 0x07, 0x05, 0x06, 0xff, 0xfd,
  0x07, 0x09, 0x0a, 0xf9, 0xfd, 0x06, 0x08, 0xfa, 0xfd, 0x05, 0x01, 0xf8,
  0xfc, 0x04, 0x09, 0x06, 0xff, 0xfe, 0x05, 0xf6, 0x09, 0x06, 0x07, 0x05,
  0x01, 0x07, 0x07, 0xf7, 0xf5, 0xef, 0xf9, 0xea, 0xe6, 0xe5, 0xe8, 0xf4,
  0xe5, 0xd4, 0xd6, 0xf5, 0xf5, 0xf4, 0xe5, 0xf9, 0xf3, 0xe4, 0xe1, 0xe3,
  0xde, 0xe5, 0xdc, 0xe6, 0xd3, 0xdb, 0xd7, 0xdb, 0xe4, 0xd3, 0xe5, 0xe4,
  0xdb, 0xdf, 0xe1, 0xe7, 0xed, 0xd6, 0xd3, 0xe8, 0xd9, 0xe5, 0xdd, 0xe1,
  0xe2, 0xd7, 0xde, 0xde, 0xe4, 0xdb, 0xe2, 0xd3, 0xdc, 0xda, 0xec, 0xed,
  0xdf, 0xf1, 0xf9, 0xf1, 0x01, 0xf2, 0xeb, 0xf0, 0xf6, 0xfd, 0xf4, 0x04,
  0xf5, 0x00, 0xf6, 0xf7, 0xfb, 0xfb, 0xfa, 0xf7, 0x01, 0xfe, 0xfc, 0xff,
  0x0a, 0xf5, 0x02, 0x04, 0xfc, 0xf7, 0x06, 0xf7, 0x03, 0xf7, 0x0a, 0x00,
  0x06, 0x00, 0x06, 0xfd, 0xfa, 0x00, 0x05, 0xf7, 0xf8, 0xff, 0x04, 0x0a,
  0xfe, 0x00, 0x01, 0x06, 0xf5, 0xfc, 0x05, 0x01, 0xf9, 0xfe, 0x00, 0x04,
  0x0a, 0xf7, 0x06, 0x00, 0xf9, 0x07, 0xff, 0xfa, 0x09, 0xf6, 0x0a, 0x06,
  0xfa, 0xee, 0xf6, 0xf2, 0xe4, 0xd2, 0xe6, 0x03, 0xf7, 0xd8, 0xd7, 0xf8,
  0xf4, 0xf2, 0xeb, 0xe6, 0xec, 0xea, 0xdd, 0xd9, 0xe5, 0xe0, 0xe2, 0xe2,
  0xd8, 0xe4, 0xe8, 0xdb, 0xd5, 0xe2, 0xe0, 0xda, 0xe6, 0xd5, 0xdd, 0xe1,
  0xef, 0xe8, 0xd4, 0xd9, 0xed, 0xdd, 0xe1, 0xe5, 0xe5, 0xd8, 0xea, 0xd3,
  0xeb, 0xec, 0xe7, 0xe7, 0xd6, 0xe0, 0xe9, 0xef, 0xf3, 0xf9, 0xfe, 0xf3,
  0xf0, 0x00, 0xf8, 0xf4, 0xf9, 0x00, 0xf6, 0x01, 0x06, 0xf9, 0xfa, 0xf8,
  0xf1, 0x08, 0x04, 0xfa, 0xf6, 0xf3, 0xf5, 0x08, 0xf5, 0x00, 0xf9, 0x04,
  0xf9, 0x07, 0xfb, 0x03, 0x01, 0xff, 0xf7, 0x02, 0xf7, 0x06, 0x08, 0xff,
  0x0a, 0x0a, 0x05, 0xf9, 0xff, 0xfb, 0x05, 0x07, 0xf9, 0xff, 0xff, 0x02,
  0x06, 0x03, 0x05, 0x05, 0xf7, 0xfb, 0xf8, 0x07, 0x09, 0x06, 0xf8, 0xfd,
  0x07, 0x02, 0x02, 0x07, 0xfb, 0xfd, 0x09, 0xf7, 0x03, 0xfc, 0x07, 0x08,
  0xf9, 0xf7, 0xfb, 0xfc, 0x0f, 0x02, 0xfb, 0x09, 0x05, 0x0c, 0x09, 0x07,
  0x0b, 0xfc, 0xd2, 0xe8, 0xee, 0xcd, 0x27, 0xfc, 0xf7, 0x0d, 0x0e, 0x1b,
  0xef, 0xf9, 0x11, 0x02, 0x29, 0x28, 0xf0, 0x15, 0x10, 0x10, 0xfe, 0x19,
  0x0c, 0x12, 0xe6, 0xff, 0xec, 0x19, 0x1a, 0xfd, 0xf4, 0xf5, 0x0f, 0xf8,
  0xf1, 0x18, 0x16, 0x1e, 0x01, 0x02, 0x12, 0x08, 0x0f, 0xfc, 0xf9, 0xf8,
  0x08, 0x08, 0x02, 0x00, 0x0f, 0x03, 0x04, 0x00, 0xf9, 0x00, 0xfc, 0x07,
  0x0b, 0xfc, 0xfd, 0x04, 0x04, 0x0a, 0xfa, 0xf6, 0x01, 0xf6, 0x06, 0xf7,
  0xfe, 0x0a, 0x03, 0x02, 0x08, 0xfc, 0xf9, 0xfd, 0xf9, 0x01, 0xf6, 0x09,
  0x02, 0x0a, 0xfa, 0x05, 0x07, 0xfd, 0xff, 0xf6, 0x09, 0xfa, 0xf9, 0xf8,
  0x00, 0xfe, 0x01, 0xfa, 0x03, 0xf7, 0xff, 0x02, 0x01, 0xf9, 0x04, 0xfd,
  0xf8, 0xfa, 0xfc, 0x07, 0xff, 0xfa, 0xf7, 0xea, 0xf3, 0xf7, 0xfe, 0xf4,
  0xf2, 0xf6, 0xf9, 0xf2, 0xf5, 0xfe, 0xe9, 0xf1, 0xf1, 0xf8, 0xf5, 0xf0,
  0xf4, 0xeb, 0xf1, 0xe9, 0xe6, 0xf7, 0x06, 0xf3, 0x08, 0xf6, 0xe9, 0xf0,
  0xfc, 0xe5, 0x08, 0xee, 0xe7, 0xf7, 0xed, 0x05, 0x03, 0x0d, 0x0f, 0x0d,
  0xef, 0xf9, 0xf1, 0xf9, 0xec, 0xef, 0xe4, 0xf2, 0xfa, 0xea, 0xe9, 0xfa,
  0xf8, 0xec, 0xf9, 0xfb, 0xf5, 0xfa, 0x02, 0xf3, 0xfc, 0x00, 0x02, 0xfc,
  0x08, 0xf9, 0xf3, 0xfc, 0xf7, 0x05, 0xfa, 0xf9, 0xf9, 0x07, 0xfe, 0xf4,
  0xfc, 0xf8, 0x05, 0xfc, 0x05, 0xfc, 0xf9, 0x0a, 0xff, 0xfd, 0x0b, 0xf6,
  0x09, 0x09, 0xfd, 0x08, 0xf8, 0x09, 0xff, 0x0a, 0xf7, 0x05, 0xfa, 0x07,
  0xfb, 0xfd, 0x02, 0x04, 0x0a, 0xf9, 0x03, 0x09, 0xfc, 0x05, 0x04, 0xf8,
  0xff, 0xfe, 0xf7, 0x04, 0xfd, 0xfd, 0xf5, 0x08, 0x08, 0x01, 0x00, 0x07,
  0xe6, 0xe9, 0xec, 0xda, 0xd4, 0xd2, 0xda, 0xec, 0xe1, 0xe1, 0xda, 0xe2,
  0xf7, 0xdd, 0xe2, 0xe8, 0xd9, 0xdf, 0xd8, 0xd3, 0xd5, 0xe0, 0xe5, 0xd7,
  0xe2, 0xdf, 0xe3, 0xde, 0xe4, 0xe3, 0xe6, 0xe3, 0xe2, 0xd4, 0xd7, 0xdb,
  0xdb, 0xdc, 0xe1, 0xd5, 0xd6, 0xe6, 0xe4, 0xd3, 0xe5, 0xd8, 0xda, 0xdd,
  0xe0, 0xdd, 0xdb, 0xd9, 0xd7, 0xd6, 0xe7, 0xea, 0xdc, 0xde, 0xe7, 0xe4,
  0xdf, 0xe2, 0xe5, 0xe5, 0xef, 0xeb, 0xef, 0xf9, 0xeb, 0xe4, 0xe4, 0xe6,
  0xe4, 0xe3, 0xf0, 0xf4, 0xec, 0xf5, 0xfa, 0x00, 0x07, 0x04, 0xf5, 0xfa,
  0x02, 0x04, 0x05, 0xf6, 0xf7, 0xf6, 0xf5, 0x01, 0x08, 0xfb, 0xfa, 0xfa,
  0x0a, 0x04, 0x00, 0x0a, 0x09, 0x08, 0xf8, 0x07, 0xf7, 0xfb, 0x07, 0xfc,
  0x02, 0x00, 0x07, 0xfc, 0x03, 0x03, 0x06, 0x02, 0x0a, 0xf9, 0x06, 0x06,
  0x04, 0xff, 0xfa, 0xfe, 0xf8, 0x08, 0xf6, 0x01, 0xff, 0x0b, 0x03, 0x03,
  0x09, 0x05, 0x1a, 0x04, 0x02, 0x02, 0x12, 0xfe, 0x09, 0x09, 0xfe, 0xfd,
  0xff, 0xf0, 0xf0, 0xc6, 0x02, 0xce, 0xc9, 0xec, 0xf5, 0xf5, 0x0e, 0xe2,
  0x25, 0x24, 0x21, 0x19, 0x1b, 0xe9, 0x1c, 0x0a, 0xf0, 0x19, 0x0a, 0x1a,
  0x14, 0x18, 0x1b, 0x24, 0x15, 0x0c, 0xcb, 0x04, 0x08, 0x0f, 0x00, 0xf3,
  0xf6, 0xfa, 0xff, 0x06, 0xfa, 0xfd, 0x05, 0x10, 0x00, 0x11, 0x12, 0xfe,
  0xf7, 0x13, 0x16, 0xff, 0x03, 0xfa, 0xf7, 0x00, 0xf8, 0x09, 0xfd, 0xfe,
  0xf8, 0xf5, 0x06, 0x01, 0xff, 0x08, 0x01, 0x05, 0xfe, 0x0a, 0xfd, 0xfd,
  0xf6, 0x09, 0xf9, 0x01, 0xfc, 0xf8, 0xff, 0xfe, 0x05, 0x0a, 0xfc, 0xfb,
  0x03, 0xfa, 0x06, 0xfb, 0x09, 0x09, 0xfc, 0x00, 0xfc, 0x03, 0x0a, 0x0a,
  0x02, 0x00, 0xf9, 0xf8, 0xf7, 0xf9, 0x08, 0xf9, 0xf8, 0x08, 0x00, 0x0a,
  0x0b, 0xff, 0xfa, 0xfc, 0xe6, 0xea, 0xf5, 0xf3, 0xd6, 0xe5, 0xe1, 0xf6,
  0xdf, 0xd4, 0xe2, 0xe6, 0xfa, 0xf1, 0xdf, 0xe7, 0xe6, 0xe9, 0xde, 0xdc,
  0xd8, 0xd3, 0xde, 0xdc, 0xe6, 0xd4, 0xe6, 0xe2, 0xd2, 0xe3, 0xe3, 0xde,
  0xe5, 0xdf, 0xd8, 0xd6, 0xe0, 0xd7, 0xe2, 0xe7, 0xe2, 0xd8, 0xe1, 0xe5,
  0xd5, 0xe6, 0xdd, 0xe4, 0xe7, 0xdc, 0xdc, 0xd8, 0xdf, 0xe5, 0xe1, 0xeb,
  0xe6, 0xe2, 0xe0, 0xe1, 0xee, 0xec, 0xee, 0xf1, 0xf1, 0xe3, 0xe6, 0xed,
  0xfa, 0xf5, 0xe3, 0xe9, 0xfa, 0xfb, 0xf0, 0xee, 0xf2, 0xfe, 0xfc, 0xf6,
  0xf7, 0x0a, 0xfa, 0x06, 0xf7, 0x0a, 0xfd, 0x07, 0x07, 0x09, 0xfe, 0xff,
  0xf6, 0xfa, 0xfc, 0x03, 0xfb, 0xf9, 0x06, 0xf7, 0x00, 0xfb, 0x0a, 0xf9,
  0x03, 0xfb, 0x09, 0xf8, 0x08, 0x05, 0x01, 0xf8, 0xf6, 0x08, 0x02, 0x04,
  0xf7, 0x0a, 0x04, 0xfb, 0x0a, 0xf6, 0xf8, 0x02, 0xff, 0x02, 0x02, 0x06,
  0x02, 0xf9, 0x05, 0x02, 0xe3, 0xdd, 0xdf, 0x0a, 0xfa, 0xdb, 0xdd, 0xf6,
  0xfb, 0x08, 0x1a, 0x12, 0x05, 0xe3, 0xd5, 0xe0, 0xe8, 0x24, 0x2a, 0xd5,
  0xe3, 0x12, 0xe5, 0xe1, 0xe5, 0xd7, 0x08, 0xdd, 0xd5, 0xd4, 0xe4, 0x0a,
  0x18, 0x24, 0x1a, 0x15, 0xe5, 0xe2, 0xd8, 0xe7, 0xeb, 0xfa, 0xe2, 0xe5,
  0xe3, 0xed, 0x02, 0xde, 0xe1, 0xfd, 0x0d, 0x16, 0xfb, 0x08, 0x01, 0xf8,
  0xfb, 0x03, 0xf7, 0x07, 0x08, 0x02, 0xfb, 0x02, 0xfe, 0xf5, 0xfe, 0xf5,
  0xf5, 0x09, 0xfa, 0x02, 0xfe, 0x05, 0x05, 0xfc, 0xff, 0xf9, 0x02, 0x04,
  0xf7, 0x08, 0x04, 0x05, 0xfe, 0xfb, 0xfa, 0xff, 0x0a, 0x07, 0x00, 0x06,
  0x06, 0x01, 0x0b, 0x06, 0x01, 0xfc, 0xfa, 0xfd, 0xfe, 0xf6, 0xfe, 0xf8,
  0x0a, 0x02, 0x08, 0x0a, 0xfd, 0x04, 0xfd, 0xf9, 0x01, 0x07, 0x04, 0xff,
  0xf7, 0xf6, 0xfc, 0xff, 0xf9, 0x00, 0xf7, 0x00, 0xee, 0xf4, 0xf8, 0xe1,
  0xe3, 0xe4, 0xeb, 0xfb, 0xb4, 0xd8, 0xe6, 0x01, 0xfa, 0xce, 0xd5, 0xed,
  0xd7, 0xc3, 0xcb, 0xb6, 0xd7, 0x92, 0xe9, 0xde, 0xea, 0xeb, 0xcc, 0xe4,
  0x18, 0x15, 0x29, 0xd4, 0x9d, 0xd3, 0xde, 0xe2, 0xb3, 0xdc, 0x06, 0xf9,
  0xa9, 0x99, 0x92, 0xd2, 0x01, 0x8f, 0x98, 0xda, 0xf5, 0xd2, 0xca, 0xfa,
  0x21, 0x05, 0xc0, 0xbd, 0xc7, 0xe5, 0xd0, 0xd9, 0xe3, 0x10, 0x06, 0xe7,
  0xcf, 0xd5, 0x03, 0xfe, 0xdb, 0xe2, 0xfb, 0x02, 0xd1, 0xdb, 0xe6, 0xeb,
  0xf1, 0xf7, 0xeb, 0xf7, 0xfc, 0x09, 0x05, 0x01, 0x00, 0xf7, 0x08, 0xfc,
  0x03, 0xff, 0xf9, 0xfb, 0xf5, 0xf6, 0xfd, 0x02, 0x09, 0xf8, 0xfe, 0x04,
  0xfc, 0xff, 0xf8, 0x05, 0x08, 0xf7, 0xf6, 0xff, 0xf9, 0x05, 0x0a, 0xfd,
  0x08, 0x04, 0xf6, 0xf9, 0xfe, 0xf7, 0x02, 0xfe, 0xfe, 0x00, 0xfb, 0xf8,
  0x04, 0xfa, 0x06, 0x08, 0x00, 0xf7, 0xf7, 0xf6, 0xd3, 0xdf, 0xf3, 0xff,
  0xfe, 0xdf, 0xda, 0xf1, 0xf3, 0x04, 0x05, 0xf7, 0xfc, 0xf2, 0xe0, 0x1c,
  0x29, 0x26, 0xe4, 0xda, 0xde, 0xe8, 0xf7, 0xf6, 0x13, 0xe7, 0xdc, 0xe5,
  0xe6, 0xe5, 0xe6, 0xf4, 0xfa, 0xda, 0xd6, 0x11, 0x0c, 0x0d, 0x1c, 0x17,
  0xdc, 0xdd, 0xd8, 0xdd, 0xfd, 0xeb, 0xee, 0xfd, 0xe3, 0x02, 0xf3, 0xf7,
  0xfd, 0xf6, 0xf0, 0xef, 0x01, 0x02, 0x06, 0xfe, 0xf6, 0xf9, 0xfd, 0xfe,
  0xf6, 0xf4, 0x02, 0xf3, 0x07, 0xfa, 0x08, 0x05, 0x06, 0xfa, 0x09, 0x0a,
  0xfc, 0x04, 0x01, 0x04, 0x07, 0xf6, 0x03, 0x01, 0xfc, 0x04, 0xfb, 0xfc,
  0xf6, 0x05, 0x08, 0xfa, 0x0a, 0x07, 0x04, 0x01, 0x03, 0xf9, 0xf6, 0xfe,
  0x07, 0x05, 0xfa, 0x05, 0x02, 0xf7, 0x00, 0xf7, 0xfd, 0xfb, 0x05, 0x07,
  0xfa, 0xfb, 0x00, 0xf6, 0xff, 0x00, 0x05, 0x03, 0x04, 0xf6, 0x02, 0x01,
  0xf9, 0xfa, 0xf8, 0xf7, 0xe9, 0xe6, 0xdd, 0x09, 0xff, 0xde, 0xe6, 0xfc,
  0xf9, 0x06, 0xfa, 0x01, 0xf5, 0xeb, 0xe4, 0xde, 0xe3, 0xd9, 0xe4, 0xdd,
  0xef, 0xf0, 0xf0, 0xe2, 0xe5, 0xe4, 0xd9, 0xd9, 0xd7, 0xda, 0xe9, 0xf0,
  0xfb, 0xe0, 0xe0, 0xea, 0xe7, 0xe3, 0xeb, 0xef, 0xf2, 0xe2, 0xed, 0xf5,
  0xe8, 0xeb, 0xfe, 0xf4, 0xe1, 0xe6, 0xff, 0xf6, 0xf8, 0x03, 0xf7, 0xf6,
  0xfc, 0xf9, 0x08, 0x03, 0x08, 0x02, 0x03, 0xf6, 0x03, 0x08, 0x06, 0x02,
  0x04, 0xfc, 0xfd, 0xf9, 0xfc, 0xfd, 0xf6, 0x01, 0xfe, 0xff, 0xfa, 0xf9,
  0xf8, 0xf8, 0xf7, 0xf7, 0x01, 0xfc, 0x09, 0xf8, 0x09, 0x0a, 0xf8, 0xf9,
  0xfb, 0xf6, 0xf7, 0xfe, 0xfc, 0x00, 0x02, 0x00, 0xf8, 0xfd, 0x05, 0x00,
  0xfc, 0xfa, 0xfe, 0xfc, 0x03, 0xf7, 0x08, 0x04, 0xf6, 0x05, 0x06, 0xf9,
  0xf7, 0xf7, 0xf9, 0x07, 0xf9, 0x05, 0x01, 0x09, 0x07, 0x06, 0xfa, 0xf5,
  0x1a, 0x19, 0x0a, 0xfd, 0xf8, 0xf7, 0x0e, 0xfc, 0x01, 0x19, 0x0f, 0x11,
  0x03, 0xeb, 0xfe, 0x07, 0x07, 0x20, 0xdd, 0xcf, 0x22, 0x19, 0xff, 0x0f,
  0xda, 0x0e, 0x1b, 0xda, 0xe0, 0x0b, 0xe6, 0xe6, 0x0a, 0x15, 0x18, 0x1c,
  0xed, 0xdf, 0xee, 0xed, 0xfd, 0xe2, 0xd2, 0x0d, 0x07, 0xe3, 0xde, 0x1f,
  0x1d, 0x11, 0x0d, 0xf7, 0x03, 0x02, 0xf9, 0xfd, 0x00, 0xf4, 0x04, 0x07,
  0xf5, 0xfb, 0xfe, 0x0b, 0xf7, 0x03, 0xfb, 0xfb, 0xfe, 0xf7, 0xfb, 0xfa,
  0x05, 0xfd, 0x00, 0x07, 0x07, 0x0a, 0x08, 0x09, 0x05, 0x07, 0x05, 0xfe,
  0x09, 0x03, 0xf6, 0x08, 0xfd, 0x01, 0x0b, 0x02, 0x04, 0x0a, 0x0a, 0xfe,
  0x02, 0xf6, 0xfa, 0x08, 0xfb, 0xff, 0x09, 0xfd, 0xfb, 0x02, 0xff, 0xfe,
  0xf6, 0xfa, 0xf9, 0x0a, 0xfd, 0xfb, 0x03, 0x09, 0xfa, 0x08, 0x08, 0xfc,
  0xfe, 0x09, 0x05, 0xfb, 0x22, 0x13, 0x06, 0x43, 0x44, 0x4d, 0x3a, 0x11,
  0x55, 0x4b, 0x46, 0x2a, 0x16, 0x43, 0x46, 0x10, 0x3c, 0x5a, 0x53, 0x15,
  0x23, 0x6a, 0x68, 0x5c, 0x4f, 0x59, 0x5b, 0x4c, 0x28, 0x18, 0x26, 0x6f,
  0x73, 0x60, 0x5e, 0x3c, 0x1f, 0x52, 0x24, 0x29, 0x51, 0x63, 0x54, 0x50,
  0x37, 0x64, 0x67, 0x42, 0x22, 0x47, 0x5a, 0x27, 0x1e, 0x25, 0x52, 0x33,
  0x4c, 0x43, 0x45, 0x59, 0x33, 0x0e, 0x24, 0x44, 0x57, 0x42, 0x1e, 0x14,
  0x35, 0x3c, 0x1a, 0x20, 0x3b, 0x3f, 0x28, 0x25, 0x21, 0x18, 0x21, 0x03,
  0x08, 0x03, 0xfa, 0xfa, 0x00, 0x06, 0x05, 0x0b, 0xfe, 0xff, 0xfb, 0xfe,
  0x01, 0x0a, 0x03, 0x05, 0x06, 0x00, 0x05, 0x01, 0x0b, 0x0a, 0xfe, 0x08,
  0xfc, 0x04, 0x07, 0x00, 0x03, 0x07, 0xf7, 0x06, 0xf9, 0x08, 0x08, 0xfb,
  0xfc, 0x05, 0xf9, 0x02, 0xfc, 0x06, 0x03, 0xf7, 0xfc, 0xf9, 0x08, 0x05,
  0xfa, 0x09, 0x08, 0xf5, 0xf8, 0xf2, 0xfe, 0x00, 0x01, 0xfc, 0xfc, 0xfd,
  0x05, 0xf5, 0xed, 0xeb, 0xf8, 0xfe, 0x03, 0xe0, 0xf0, 0xef, 0xdc, 0xde,
  0xde, 0xf3, 0xe9, 0xe2, 0xdc, 0xe7, 0x17, 0x0b, 0x0c, 0x08, 0x01, 0xf5,
  0xe8, 0xeb, 0xf0, 0xf7, 0xea, 0xfc, 0xe6, 0xdd, 0x01, 0xf4, 0xdf, 0xee,
  0xf5, 0x00, 0xe5, 0xe4, 0xe4, 0xe7, 0xf5, 0x07, 0xf8, 0xfc, 0xf4, 0x0a,
  0xf6, 0xfc, 0x00, 0xfb, 0xfd, 0xf2, 0xfa, 0xff, 0x01, 0xfd, 0x01, 0xf2,
  0x07, 0xf9, 0x05, 0x01, 0x08, 0x0a, 0xf8, 0x05, 0xf8, 0x07, 0x02, 0xfe,
  0x03, 0x03, 0xf6, 0x00, 0xf9, 0xfd, 0xfa, 0xf7, 0xfd, 0xf7, 0xf8, 0x05,
  0x01, 0xf8, 0xf6, 0x05, 0xfd, 0x00, 0x01, 0x00, 0x00, 0xf7, 0x08, 0x06,
  0x09, 0xfb, 0xfb, 0xf8, 0xfa, 0x05, 0xfb, 0xfc, 0x02, 0x09, 0x08, 0xf7,
  0x08, 0xf7, 0x00, 0xfc, 0x09, 0xfc, 0x02, 0x05, 0x01, 0xff, 0xf4, 0xf6,
  0xd4, 0xd7, 0xe5, 0xf6, 0xe9, 0xe8, 0xde, 0xfc, 0xfb, 0xf5, 0xfc, 0xf6,
  0xe8, 0xe4, 0xe6, 0xd8, 0xe1, 0xdb, 0xe8, 0xd7, 0xdf, 0xe5, 0xdf, 0xe2,
  0xe6, 0xe1, 0xe4, 0xd7, 0xdb, 0xe2, 0xec, 0xe6, 0xfa, 0xdf, 0xe3, 0xe0,
  0xe5, 0xe0, 0xe0, 0xe3, 0xe3, 0xdc, 0xe7, 0xe5, 0xe5, 0xea, 0xe4, 0xe9,
  0xdd, 0xef, 0xf5, 0xfc, 0xfc, 0xfe, 0x02, 0xfc, 0x03, 0xf6, 0x04, 0xff,
  0xfd, 0xfd, 0x00, 0x06, 0x00, 0xfa, 0xf8, 0xf9, 0xf4, 0xfc, 0xf6, 0x07,
  0x09, 0x08, 0x00, 0xfd, 0x05, 0x07, 0xfc, 0x00, 0xfd, 0x09, 0x06, 0xfa,
  0x01, 0x06, 0x05, 0x07, 0xfc, 0x06, 0xf9, 0xfa, 0x06, 0xf6, 0x08, 0xf7,
  0xf8, 0xf9, 0x04, 0x03, 0xf6, 0x0a, 0x07, 0xff, 0xff, 0x0a, 0x00, 0xfb,
  0xf6, 0xf6, 0x0a, 0xfe, 0xf6, 0xf9, 0xf8, 0x02, 0x00, 0x06, 0xfd, 0x04,
  0x00, 0xfe, 0xf6, 0xfd, 0xfe, 0x0e, 0xfb, 0xde, 0xee, 0x00, 0xff, 0xef,
  0xce, 0xde, 0x01, 0x02, 0x01, 0xc6, 0xc0, 0xed, 0x08, 0xdf, 0xf1, 0x12,
  0x02, 0xbf, 0xa5, 0xc5, 0xe3, 0xf7, 0xfb, 0xee, 0x12, 0x15, 0x1a, 0xe0,
  0xca, 0xc4, 0xe4, 0xdb, 0x93, 0xdf, 0x10, 0x16, 0xde, 0xc3, 0xd8, 0xda,
  0xf6, 0xc0, 0x9d, 0xef, 0x00, 0xfa, 0xbe, 0xfb, 0x0a, 0x14, 0xae, 0xa2,
  0xcf, 0xe6, 0xcb, 0xd7, 0xe2, 0x0c, 0x05, 0xe6, 0xcd, 0xcb, 0x0a, 0x0d,
  0xe0, 0xd9, 0x01, 0x08, 0xe9, 0xc9, 0xf0, 0xfa, 0x00, 0xfd, 0xe7, 0x00,
  0xf7, 0xf7, 0x0a, 0xfa, 0xff, 0x05, 0x07, 0x09, 0xf5, 0xf6, 0x04, 0x07,
  0xfc, 0xf6, 0xf8, 0xf8, 0xfa, 0xfc, 0xf6, 0x07, 0xfc, 0x01, 0x08, 0xfe,
  0x07, 0x03, 0xfd, 0x01, 0xfc, 0xfa, 0xf9, 0x0a, 0x05, 0x09, 0x01, 0xf6,
  0x02, 0x03, 0x07, 0x02, 0x0a, 0xf9, 0xf7, 0x04, 0x07, 0xfb, 0xfd, 0x00,
  0x0b, 0xfa, 0xfc, 0x00, 0x10, 0x16, 0x12, 0xfa, 0x01, 0x07, 0x04, 0xfe,
  0x0c, 0x00, 0xfc, 0x02, 0xf4, 0xf9, 0x02, 0xde, 0xf0, 0xd8, 0xe1, 0xf9,
  0xf7, 0xf5, 0x12, 0x0d, 0x22, 0x15, 0x04, 0x1c, 0x19, 0xee, 0x18, 0x05,
  0x00, 0x0c, 0x0a, 0x0b, 0x13, 0x0c, 0x12, 0x18, 0x08, 0x0e, 0xe7, 0x1b,
  0x14, 0x0a, 0x06, 0xfc, 0x05, 0x00, 0x11, 0xfb, 0x06, 0x02, 0x02, 0xff,
  0xfd, 0x10, 0x11, 0x00, 0x05, 0x0b, 0x01, 0x00, 0x0a, 0xf9, 0xf9, 0x00,
  0x07, 0x09, 0xfc, 0x02, 0xf9, 0x05, 0x02, 0xf7, 0x0a, 0x09, 0x03, 0xf9,
  0x07, 0xfc, 0xff, 0xf5, 0xfa, 0xf8, 0x01, 0x05, 0xf7, 0xf8, 0x06, 0x06,
  0xf6, 0xfb, 0xf8, 0x09, 0x04, 0x09, 0xff, 0xfe, 0x03, 0xf7, 0x02, 0xfb,
  0x02, 0xfb, 0x09, 0x05, 0x00, 0xf5, 0x02, 0x01, 0xf9, 0xff, 0xfc, 0xfe,
  0x02, 0xfa, 0x02, 0xfa, 0x06, 0x08, 0xfe, 0x01, 0xf8, 0xfe, 0x0a, 0xe6,
  0xea, 0xfa, 0xfe, 0x08, 0xe3, 0xed, 0xf6, 0xf5, 0x0a, 0xdc, 0xe8, 0xfa,
  0xea, 0xde, 0xef, 0x2c, 0x2f, 0xdc, 0xdb, 0xe2, 0xef, 0xd7, 0xf3, 0xfe,
  0x29, 0x25, 0x12, 0xeb, 0xe0, 0xde, 0xe6, 0xe9, 0xe4, 0xda, 0x03, 0x16,
  0xdd, 0xe7, 0xf1, 0xed, 0xfb, 0xe7, 0xde, 0x08, 0x11, 0xef, 0xd9, 0x0e,
  0x29, 0x11, 0xdc, 0xcf, 0xe1, 0xe3, 0xd9, 0xe3, 0xf4, 0x1b, 0x0a, 0xd8,
  0xcd, 0xe5, 0x22, 0x0e, 0xd7, 0xd6, 0x05, 0x04, 0xcb, 0xd5, 0xee, 0xff,
  0xf4, 0xf5, 0xe1, 0x09, 0xf9, 0xf7, 0x09, 0xf7, 0xf6, 0x07, 0xfa, 0xf8,
  0xfe, 0xf8, 0x00, 0x01, 0xfd, 0x06, 0x02, 0x00, 0x07, 0x09, 0x02, 0x02,
  0x02, 0x09, 0x07, 0x06, 0x03, 0xf9, 0x06, 0xfc, 0xf6, 0xf9, 0x03, 0x00,
  0x08, 0x02, 0xf8, 0x02, 0x02, 0xf7, 0x0a, 0x04, 0xfd, 0x04, 0x00, 0x05,
  0xfd, 0xf6, 0x03, 0xf8, 0x17, 0x07, 0x06, 0xf9, 0xda, 0xe1, 0xd7, 0xfb,
  0x00, 0xe3, 0xe4, 0xf8, 0x04, 0x09, 0x0d, 0x0a, 0x0e, 0x1b, 0xf3, 0xe4,
  0x28, 0x20, 0xdc, 0xe5, 0xdd, 0xdb, 0x24, 0x11, 0xe5, 0xdc, 0xda, 0xda,
  0xd6, 0x27, 0x0f, 0x0b, 0x21, 0xea, 0xd3, 0xde, 0xe4, 0x1e, 0x1e, 0xd8,
  0xd7, 0x1e, 0x26, 0xd7, 0xe5, 0xfe, 0x18, 0x21, 0xe9, 0xe3, 0x12, 0x0f,
  0x16, 0x11, 0xfa, 0xfd, 0x03, 0xf0, 0xdf, 0xff, 0x02, 0xfa, 0xfb, 0xf8,
  0xfe, 0x13, 0x02, 0x00, 0x01, 0x00, 0x0b, 0x05, 0xf6, 0xf4, 0x02, 0x0b,
  0xfd, 0x00, 0x0a, 0xf6, 0x08, 0xf9, 0xf8, 0x09, 0x03, 0xf6, 0x0a, 0x08,
  0x03, 0xf5, 0xfb, 0xfd, 0x04, 0xfd, 0x09, 0xf6, 0x01, 0xfc, 0x03, 0xfb,
  0xfb, 0x05, 0x04, 0xf6, 0x08, 0x00, 0x08, 0xfe, 0x01, 0xfd, 0xfc, 0x04,
  0xf6, 0x0a, 0x09, 0xf6, 0xf7, 0xff, 0xfe, 0xf8, 0xfe, 0x01, 0x07, 0x04,
  0x0c, 0x09, 0xfa, 0x1c, 0x25, 0x2f, 0x1c, 0xfc, 0x0c, 0x2a, 0x21, 0x10,
  0x03, 0x17, 0x11, 0x1e, 0x17, 0x19, 0x29, 0x21, 0x29, 0x24, 0xea, 0x2d,
  0x34, 0x1f, 0x28, 0x28, 0x29, 0x23, 0x28, 0x0f, 0xf9, 0x28, 0x29, 0x28,
  0x28, 0x2b, 0x2f, 0x24, 0x1f, 0x1b, 0x1a, 0x22, 0x20, 0xe7, 0x20, 0x2e,
  0x31, 0x07, 0x26, 0x20, 0x2a, 0x26, 0x1a, 0x21, 0x18, 0x12, 0x12, 0x11,
  0x04, 0x16, 0xfb, 0x00, 0x05, 0x06, 0x0c, 0x02, 0x13, 0x0d, 0x01, 0x13,
  0xfd, 0xfb, 0x0a, 0x10, 0x00, 0x0c, 0xf8, 0xfd, 0x06, 0x05, 0xf9, 0x07,
  0xf9, 0x09, 0x07, 0x06, 0xfa, 0xfd, 0xf7, 0x01, 0xfd, 0xf8, 0x02, 0xf7,
  0x06, 0x03, 0x09, 0x0a, 0x08, 0x09, 0x01, 0xf7, 0x04, 0x03, 0x07, 0x02,
  0x02, 0xf6, 0xfb, 0x08, 0x05, 0xff, 0xf6, 0xf9, 0xfd, 0xfe, 0xfa, 0x03,
  0xf8, 0xfa, 0x04, 0xfc, 0xfa, 0xfa, 0x00, 0x02, 0xf2, 0xf5, 0xf2, 0xec,
  0xe4, 0xda, 0xd6, 0xf4, 0xf2, 0xe1, 0xd4, 0xf5, 0x03, 0xe7, 0xe5, 0xe8,
  0xed, 0xea, 0xe3, 0xe5, 0xdd, 0xde, 0xd6, 0xe3, 0xe0, 0x1f, 0xd5, 0xd6,
  0xe4, 0xd6, 0xd5, 0xe5, 0xdf, 0xe2, 0xde, 0xeb, 0xe3, 0xdd, 0xd5, 0xe8,
  0xe4, 0xe1, 0xe3, 0xe4, 0xd7, 0xe1, 0xd5, 0xd7, 0xde, 0xe7, 0xd8, 0xd5,
  0xd4, 0xea, 0xe7, 0xe3, 0xee, 0xeb, 0xf5, 0xf7, 0xf1, 0xed, 0xfb, 0xf0,
  0xfc, 0xea, 0xf1, 0x00, 0xed, 0xfc, 0xfb, 0xf8, 0xfc, 0xff, 0xfd, 0xf5,
  0x00, 0xf3, 0xf9, 0x06, 0x03, 0xfa, 0xfd, 0x0a, 0x03, 0xf9, 0xfd, 0x06,
  0x03, 0xfb, 0xfa, 0x06, 0xfa, 0xf7, 0xf6, 0xfa, 0xf9, 0x01, 0xf8, 0xfd,
  0x03, 0x02, 0x03, 0x06, 0x05, 0x05, 0xfd, 0xfb, 0x08, 0x01, 0x02, 0xfa,
  0x04, 0xfe, 0xf6, 0xf5, 0xfa, 0x05, 0xfa, 0x0a, 0xf7, 0x0a, 0xfb, 0x05,
  0x01, 0x09, 0xf9, 0xf7, 0xea, 0xed, 0xf9, 0xea, 0xd5, 0xe3, 0xdd, 0xf6,
  0xe5, 0xd3, 0xde, 0xf6, 0xfa, 0xee, 0xe8, 0xea, 0xeb, 0xed, 0xe7, 0xe0,
  0xda, 0xe6, 0xd4, 0xe3, 0xe6, 0xe3, 0xe6, 0xf9, 0xd7, 0xda, 0xe4, 0xde,
  0xd8, 0xde, 0xd7, 0xf9, 0x11, 0xdf, 0xd4, 0xd5, 0x18, 0xe9, 0xea, 0xdc,
  0xe1, 0x1d, 0x23, 0xd6, 0xee, 0xed, 0xe2, 0xde, 0xe5, 0xe4, 0xe3, 0x0f,
  0xed, 0xf2, 0xf4, 0xf6, 0x02, 0xef, 0xf6, 0xf7, 0xfe, 0xf8, 0xea, 0xfb,
  0xf4, 0x04, 0x01, 0xee, 0xed, 0x07, 0xf9, 0xf5, 0xf3, 0xfd, 0xf4, 0xf9,
  0xf6, 0x03, 0xfc, 0xf9, 0x06, 0x03, 0xf7, 0x02, 0x06, 0xfc, 0xf6, 0xfc,
  0xf6, 0xf7, 0xf6, 0x02, 0x00, 0xf6, 0xfa, 0xf6, 0x02, 0x08, 0x00, 0xfe,
  0xf8, 0x09, 0x04, 0x09, 0xf6, 0xfa, 0x05, 0xfb, 0xfa, 0x00, 0x04, 0xfb,
  0xff, 0xf8, 0xfd, 0x03, 0xfc, 0x02, 0x09, 0x04, 0x08, 0xf8, 0xf8, 0x01,
  0xf3, 0xf5, 0xf4, 0xf0, 0xd3, 0xe3, 0xdc, 0x00, 0xf5, 0xdb, 0xdf, 0xf4,
  0xf5, 0xf0, 0xec, 0xed, 0xef, 0xf0, 0xdf, 0xd7, 0xe3, 0xe3, 0xd9, 0xd8,
  0xd7, 0xe8, 0xdd, 0xe8, 0xd7, 0xdc, 0xdf, 0xe4, 0xd5, 0xe7, 0xe0, 0xe6,
  0xed, 0xda, 0xd7, 0xdf, 0xf0, 0xdc, 0xe3, 0xe2, 0xe0, 0xd5, 0xe5, 0xd9,
  0xe8, 0xdf, 0xe1, 0xda, 0xe3, 0xda, 0xe5, 0xe8, 0xe7, 0xed, 0x02, 0xf7,
  0xff, 0xf2, 0x06, 0xf1, 0xf8, 0xfc, 0xf0, 0xfe, 0xff, 0xfb, 0xf0, 0xf8,
  0xfa, 0xfc, 0x01, 0x05, 0xff, 0xfc, 0x00, 0xfa, 0xfb, 0xfe, 0x08, 0xf7,
  0xf7, 0xfb, 0x06, 0xf8, 0xf7, 0xf9, 0xf6, 0x04, 0xfa, 0xfc, 0xf8, 0x03,
  0xf9, 0x03, 0x0a, 0xf9, 0x04, 0x09, 0x04, 0x07, 0x07, 0x06, 0x0a, 0x03,
  0xf8, 0x01, 0xf6, 0xff, 0xfd, 0xfd, 0x04, 0x06, 0xf8, 0x0a, 0xfb, 0x02,
  0xfa, 0xfd, 0x05, 0x0a, 0xf8, 0xf8, 0xfa, 0x04, 0x01, 0xfd, 0xf8, 0xf6,
  0xf9, 0xfc, 0xff, 0x0a, 0x09, 0xfe, 0xfd, 0x01, 0xfa, 0x0a, 0x0b, 0x05,
  0xf8, 0x07, 0xf6, 0xf7, 0x09, 0x00, 0xfa, 0x00, 0xf7, 0xf7, 0x04, 0x03,
  0x06, 0x01, 0xfd, 0xfd, 0xfd, 0xfa, 0xfc, 0xff, 0xfb, 0xfe, 0xf6, 0x04,
  0x05, 0xfb, 0x03, 0x08, 0x07, 0x08, 0xfd, 0x09, 0x06, 0xf9, 0xfb, 0x01,
  0x04, 0x06, 0xff, 0xf7, 0xfa, 0xf6, 0x00, 0x00, 0xff, 0x08, 0x07, 0xf9,
  0xfa, 0x09, 0x03, 0x00, 0xf9, 0x00, 0xf7, 0x07, 0xfb, 0xf9, 0x08, 0x03,
  0xfd, 0xfe, 0xfa, 0x04, 0x0a, 0x0a, 0xf8, 0x07, 0x0a, 0x09, 0x09, 0xff,
  0x08, 0x00, 0xfa, 0xf8, 0x05, 0xfe, 0x09, 0xfa, 0xf6, 0x09, 0xfd, 0xf7,
  0x05, 0x04, 0x05, 0xfb, 0xf8, 0x09, 0xf9, 0xfd, 0x04, 0xfe, 0x05, 0x01,
  0xf8, 0xfc, 0x08, 0xff, 0xfa, 0x03, 0xfb, 0xf8, 0x00, 0x01, 0xfa, 0xfd,
  0xfe, 0x00, 0x07, 0x08, 0xdf, 0xe8, 0xf2, 0xe4, 0xd5, 0xe5, 0xd4, 0xf1,
  0xdc, 0xe2, 0xe1, 0xee, 0xf6, 0xdf, 0xd7, 0xe3, 0xe0, 0xd5, 0xe0, 0xdf,
  0xe5, 0xe5, 0xdd, 0xd2, 0xe1, 0xe0, 0xd2, 0xdf, 0xde, 0xdf, 0xdb, 0xd6,
  0xd5, 0xd9, 0xe7, 0xe5, 0xde, 0xdb, 0xd3, 0xe6, 0xd9, 0xda, 0xe5, 0xe2,
  0xe3, 0xe7, 0xd2, 0xe6, 0xdd, 0xe0, 0xe4, 0xe3, 0xd2, 0xd9, 0xe1, 0xda,
  0xdb, 0xeb, 0xe5, 0xe1, 0xee, 0xe0, 0xdc, 0xee, 0xef, 0xe4, 0xea, 0xe6,
  0xf1, 0xf8, 0xe5, 0xea, 0xf4, 0xed, 0xf1, 0xf6, 0xe4, 0xfe, 0x04, 0xfd,
  0x02, 0xfd, 0xf6, 0x09, 0x00, 0xfe, 0xfa, 0xfe, 0x05, 0x08, 0xfc, 0x06,
  0xfc, 0x04, 0x02, 0x01, 0xff, 0x04, 0x06, 0xfa, 0x03, 0xfb, 0x02, 0xf6,
  0x05, 0x06, 0x0a, 0x01, 0x08, 0xf6, 0x03, 0x05, 0x07, 0x09, 0x08, 0x06,
  0xff, 0xfa, 0xf8, 0x02, 0x02, 0x03, 0xfb, 0xf7, 0x06, 0x01, 0xfb, 0x06,
  0x1e, 0x1c, 0x00, 0x36, 0x4e, 0x5a, 0x59, 0x08, 0x4a, 0x5b, 0x4f, 0x28,
  0x16, 0x35, 0x2b, 0x05, 0x3e, 0x5e, 0x4f, 0x17, 0xf2, 0x1e, 0x26, 0x46,
  0x58, 0x65, 0x57, 0x5c, 0x1d, 0x28, 0x41, 0x64, 0x7b, 0x28, 0x63, 0x5a,
  0x29, 0x5c, 0x4e, 0x4d, 0x66, 0x7a, 0x78, 0x5d, 0x50, 0x60, 0x6d, 0x58,
  0x2c, 0x51, 0x55, 0x34, 0x01, 0x44, 0x35, 0x49, 0x48, 0x30, 0x4a, 0x51,
  0x39, 0x06, 0x26, 0x39, 0x4c, 0x4b, 0x1a, 0x0d, 0x2c, 0x44, 0x1c, 0x14,
  0x2c, 0x3d, 0x1d, 0x23, 0x1a, 0x15, 0x15, 0xfa, 0x08, 0xfe, 0xf9, 0x09,
  0x08, 0xfa, 0xf9, 0xfa, 0x08, 0xfc, 0xfc, 0x01, 0x06, 0x06, 0xfe, 0x01,
  0x05, 0x09, 0x0a, 0x03, 0x09, 0xfa, 0x0b, 0x02, 0x04, 0xfb, 0x06, 0xfc,
  0xfc, 0xf8, 0xff, 0xf8, 0x05, 0xfc, 0x05, 0xfc, 0xf7, 0x09, 0xfc, 0xf8,
  0x06, 0xff, 0xfb, 0x03, 0x07, 0xfb, 0xff, 0x00, 0xf9, 0x06, 0x09, 0xfb,
  0xf2, 0xe2, 0xea, 0x09, 0xfc, 0xe7, 0xe8, 0xf4, 0xf6, 0xf4, 0xf7, 0x03,
  0xfb, 0xeb, 0xe3, 0xe8, 0xdd, 0xea, 0xfe, 0xe2, 0xed, 0xe8, 0xf0, 0xef,
  0xe1, 0xeb, 0x01, 0xef, 0x1e, 0x11, 0xf7, 0x05, 0x03, 0xf5, 0xdc, 0xf0,
  0x11, 0x03, 0xdb, 0xe5, 0xf6, 0x09, 0x13, 0xe4, 0xe6, 0xf8, 0xf9, 0xe2,
  0xe0, 0xe6, 0xff, 0x09, 0x08, 0x04, 0x00, 0x02, 0x08, 0xfa, 0x05, 0x01,
  0xfd, 0x01, 0xf7, 0x05, 0xf8, 0xf7, 0x04, 0x01, 0xf7, 0x0c, 0x05, 0xfd,
  0xfa, 0x06, 0x00, 0xfc, 0x0a, 0xff, 0xf7, 0x09, 0x03, 0xf6, 0xf7, 0x03,
  0xf5, 0x06, 0x00, 0x08, 0xfe, 0x0a, 0xf9, 0x09, 0xfc, 0x09, 0xf5, 0xfc,
  0x08, 0xf6, 0x04, 0xfa, 0x06, 0x09, 0xf8, 0x00, 0x06, 0xfb, 0xfc, 0xf5,
  0x07, 0x04, 0xff, 0xfa, 0x02, 0x0a, 0x06, 0xf5, 0x07, 0x05, 0xf6, 0x07,
  0x0a, 0x06, 0xfa, 0x06, 0xf6, 0xf5, 0xf4, 0xef, 0xef, 0xea, 0xf7, 0xee,
  0xf7, 0xe8, 0xeb, 0xfd, 0xec, 0xf0, 0xe6, 0xe2, 0xe4, 0xe6, 0xed, 0xe8,
  0xd7, 0xcc, 0xec, 0xf0, 0xf8, 0x1e, 0x0c, 0x04, 0xfe, 0x00, 0xf9, 0x01,
  0x0e, 0xfc, 0xec, 0xdf, 0xe7, 0xeb, 0xf2, 0xf6, 0xef, 0xe0, 0xdc, 0xf4,
  0xfc, 0xf3, 0xfe, 0xf0, 0xf7, 0xf5, 0xef, 0xd0, 0xea, 0xfb, 0xf6, 0xf9,
  0xf1, 0xe6, 0xf9, 0xf8, 0xe7, 0xf5, 0xf8, 0xf0, 0xf0, 0xe2, 0xf1, 0xf9,
  0xfa, 0xec, 0xe1, 0x01, 0x00, 0x00, 0xfc, 0xfc, 0xfe, 0x00, 0xff, 0x08,
  0xf5, 0x09, 0xf5, 0x09, 0xf9, 0xfe, 0x0a, 0xf8, 0x02, 0x05, 0xfa, 0x08,
  0x0a, 0xf7, 0x02, 0xfc, 0xf8, 0xfd, 0x06, 0x00, 0x0a, 0xf6, 0x06, 0xfa,
  0xf6, 0x09, 0x03, 0x09, 0xf8, 0xff, 0x04, 0xf9, 0xf6, 0x07, 0xf9, 0x0a,
  0xf9, 0xf5, 0xfe, 0xfc, 0xf9, 0xfc, 0x08, 0x02, 0xfd, 0x08, 0xf6, 0xf6,
  0xe0, 0xef, 0xf5, 0xe5, 0xd5, 0xe5, 0xda, 0xfc, 0xe8, 0xd3, 0xe1, 0xf3,
  0xfd, 0xf0, 0xe7, 0xe8, 0xde, 0xe7, 0xd3, 0xd8, 0xdf, 0xe0, 0xdd, 0xd3,
  0xdf, 0xdb, 0xe2, 0xe5, 0xe3, 0xe2, 0xd2, 0xd8, 0xe4, 0xd2, 0xdf, 0xd7,
  0xdd, 0xe5, 0xe3, 0xde, 0xdb, 0xde, 0xe0, 0xe1, 0xea, 0xd4, 0xe4, 0xd9,
  0xdd, 0xe0, 0xd7, 0xe2, 0xdd, 0xe6, 0xda, 0xdf, 0xdc, 0xec, 0xe2, 0xee,
  0xe5, 0xe6, 0xe6, 0xf7, 0x01, 0xe8, 0xec, 0xfc, 0x00, 0xfa, 0xeb, 0xf1,
  0xef, 0xf1, 0xf8, 0xf4, 0xf3, 0xf9, 0x04, 0xf4, 0x05, 0xfa, 0x03, 0x06,
  0x04, 0x03, 0x06, 0xf8, 0x07, 0xf7, 0xfd, 0x09, 0xfb, 0x04, 0x07, 0x07,
  0x0a, 0xf9, 0xf7, 0xf5, 0x0a, 0x00, 0x0a, 0xff, 0xf6, 0x0a, 0xfb, 0xff,
  0x07, 0x09, 0x08, 0xf7, 0x04, 0xfe, 0xfb, 0xff, 0xfd, 0x05, 0xfa, 0x03,
  0xf8, 0xfb, 0xfa, 0xf6, 0x06, 0x03, 0x02, 0x00, 0xe9, 0xec, 0xee, 0xf1,
  0xe5, 0xe1, 0xde, 0xf7, 0xdd, 0xd6, 0xd2, 0xee, 0xee, 0xe6, 0xe9, 0xe7,
  0xec, 0xe0, 0xe3, 0xd6, 0xe2, 0xe0, 0xd9, 0xdd, 0xde, 0xe5, 0xd8, 0xd8,
  0xe4, 0xd8, 0xe6, 0xdc, 0xdc, 0xdb, 0xe5, 0xeb, 0xdd, 0xd7, 0xe0, 0xe7,
