#ifndef CON1D-AUTOENCODER_MODEL_H
#define CON1D-AUTOENCODER_MODEL_H


unsigned int Con1D-autoencoder_model_len = 22512;
unsigned char Con1D-autoencoder_model[] = {
 0x24, 0x00, 0x00, 0x00, 0x54, 0x46, 0x4c, 0x33, 0x00, 0x00, 0x00, 0x00,
  0x00, 0x00, 0x00, 0x00, 0x00, 0x00, 0x12, 0x00, 0x1c, 0x00, 0x04, 0x00,
  0x08, 0x00, 0x0c, 0x00, 0x10, 0x00, 0x14, 0x00, 0x00, 0x00, 0x18, 0x00,
  0x12, 0x00, 0x00, 0x00, 0x03, 0x00, 0x00, 0x00, 0xe4, 0x56, 0x00, 0x00,
  0xf4, 0x30, 0x00, 0x00, 0xdc, 0x30, 0x00, 0x00, 0x3c, 0x00, 0x00, 0x00,
  0x04, 0x00, 0x00, 0x00, 0x01, 0x00, 0x00, 0x00, 0x0c, 0x00, 0x00, 0x00,
  0x08, 0x00, 0x0c, 0x00, 0x04, 0x00, 0x08, 0x00, 0x08, 0x00, 0x00, 0x00,
  0x08, 0x00, 0x00, 0x00, 0x3e, 0x00, 0x00, 0x00, 0x13, 0x00, 0x00, 0x00,
  0x6d, 0x69, 0x6e, 0x5f, 0x72, 0x75, 0x6e, 0x74, 0x69, 0x6d, 0x65, 0x5f,
  0x76, 0x65, 0x72, 0x73, 0x69, 0x6f, 0x6e, 0x00, 0x3f, 0x00, 0x00, 0x00,
  0x94, 0x30, 0x00, 0x00, 0x80, 0x30, 0x00, 0x00, 0x64, 0x30, 0x00, 0x00,
  0x50, 0x30, 0x00, 0x00, 0x3c, 0x30, 0x00, 0x00, 0x28, 0x30, 0x00, 0x00,
  0x94, 0x2f, 0x00, 0x00, 0x80, 0x2f, 0x00, 0x00, 0x6c, 0x2f, 0x00, 0x00,
  0x58, 0x2f, 0x00, 0x00, 0x44, 0x2f, 0x00, 0x00, 0x30, 0x2f, 0x00, 0x00,
  0xdc, 0x2e, 0x00, 0x00, 0x88, 0x2e, 0x00, 0x00, 0x74, 0x2e, 0x00, 0x00,
  0xe0, 0x2d, 0x00, 0x00, 0x4c, 0x2a, 0x00, 0x00, 0x38, 0x1c, 0x00, 0x00,
  0x24, 0x15, 0x00, 0x00, 0x10, 0x07, 0x00, 0x00, 0x7c, 0x03, 0x00, 0x00,
  0x58, 0x03, 0x00, 0x00, 0x34, 0x03, 0x00, 0x00, 0x28, 0x03, 0x00, 0x00,
  0x14, 0x03, 0x00, 0x00, 0x00, 0x03, 0x00, 0x00, 0xec, 0x02, 0x00, 0x00,
  0xd8, 0x02, 0x00, 0x00, 0xc4, 0x02, 0x00, 0x00, 0xb0, 0x02, 0x00, 0x00,
  0x9c, 0x02, 0x00, 0x00, 0x88, 0x02, 0x00, 0x00, 0x74, 0x02, 0x00, 0x00,
  0x60, 0x02, 0x00, 0x00, 0x4c, 0x02, 0x00, 0x00, 0x38, 0x02, 0x00, 0x00,
  0x24, 0x02, 0x00, 0x00, 0x10, 0x02, 0x00, 0x00, 0xfc, 0x01, 0x00, 0x00,
  0xe8, 0x01, 0x00, 0x00, 0xd4, 0x01, 0x00, 0x00, 0xc0, 0x01, 0x00, 0x00,
  0xac, 0x01, 0x00, 0x00, 0x98, 0x01, 0x00, 0x00, 0x84, 0x01, 0x00, 0x00,
  0x70, 0x01, 0x00, 0x00, 0x5c, 0x01, 0x00, 0x00, 0x48, 0x01, 0x00, 0x00,
  0x34, 0x01, 0x00, 0x00, 0x20, 0x01, 0x00, 0x00, 0x0c, 0x01, 0x00, 0x00,
  0xf8, 0x00, 0x00, 0x00, 0xe4, 0x00, 0x00, 0x00, 0xd0, 0x00, 0x00, 0x00,
  0xbc, 0x00, 0x00, 0x00, 0xa8, 0x00, 0x00, 0x00, 0x94, 0x00, 0x00, 0x00,
  0x80, 0x00, 0x00, 0x00, 0x6c, 0x00, 0x00, 0x00, 0x58, 0x00, 0x00, 0x00,
  0x44, 0x00, 0x00, 0x00, 0x30, 0x00, 0x00, 0x00, 0x04, 0x00, 0x00, 0x00,
  0xbe, 0xc8, 0xff, 0xff, 0x04, 0x00, 0x00, 0x00, 0x10, 0x00, 0x00, 0x00,
  0x31, 0x2e, 0x31, 0x31, 0x2e, 0x30, 0x00, 0x00, 0x00, 0x00, 0x00, 0x00,
  0x00, 0x00, 0x00, 0x00, 0x00, 0x00, 0x00, 0x00, 0x00, 0x00, 0x00, 0x00,
  0x00, 0x00, 0x00, 0x00, 0x3c, 0xaa, 0xff, 0xff, 0x00, 0x00, 0x00, 0x00,
  0x00, 0x00, 0x00, 0x00, 0x00, 0x00, 0x00, 0x00, 0x4c, 0xaa, 0xff, 0xff,
  0x00, 0x00, 0x00, 0x00, 0x00, 0x00, 0x00, 0x00, 0x00, 0x00, 0x00, 0x00,
  0x5c, 0xaa, 0xff, 0xff, 0x00, 0x00, 0x00, 0x00, 0x00, 0x00, 0x00, 0x00,
  0x00, 0x00, 0x00, 0x00, 0x6c, 0xaa, 0xff, 0xff, 0x00, 0x00, 0x00, 0x00,
  0x00, 0x00, 0x00, 0x00, 0x00, 0x00, 0x00, 0x00, 0x7c, 0xaa, 0xff, 0xff,
  0x00, 0x00, 0x00, 0x00, 0x00, 0x00, 0x00, 0x00, 0x00, 0x00, 0x00, 0x00,
  0x8c, 0xaa, 0xff, 0xff, 0x00, 0x00, 0x00, 0x00, 0x00, 0x00, 0x00, 0x00,
  0x00, 0x00, 0x00, 0x00, 0x9c, 0xaa, 0xff, 0xff, 0x00, 0x00, 0x00, 0x00,
  0x00, 0x00, 0x00, 0x00, 0x00, 0x00, 0x00, 0x00, 0xac, 0xaa, 0xff, 0xff,
  0x00, 0x00, 0x00, 0x00, 0x00, 0x00, 0x00, 0x00, 0x00, 0x00, 0x00, 0x00,
  0xbc, 0xaa, 0xff, 0xff, 0x00, 0x00, 0x00, 0x00, 0x00, 0x00, 0x00, 0x00,
  0x00, 0x00, 0x00, 0x00, 0xcc, 0xaa, 0xff, 0xff, 0x00, 0x00, 0x00, 0x00,
  0x00, 0x00, 0x00, 0x00, 0x00, 0x00, 0x00, 0x00, 0xdc, 0xaa, 0xff, 0xff,
  0x00, 0x00, 0x00, 0x00, 0x00, 0x00, 0x00, 0x00, 0x00, 0x00, 0x00, 0x00,
  0xec, 0xaa, 0xff, 0xff, 0x00, 0x00, 0x00, 0x00, 0x00, 0x00, 0x00, 0x00,
  0x00, 0x00, 0x00, 0x00, 0xfc, 0xaa, 0xff, 0xff, 0x00, 0x00, 0x00, 0x00,
  0x00, 0x00, 0x00, 0x00, 0x00, 0x00, 0x00, 0x00, 0x0c, 0xab, 0xff, 0xff,
  0x00, 0x00, 0x00, 0x00, 0x00, 0x00, 0x00, 0x00, 0x00, 0x00, 0x00, 0x00,
  0x1c, 0xab, 0xff, 0xff, 0x00, 0x00, 0x00, 0x00, 0x00, 0x00, 0x00, 0x00,
  0x00, 0x00, 0x00, 0x00, 0x2c, 0xab, 0xff, 0xff, 0x00, 0x00, 0x00, 0x00,
  0x00, 0x00, 0x00, 0x00, 0x00, 0x00, 0x00, 0x00, 0x3c, 0xab, 0xff, 0xff,
  0x00, 0x00, 0x00, 0x00, 0x00, 0x00, 0x00, 0x00, 0x00, 0x00, 0x00, 0x00,
  0x4c, 0xab, 0xff, 0xff, 0x00, 0x00, 0x00, 0x00, 0x00, 0x00, 0x00, 0x00,
  0x00, 0x00, 0x00, 0x00, 0x5c, 0xab, 0xff, 0xff, 0x00, 0x00, 0x00, 0x00,
  0x00, 0x00, 0x00, 0x00, 0x00, 0x00, 0x00, 0x00, 0x6c, 0xab, 0xff, 0xff,
  0x00, 0x00, 0x00, 0x00, 0x00, 0x00, 0x00, 0x00, 0x00, 0x00, 0x00, 0x00,
  0x7c, 0xab, 0xff, 0xff, 0x00, 0x00, 0x00, 0x00, 0x00, 0x00, 0x00, 0x00,
  0x00, 0x00, 0x00, 0x00, 0x8c, 0xab, 0xff, 0xff, 0x00, 0x00, 0x00, 0x00,
  0x00, 0x00, 0x00, 0x00, 0x00, 0x00, 0x00, 0x00, 0x9c, 0xab, 0xff, 0xff,
  0x00, 0x00, 0x00, 0x00, 0x00, 0x00, 0x00, 0x00, 0x00, 0x00, 0x00, 0x00,
  0xac, 0xab, 0xff, 0xff, 0x00, 0x00, 0x00, 0x00, 0x00, 0x00, 0x00, 0x00,
  0x00, 0x00, 0x00, 0x00, 0xbc, 0xab, 0xff, 0xff, 0x00, 0x00, 0x00, 0x00,
  0x00, 0x00, 0x00, 0x00, 0x00, 0x00, 0x00, 0x00, 0xcc, 0xab, 0xff, 0xff,
  0x00, 0x00, 0x00, 0x00, 0x00, 0x00, 0x00, 0x00, 0x00, 0x00, 0x00, 0x00,
  0xdc, 0xab, 0xff, 0xff, 0x00, 0x00, 0x00, 0x00, 0x00, 0x00, 0x00, 0x00,
  0x00, 0x00, 0x00, 0x00, 0xec, 0xab, 0xff, 0xff, 0x00, 0x00, 0x00, 0x00,
  0x00, 0x00, 0x00, 0x00, 0x00, 0x00, 0x00, 0x00, 0xfc, 0xab, 0xff, 0xff,
  0x00, 0x00, 0x00, 0x00, 0x00, 0x00, 0x00, 0x00, 0x00, 0x00, 0x00, 0x00,
  0x0c, 0xac, 0xff, 0xff, 0x00, 0x00, 0x00, 0x00, 0x00, 0x00, 0x00, 0x00,
  0x00, 0x00, 0x00, 0x00, 0x1c, 0xac, 0xff, 0xff, 0x00, 0x00, 0x00, 0x00,
  0x00, 0x00, 0x00, 0x00, 0x00, 0x00, 0x00, 0x00, 0x2c, 0xac, 0xff, 0xff,
  0x00, 0x00, 0x00, 0x00, 0x00, 0x00, 0x00, 0x00, 0x00, 0x00, 0x00, 0x00,
  0x3c, 0xac, 0xff, 0xff, 0x00, 0x00, 0x00, 0x00, 0x00, 0x00, 0x00, 0x00,
  0x00, 0x00, 0x00, 0x00, 0x4c, 0xac, 0xff, 0xff, 0x00, 0x00, 0x00, 0x00,
  0x00, 0x00, 0x00, 0x00, 0x00, 0x00, 0x00, 0x00, 0x5c, 0xac, 0xff, 0xff,
  0x00, 0x00, 0x00, 0x00, 0x00, 0x00, 0x00, 0x00, 0x00, 0x00, 0x00, 0x00,
  0x6c, 0xac, 0xff, 0xff, 0x00, 0x00, 0x00, 0x00, 0x00, 0x00, 0x00, 0x00,
  0x00, 0x00, 0x00, 0x00, 0x7c, 0xac, 0xff, 0xff, 0x00, 0x00, 0x00, 0x00,
  0x00, 0x00, 0x00, 0x00, 0x00, 0x00, 0x00, 0x00, 0x8c, 0xac, 0xff, 0xff,
  0x00, 0x00, 0x00, 0x00, 0x00, 0x00, 0x00, 0x00, 0x00, 0x00, 0x00, 0x00,
  0x9c, 0xac, 0xff, 0xff, 0x00, 0x00, 0x00, 0x00, 0x4e, 0xcb, 0xff, 0xff,
  0x04, 0x00, 0x00, 0x00, 0x0c, 0x00, 0x00, 0x00, 0xff, 0xff, 0xff, 0xff,
  0x20, 0x00, 0x00, 0x00, 0x10, 0x00, 0x00, 0x00, 0x00, 0x00, 0x00, 0x00,
  0x00, 0x00, 0x00, 0x00, 0x6e, 0xcb, 0xff, 0xff, 0x04, 0x00, 0x00, 0x00,
  0x0c, 0x00, 0x00, 0x00, 0xff, 0xff, 0xff, 0xff, 0x40, 0x00, 0x00, 0x00,
  0x20, 0x00, 0x00, 0x00, 0x00, 0x00, 0x00, 0x00, 0x00, 0x00, 0x00, 0x00,
  0x8e, 0xcb, 0xff, 0xff, 0x04, 0x00, 0x00, 0x00, 0x80, 0x03, 0x00, 0x00,
  0xa8, 0xfe, 0x11, 0xbe, 0xd3, 0xfe, 0xf0, 0xbb, 0x51, 0x0a, 0xb3, 0x3c,
  0x83, 0x1c, 0xec, 0xbd, 0xe9, 0xba, 0x2f, 0xbd, 0x5a, 0x0d, 0xba, 0x3d,
  0xf1, 0x49, 0xc0, 0x3d, 0x2e, 0x6d, 0x5b, 0xbd, 0x26, 0xe4, 0x2a, 0xbd,
  0xcf, 0x55, 0xaf, 0x3d, 0x95, 0x7f, 0x4c, 0x3e, 0x9f, 0xf7, 0xef, 0xbd,
  0x4a, 0x65, 0xbc, 0xbd, 0x06, 0xbd, 0x65, 0x3e, 0x99, 0x98, 0x41, 0x3c,
  0x20, 0x92, 0x6d, 0xbd, 0xf8, 0xc2, 0x20, 0x3e, 0xc3, 0x67, 0xcc, 0xbd,
  0xb7, 0x40, 0xaa, 0xbd, 0x25, 0xbd, 0xec, 0x3d, 0xe0, 0x00, 0x32, 0x3c,
  0xa4, 0xce, 0x00, 0xbd, 0xe4, 0xd1, 0xf2, 0xbd, 0xf4, 0x81, 0x50, 0xbd,
  0x65, 0x49, 0x3f, 0x3e, 0xfb, 0xbe, 0xc0, 0x3d, 0xe5, 0x1c, 0x04, 0xbe,
  0x42, 0x0b, 0xca, 0x3d, 0x22, 0x19, 0x96, 0xbd, 0x9d, 0x41, 0x5b, 0x3e,
  0xe2, 0x7e, 0xcb, 0xbc, 0x5f, 0x14, 0x07, 0x3e, 0xae, 0x84, 0xea, 0x3d,
  0x21, 0xfa, 0xaf, 0xbc, 0x16, 0x3a, 0x00, 0xbe, 0xab, 0xf7, 0x0a, 0xbe,
  0xe6, 0xdc, 0x87, 0xbd, 0xa6, 0xed, 0x6b, 0xbd, 0x09, 0xe2, 0x33, 0x3e,
  0x16, 0x8b, 0xd0, 0x3c, 0x65, 0x02, 0xe0, 0xbd, 0xb9, 0x7b, 0x83, 0x3d,
  0x8b, 0xb0, 0x19, 0xbe, 0xf9, 0x6c, 0x9b, 0xbd, 0x51, 0x3b, 0xfb, 0x3d,
  0x2a, 0x28, 0x49, 0xbd, 0xb4, 0x1e, 0x67, 0x3c, 0x3f, 0x37, 0x32, 0xbe,
  0xb7, 0xd2, 0xd8, 0xbc, 0x04, 0x2f, 0xec, 0xbd, 0x7f, 0x18, 0xc6, 0xbd,
  0x12, 0x13, 0xd2, 0x3d, 0xf2, 0x2c, 0x8b, 0x3d, 0xe3, 0x45, 0x97, 0xbd,
  0x58, 0xa7, 0x35, 0x3e, 0x5e, 0xca, 0xd0, 0xbd, 0x11, 0x92, 0x46, 0x3e,
  0x8c, 0x1d, 0xf4, 0xbd, 0x49, 0x0d, 0x00, 0x3c, 0x82, 0xa9, 0xa5, 0x3c,
  0x31, 0x46, 0xf4, 0x3d, 0xd1, 0xe7, 0x79, 0xbd, 0xe1, 0x2a, 0x1d, 0x3e,
  0xfa, 0x32, 0xed, 0xbc, 0x93, 0x6d, 0xeb, 0x3b, 0x59, 0xa8, 0x2a, 0xbd,
  0xb8, 0x51, 0x01, 0x3d, 0x7d, 0x91, 0xee, 0x3d, 0x97, 0xbe, 0x03, 0x3e,
  0x89, 0xc3, 0xc2, 0x3d, 0xaf, 0xca, 0x2d, 0x3e, 0xd9, 0xe0, 0x4c, 0xbc,
  0x67, 0x02, 0x15, 0x3d, 0x19, 0x1a, 0xba, 0x3d, 0xe9, 0x6a, 0xa7, 0x3d,
  0x05, 0xe0, 0x23, 0xbd, 0xde, 0xcf, 0xe0, 0xbc, 0x52, 0xee, 0xd1, 0xbd,
  0xf7, 0xbd, 0x34, 0x3e, 0x98, 0xc7, 0xa5, 0xbd, 0xd8, 0x6f, 0x42, 0xbe,
  0xfb, 0x81, 0x04, 0x3e, 0x1c, 0xd6, 0x58, 0x3d, 0x50, 0xb0, 0x81, 0x3d,
  0xe6, 0x88, 0x21, 0xbd, 0x56, 0x1b, 0xed, 0xbd, 0xa8, 0x06, 0x84, 0xbd,
  0x53, 0x48, 0x5a, 0x3d, 0xfe, 0xc2, 0xf4, 0x3d, 0x6b, 0xfe, 0xfe, 0x3c,
  0xa7, 0x7a, 0x17, 0x3e, 0xf9, 0xff, 0x3b, 0xbd, 0x4e, 0x08, 0x2c, 0xbc,
  0x88, 0xdc, 0xc0, 0x3d, 0x49, 0x33, 0x41, 0xbb, 0x75, 0xad, 0x0e, 0xbd,
  0x02, 0x69, 0x35, 0x3d, 0x60, 0x32, 0x03, 0x3e, 0xa7, 0x46, 0xe2, 0xbd,
  0xea, 0x13, 0x07, 0xbd, 0xed, 0x0b, 0x1a, 0x3e, 0x71, 0x06, 0x2b, 0x3e,
  0xb8, 0x16, 0xd5, 0x3d, 0xa5, 0xe3, 0xce, 0x3d, 0x19, 0x12, 0x11, 0x3e,
  0xd4, 0xf4, 0xa5, 0x3d, 0xe8, 0xec, 0x99, 0x3c, 0x44, 0x7d, 0x4b, 0x3d,
  0x1b, 0xf3, 0x21, 0x3d, 0xe1, 0x4c, 0x5e, 0x3c, 0xe2, 0x85, 0x36, 0x3e,
  0x4e, 0x5b, 0xac, 0xbc, 0x80, 0x88, 0xdb, 0xbd, 0xd3, 0x46, 0x0e, 0x3e,
  0xf2, 0xd1, 0x5f, 0x3c, 0x94, 0x53, 0x2a, 0x3e, 0x24, 0x3a, 0x7a, 0xbd,
  0xc9, 0xa1, 0xb2, 0xbc, 0x37, 0x72, 0xcf, 0x3d, 0x34, 0xa2, 0x8c, 0xbd,
  0x88, 0x7b, 0xaf, 0x3c, 0x75, 0xd5, 0x33, 0x3e, 0xb0, 0xbf, 0x23, 0x3d,
  0xf5, 0x06, 0xd5, 0x3c, 0xf7, 0xb6, 0x97, 0xbd, 0x0d, 0x49, 0xa2, 0xbd,
  0x36, 0xe3, 0x01, 0xbd, 0x00, 0x04, 0x76, 0x3d, 0x8e, 0x4d, 0xf8, 0x3c,
  0x5b, 0x95, 0x8b, 0x3d, 0x67, 0xc6, 0xc4, 0x3d, 0xdd, 0x4a, 0xc6, 0x3d,
  0x83, 0x63, 0x31, 0xbe, 0x2c, 0xcf, 0xbf, 0x3b, 0x91, 0x9c, 0x07, 0xbd,
  0xea, 0x06, 0x35, 0x3e, 0xca, 0x42, 0xdf, 0x3c, 0xfe, 0xcf, 0x88, 0x3d,
  0x9f, 0x7b, 0xd3, 0xbd, 0xfd, 0xa9, 0x49, 0x3e, 0xa4, 0xab, 0x04, 0xbe,
  0x06, 0x55, 0xf8, 0xbd, 0x6a, 0x12, 0x92, 0xbd, 0x5b, 0x1f, 0x1b, 0xbe,
  0x6a, 0x95, 0x0c, 0x3e, 0xc0, 0x23, 0x0c, 0xbd, 0xee, 0x03, 0x44, 0x3e,
  0x9e, 0xbd, 0x0b, 0x3e, 0x6e, 0xeb, 0x26, 0xbe, 0x7b, 0x17, 0xe0, 0x3d,
  0xda, 0x5a, 0x24, 0x3d, 0x67, 0x42, 0xe4, 0xbd, 0x3e, 0xeb, 0x01, 0x3e,
  0x79, 0xb5, 0x30, 0xbd, 0x70, 0x7c, 0x3a, 0xbe, 0x10, 0xf3, 0x33, 0xbd,
  0xeb, 0xad, 0xa4, 0x3c, 0x3c, 0xfc, 0x03, 0xbe, 0x4f, 0xd1, 0x40, 0xbd,
  0xc3, 0x23, 0x38, 0xbe, 0x37, 0x42, 0x61, 0x3d, 0x3d, 0xe2, 0x9b, 0xbc,
  0x56, 0xe7, 0xc3, 0x3d, 0xe7, 0x9c, 0x8f, 0x3d, 0x46, 0xc7, 0x17, 0x3e,
  0xfa, 0xa4, 0x44, 0xbd, 0x33, 0x6c, 0x32, 0x3d, 0x57, 0xca, 0x00, 0xbc,
  0xda, 0x84, 0xa2, 0x3b, 0xf4, 0x67, 0x24, 0xbd, 0x18, 0x0b, 0x00, 0x3a,
  0x38, 0xe0, 0x19, 0x3e, 0xc9, 0xa0, 0xc8, 0x3d, 0x9a, 0x0f, 0x59, 0xbd,
  0xb4, 0xe1, 0xef, 0xbd, 0xcb, 0x00, 0xc6, 0xbd, 0x4c, 0xfa, 0x74, 0xbd,
  0x22, 0xbc, 0x82, 0x3d, 0x62, 0xc7, 0x27, 0x3e, 0x5d, 0xb4, 0x95, 0xbd,
  0xf6, 0x99, 0x85, 0xbe, 0x8e, 0x15, 0xbe, 0x3b, 0x79, 0x9b, 0xf2, 0xbd,
  0x73, 0xbc, 0x25, 0xbd, 0x31, 0x45, 0x79, 0xbd, 0x74, 0xdc, 0x5d, 0xbd,
  0xfd, 0xa8, 0x83, 0xbd, 0x3b, 0xc5, 0xbd, 0x3d, 0x11, 0x72, 0x01, 0x3e,
  0x7e, 0xe9, 0x09, 0xbe, 0x56, 0x08, 0xf3, 0x3d, 0xb6, 0x3d, 0xb2, 0xbd,
  0x4a, 0x42, 0xe5, 0x3d, 0x42, 0xb0, 0x0f, 0x3e, 0x2f, 0x93, 0x8b, 0xbd,
  0xd1, 0x9f, 0x22, 0x3d, 0x6d, 0xb7, 0xc0, 0xbd, 0xae, 0xee, 0x27, 0x3d,
  0x64, 0xab, 0xa9, 0xbd, 0x7b, 0xfb, 0x08, 0xbe, 0x9e, 0xae, 0xc2, 0x3c,
  0x93, 0xaf, 0xc8, 0x3d, 0x5e, 0xf8, 0x6f, 0xbd, 0xfa, 0x32, 0xba, 0xbd,
  0x66, 0x6a, 0xe8, 0xbd, 0x37, 0x39, 0x22, 0xbd, 0x1b, 0x52, 0x07, 0xbe,
  0x74, 0x59, 0xd2, 0x3c, 0x5a, 0xf8, 0x07, 0xbc, 0x9d, 0xfd, 0x8f, 0x3d,
  0xe2, 0x90, 0x20, 0x3e, 0xcc, 0x4f, 0x45, 0x3d, 0xcc, 0xf5, 0x13, 0xbe,
  0x4f, 0x5e, 0xb6, 0xba, 0xbd, 0x8f, 0x81, 0xbd, 0xe5, 0xd0, 0xd7, 0x3b,
  0xec, 0x39, 0xac, 0x3d, 0xba, 0x4f, 0x50, 0x3e, 0x94, 0x11, 0x4d, 0x3d,
  0xfe, 0x54, 0xa3, 0x3d, 0x3b, 0xf1, 0x5b, 0x3e, 0x27, 0x36, 0x78, 0xbc,
  0x66, 0x46, 0xbd, 0xba, 0xa9, 0xd7, 0xdc, 0x3d, 0x00, 0x00, 0x00, 0x00,
  0x1e, 0xcf, 0xff, 0xff, 0x04, 0x00, 0x00, 0x00, 0x00, 0x0e, 0x00, 0x00,
  0x32, 0x0b, 0xe0, 0xec, 0xcc, 0x0b, 0xfa, 0xee, 0x20, 0xd9, 0x1a, 0xfe,
  0x01, 0xca, 0xc8, 0xdc, 0x01, 0xec, 0xdb, 0xe5, 0x2f, 0x05, 0x07, 0xef,
  0x22, 0x3b, 0xb5, 0xd3, 0x25, 0xe6, 0x18, 0xf1, 0xcf, 0xf3, 0x25, 0x41,
  0x11, 0x0f, 0xd3, 0xb5, 0x0f, 0x1f, 0xc5, 0x1f, 0x51, 0xfb, 0xfd, 0x3b,
  0xf3, 0x01, 0x44, 0xb0, 0x3b, 0x26, 0x05, 0x02, 0x18, 0x47, 0xef, 0x3a,
  0x2a, 0x1f, 0xca, 0xf1, 0xcb, 0xf7, 0xd7, 0x27, 0x33, 0xf7, 0xda, 0xe4,
  0x16, 0x26, 0xd9, 0xb3, 0xfe, 0xc6, 0x2d, 0x14, 0xd8, 0xeb, 0x1d, 0xe3,
  0xd9, 0xdc, 0xea, 0xdc, 0xd6, 0xc3, 0x27, 0x2c, 0xee, 0x35, 0x09, 0xff,
  0xce, 0x30, 0xef, 0x13, 0x26, 0xec, 0x1c, 0xf4, 0xfa, 0xf8, 0xc3, 0xf1,
  0xcd, 0xfb, 0x16, 0xd8, 0xb4, 0xbb, 0x29, 0xc7, 0xf2, 0x24, 0x3b, 0x40,
  0x0b, 0x00, 0x05, 0x10, 0x0e, 0x25, 0xe4, 0xeb, 0x38, 0x08, 0x2f, 0xdb,
  0xdd, 0x41, 0xfd, 0xf2, 0xe1, 0x3c, 0x32, 0xf4, 0x3a, 0x00, 0x04, 0x23,
  0xc2, 0xcc, 0x22, 0x0d, 0xc5, 0x1a, 0x03, 0xe1, 0x35, 0xe2, 0x06, 0xf7,
  0x27, 0x48, 0x34, 0xfe, 0x1e, 0xe6, 0xdc, 0xd6, 0xd4, 0xd2, 0x1b, 0x0e,
  0x1e, 0x24, 0x2a, 0x18, 0xe5, 0x21, 0xfe, 0x3d, 0xfc, 0x34, 0xc8, 0xd4,
  0x00, 0xf7, 0xce, 0x20, 0x11, 0xed, 0x1d, 0xe6, 0x5a, 0xdd, 0x15, 0x02,
  0xf5, 0xec, 0x09, 0x3d, 0x40, 0xea, 0xf4, 0x2d, 0x2f, 0xf4, 0x58, 0xe9,
  0x06, 0xfa, 0x20, 0x0b, 0x22, 0xea, 0xe3, 0x08, 0x09, 0xb9, 0xff, 0xda,
  0xe5, 0xf9, 0xd5, 0x14, 0x29, 0xc6, 0x23, 0x3b, 0xd4, 0xef, 0x1f, 0xf9,
  0xf7, 0xed, 0xe0, 0xce, 0xe3, 0xd5, 0x3a, 0x03, 0xf4, 0xdd, 0x12, 0x2c,
  0xf1, 0x11, 0xd5, 0xde, 0x03, 0x04, 0x04, 0xf8, 0xe6, 0x46, 0x11, 0xeb,
  0xd7, 0x26, 0x1f, 0x39, 0xca, 0xef, 0xd9, 0xfe, 0xec, 0x04, 0x2c, 0x50,
  0x0d, 0xbe, 0xdc, 0x41, 0xbc, 0x31, 0x99, 0x09, 0x24, 0x30, 0x01, 0xce,
  0x2e, 0xee, 0x1a, 0x1e, 0x10, 0x19, 0xe7, 0xea, 0xb8, 0x21, 0xfd, 0xcb,
  0xd1, 0x15, 0xe5, 0xf8, 0x10, 0x22, 0x1a, 0xbd, 0xcc, 0x19, 0xe1, 0xf0,
  0xe6, 0x05, 0x2a, 0x16, 0x0c, 0xa6, 0xd3, 0x12, 0x2c, 0x15, 0xaf, 0xf9,
  0x1b, 0xb9, 0x29, 0x21, 0xf3, 0xe1, 0x13, 0xfa, 0x1c, 0xe0, 0x09, 0xfe,
  0x27, 0xb4, 0xb8, 0xf6, 0x12, 0xa3, 0x29, 0xb1, 0x2d, 0xc2, 0x20, 0xe1,
  0xed, 0xb0, 0xe1, 0x22, 0xd2, 0x11, 0xf1, 0x14, 0xf2, 0x12, 0xfd, 0x0c,
  0xdf, 0xb8, 0x09, 0xf8, 0xdd, 0xfb, 0x38, 0xfb, 0xe4, 0x16, 0x31, 0x1d,
  0xfc, 0x3c, 0x3c, 0x42, 0x3d, 0xe1, 0x48, 0x0e, 0xcd, 0xf0, 0x37, 0x47,
  0xda, 0x0f, 0x2c, 0x15, 0x23, 0xfc, 0x33, 0xe9, 0xd4, 0xe0, 0x17, 0xe6,
  0xc9, 0x02, 0x24, 0x31, 0x37, 0xe6, 0x3c, 0xe2, 0xc2, 0x0a, 0xf1, 0x20,
  0xe1, 0x27, 0x0e, 0x2e, 0xf6, 0x14, 0xf6, 0x22, 0x42, 0x31, 0xf9, 0x3b,
  0x02, 0x31, 0x13, 0x30, 0xe3, 0x24, 0x13, 0xf2, 0xf7, 0xfd, 0xc8, 0xd4,
  0x07, 0x0e, 0xae, 0x17, 0x19, 0xcc, 0x3a, 0xe7, 0x31, 0xf9, 0xf3, 0x1d,
  0xc9, 0x19, 0xfd, 0xf0, 0xd3, 0xf6, 0x3f, 0x20, 0xfe, 0x1f, 0x15, 0x02,
  0x30, 0x17, 0x3b, 0xde, 0xd7, 0xe3, 0x1c, 0xa5, 0xad, 0xe0, 0x09, 0x0c,
  0xee, 0xf1, 0x2f, 0xba, 0x10, 0x07, 0xf4, 0xed, 0x9e, 0xa3, 0x1f, 0x37,
  0xa8, 0xff, 0x25, 0x3b, 0x0a, 0xfe, 0xf0, 0x30, 0xdc, 0x3f, 0x04, 0x4a,
  0xd7, 0xac, 0xeb, 0xed, 0x24, 0xc1, 0xee, 0xe5, 0x10, 0x9c, 0x11, 0x1a,
  0xda, 0xbe, 0x3e, 0x04, 0xdf, 0x41, 0xec, 0x21, 0x1e, 0xee, 0xd0, 0x27,
  0xdf, 0x4d, 0xff, 0xea, 0x37, 0xf5, 0x09, 0xe9, 0xd9, 0x0f, 0x41, 0xeb,
  0xd1, 0xed, 0x30, 0x08, 0x26, 0x31, 0x14, 0xf7, 0xd8, 0x18, 0xaf, 0xe7,
  0xd4, 0x3f, 0x19, 0xa9, 0xb2, 0xb6, 0xe7, 0xed, 0xec, 0xe0, 0x2f, 0xa2,
  0xe8, 0xe2, 0x18, 0xb1, 0xd5, 0x1d, 0xf6, 0x4d, 0x11, 0xd3, 0x1c, 0xe8,
  0xff, 0xe4, 0x0a, 0xdb, 0xe4, 0x0b, 0xfd, 0xfb, 0xeb, 0x09, 0x17, 0x14,
  0xf0, 0x43, 0x25, 0xbb, 0x03, 0x26, 0xdb, 0xeb, 0xb1, 0x1a, 0x2e, 0xda,
  0xe3, 0xea, 0x12, 0x18, 0x2f, 0x08, 0xd3, 0xf3, 0x18, 0xe4, 0x11, 0xf3,
  0x04, 0x1f, 0xc4, 0x56, 0xf0, 0xcf, 0xd1, 0xbd, 0x21, 0xc2, 0xc2, 0xe0,
  0x11, 0xee, 0x00, 0x1d, 0xef, 0xe9, 0xd3, 0xe7, 0xc8, 0xe2, 0xe4, 0x49,
  0xc2, 0x23, 0xb0, 0x47, 0x00, 0x1e, 0xe1, 0x0f, 0x02, 0x3a, 0x2a, 0x3b,
  0xab, 0x0c, 0x1a, 0xbe, 0x07, 0xda, 0xda, 0xe4, 0x1f, 0x30, 0x34, 0xe4,
  0x10, 0x30, 0xc8, 0x33, 0xea, 0x34, 0xf4, 0xd0, 0xe8, 0x19, 0x4a, 0xc2,
  0xf2, 0xd6, 0x12, 0xcf, 0xf0, 0xed, 0x2d, 0x1a, 0x21, 0x14, 0xcd, 0x2f,
  0x29, 0x01, 0x11, 0xca, 0xd9, 0xca, 0x2b, 0x2b, 0x3d, 0xa8, 0xfe, 0x05,
  0x28, 0x20, 0xf0, 0xea, 0x36, 0xf6, 0xbf, 0x19, 0xb5, 0xc4, 0xc0, 0xd2,
  0xa3, 0x19, 0x1d, 0xdb, 0xc7, 0xc8, 0x19, 0x2b, 0x1a, 0xde, 0x32, 0xe0,
  0x34, 0x16, 0x25, 0xfe, 0x3c, 0xfe, 0x25, 0xfb, 0xd8, 0xf7, 0x3b, 0xe9,
  0x0d, 0xef, 0x5d, 0x13, 0xed, 0xc9, 0xe6, 0x28, 0xdb, 0x31, 0x06, 0x22,
  0x0a, 0xf1, 0x17, 0xc9, 0x32, 0x04, 0xe4, 0xdf, 0xe8, 0xfb, 0x30, 0x36,
  0xf5, 0xb3, 0x17, 0xec, 0xfd, 0x0f, 0x24, 0xf6, 0xfe, 0x17, 0xdd, 0x22,
  0x32, 0x3f, 0x08, 0xe5, 0xf8, 0xcf, 0xcd, 0xb5, 0x14, 0x29, 0xeb, 0xa9,
  0xc8, 0x21, 0x24, 0xe6, 0xf1, 0x45, 0x00, 0x4b, 0x11, 0xde, 0xf4, 0x26,
  0xd3, 0xe2, 0xfa, 0x14, 0xfa, 0x04, 0x3a, 0xf5, 0xd5, 0x2a, 0xe0, 0x0d,
  0x08, 0xf3, 0xd3, 0xfa, 0xd5, 0x05, 0x23, 0x02, 0xfd, 0x47, 0x11, 0x2d,
  0xcb, 0xe4, 0x4c, 0xf9, 0x1b, 0xf4, 0xc9, 0xd4, 0xd2, 0xd5, 0x1e, 0x52,
  0x20, 0xb7, 0xb9, 0xe7, 0xe8, 0x09, 0xfb, 0xb3, 0x16, 0xf3, 0xd5, 0x0e,
  0xb4, 0xbc, 0x3f, 0x3f, 0xdc, 0xe6, 0x07, 0x39, 0xfb, 0xd7, 0x03, 0xfb,
  0xe0, 0x2a, 0xda, 0xfd, 0xb1, 0x13, 0x51, 0x30, 0xe8, 0xec, 0xed, 0xc8,
  0xed, 0x4c, 0x24, 0x33, 0xd7, 0xc5, 0xbc, 0xe9, 0xa7, 0x45, 0xdf, 0xef,
  0xc5, 0xc9, 0xfc, 0xe9, 0xf1, 0x0e, 0x0d, 0x17, 0xbc, 0x43, 0x15, 0x0a,
  0x22, 0xde, 0xd8, 0x2d, 0x2c, 0xe0, 0x05, 0x06, 0xaa, 0x0a, 0x0c, 0xf9,
  0xc9, 0x05, 0xf0, 0x0e, 0x27, 0xcb, 0xf4, 0x04, 0xf8, 0xca, 0xcd, 0x9e,
  0xeb, 0xe6, 0x17, 0x01, 0xdb, 0xfa, 0xe2, 0x0d, 0xa1, 0xcd, 0xe7, 0xc6,
  0x01, 0x34, 0x16, 0x03, 0xd3, 0xc9, 0xed, 0xef, 0x12, 0x0f, 0x21, 0xfa,
  0xf3, 0x2f, 0xd6, 0xef, 0x02, 0x09, 0x12, 0x1d, 0xf3, 0xd6, 0xfb, 0xa0,
  0x3d, 0x01, 0x34, 0x47, 0x13, 0x00, 0xdd, 0x38, 0xfb, 0x16, 0x09, 0xf9,
  0x08, 0x37, 0x22, 0xf7, 0x16, 0xdd, 0x2c, 0x2d, 0x02, 0x38, 0xe5, 0xbc,
  0x43, 0x02, 0x3d, 0xb0, 0xf6, 0x22, 0x1e, 0x1d, 0x32, 0xd9, 0x14, 0xf2,
  0xed, 0x19, 0x15, 0x27, 0xce, 0xe1, 0xf8, 0xe4, 0xfb, 0x01, 0xef, 0x0a,
  0x16, 0xdc, 0xe0, 0x1f, 0x0a, 0xe9, 0x07, 0x0a, 0xef, 0x2b, 0xdc, 0xe4,
  0x1c, 0xf1, 0x08, 0x11, 0x39, 0xfa, 0x37, 0x04, 0x4d, 0x43, 0x05, 0xe3,
  0x2e, 0xd9, 0xc3, 0xc9, 0x1a, 0xca, 0x27, 0x17, 0x12, 0xf7, 0x27, 0x0b,
  0xf2, 0x2c, 0x29, 0xeb, 0x24, 0x26, 0x06, 0xe4, 0xe1, 0xdb, 0xfe, 0xf4,
  0x0f, 0xea, 0x14, 0xbf, 0x08, 0x4d, 0x0e, 0x36, 0xe1, 0xfc, 0x1a, 0xef,
  0x0d, 0xfe, 0x28, 0xed, 0xdd, 0x39, 0x33, 0x1f, 0x2d, 0x26, 0x27, 0x37,
  0x1f, 0xc9, 0xf4, 0x26, 0xd7, 0x0b, 0xf1, 0xf3, 0xe8, 0xcf, 0xf2, 0xc8,
  0xe5, 0xdf, 0x09, 0x05, 0x3c, 0xfe, 0xfe, 0xd5, 0x2f, 0xf7, 0x03, 0x48,
  0xf4, 0x09, 0x29, 0xe7, 0xca, 0xc7, 0x12, 0x45, 0xec, 0xe9, 0xe4, 0xd9,
  0xed, 0x10, 0x05, 0xc1, 0xf9, 0x20, 0xf0, 0x2f, 0x27, 0x32, 0xe3, 0x44,
  0xfc, 0xe8, 0xf9, 0x12, 0xea, 0xe0, 0xdd, 0xcb, 0x0f, 0x41, 0xf1, 0x1c,
  0xd3, 0x04, 0x06, 0x3e, 0x05, 0x10, 0xf4, 0xe5, 0x02, 0xdb, 0xee, 0xd7,
  0xf7, 0xfc, 0x21, 0x26, 0xdd, 0xe4, 0x0f, 0xca, 0x27, 0xd8, 0x31, 0xf4,
  0xfd, 0xf5, 0x0c, 0xfc, 0x00, 0xa1, 0xe1, 0xbf, 0xec, 0x29, 0xd1, 0xb8,
  0xf4, 0x16, 0x1b, 0xf9, 0x49, 0xfc, 0xc0, 0xd9, 0xbc, 0x24, 0x1b, 0xfb,
  0x06, 0x0d, 0xba, 0x35, 0x42, 0x06, 0xcc, 0xd7, 0x05, 0xfc, 0xf8, 0xe6,
  0xe1, 0x19, 0xe1, 0xcd, 0x20, 0xc5, 0xef, 0x19, 0x29, 0xdc, 0xc0, 0x14,
  0x00, 0x01, 0xc8, 0xe9, 0xef, 0x0b, 0xe0, 0xf8, 0xb7, 0xef, 0x32, 0xf6,
  0xdf, 0x2f, 0x17, 0xc2, 0xee, 0xe5, 0xe7, 0x02, 0xd7, 0x21, 0x1b, 0xff,
  0xe6, 0x00, 0xe7, 0x0a, 0xcc, 0xd4, 0x39, 0x03, 0xf1, 0xca, 0x40, 0x02,
  0x08, 0xd8, 0xc3, 0xfa, 0xe3, 0xe6, 0x06, 0xea, 0xc0, 0x0f, 0xd5, 0x03,
  0x05, 0x54, 0x0e, 0x4e, 0x46, 0xe5, 0x18, 0x05, 0xdc, 0xa5, 0x19, 0xea,
  0xc5, 0xf9, 0xce, 0x0a, 0xdf, 0xc8, 0xc7, 0x21, 0xf0, 0x07, 0x68, 0xd3,
  0xd0, 0xe4, 0xcd, 0x15, 0xf6, 0x06, 0xf8, 0x25, 0x42, 0xa9, 0x34, 0x1a,
  0xed, 0x47, 0xe9, 0x81, 0xe4, 0x22, 0x4f, 0xfd, 0x1d, 0x2a, 0xe2, 0xdb,
  0x01, 0xfd, 0xe1, 0x97, 0xe5, 0x00, 0xd4, 0x07, 0xfd, 0x1c, 0xed, 0x29,
  0xc6, 0x9a, 0x4c, 0x39, 0xec, 0x0a, 0x34, 0xf5, 0x4a, 0x0b, 0x21, 0xd4,
  0xf7, 0xff, 0xdd, 0x0d, 0xcf, 0x31, 0xea, 0x33, 0xe8, 0xd4, 0x0c, 0xf2,
  0x4f, 0x0a, 0x09, 0xe2, 0x41, 0x15, 0x90, 0xe7, 0xda, 0xdc, 0x27, 0xbc,
  0xe0, 0xe9, 0xee, 0xd8, 0x05, 0xab, 0xea, 0x2b, 0x17, 0xed, 0x1a, 0x16,
  0x04, 0xdc, 0xf1, 0x09, 0xf2, 0x17, 0x22, 0x0a, 0xfc, 0xe0, 0x08, 0x0d,
  0xcc, 0xd8, 0xcd, 0x1e, 0xc3, 0xef, 0x00, 0x0a, 0xe3, 0xfd, 0xf8, 0xe3,
  0x39, 0x0a, 0x06, 0x15, 0xf1, 0x0c, 0xab, 0x15, 0x49, 0xd8, 0xfa, 0xc4,
  0xe2, 0xfb, 0xd9, 0xcd, 0xb9, 0x02, 0xfd, 0xf3, 0x3f, 0x10, 0xba, 0x29,
  0xd0, 0x00, 0xf4, 0x06, 0xe4, 0xc1, 0x1a, 0xcf, 0xda, 0xca, 0xbb, 0x05,
  0xf0, 0xe4, 0x24, 0xdb, 0xe4, 0x32, 0x2b, 0x0a, 0xea, 0x14, 0xfa, 0x0d,
  0xc2, 0x2a, 0xd5, 0x19, 0x01, 0xf3, 0x0f, 0x14, 0xd2, 0x13, 0xca, 0xf8,
  0x0a, 0xe4, 0xdf, 0xce, 0x2d, 0x1c, 0xda, 0x09, 0x0f, 0xf6, 0x0c, 0x12,
  0x27, 0x1a, 0xc3, 0x31, 0xbf, 0xef, 0xd7, 0xec, 0x2e, 0x2c, 0x19, 0x37,
  0xce, 0x28, 0xc1, 0xe7, 0xe3, 0x11, 0xdd, 0x1e, 0x16, 0xf7, 0xfc, 0x32,
  0x0a, 0xd7, 0xf1, 0xbb, 0xf4, 0x03, 0x12, 0xd6, 0xe5, 0xba, 0xef, 0x13,
  0x19, 0xcb, 0x0f, 0xca, 0xbc, 0xa6, 0x40, 0xbe, 0x13, 0x3d, 0xd2, 0xc9,
  0x43, 0x90, 0xb9, 0xcb, 0xff, 0xd4, 0xec, 0xa6, 0xe7, 0x77, 0xf6, 0xad,
  0x11, 0xca, 0xeb, 0x23, 0x0b, 0xaf, 0x22, 0x03, 0xe0, 0xec, 0xd3, 0xd4,
  0xed, 0xfa, 0xfb, 0x15, 0xc7, 0xca, 0xfd, 0xcf, 0xcc, 0xf1, 0x2b, 0x38,
  0x1c, 0xbd, 0x16, 0xe3, 0xc8, 0xdc, 0x20, 0xef, 0xbb, 0x04, 0x20, 0xdb,
  0xfc, 0x4e, 0x27, 0x01, 0xda, 0xef, 0xcd, 0xe8, 0xe0, 0x19, 0xde, 0x2d,
  0xa4, 0x13, 0x15, 0xeb, 0xf7, 0x02, 0xc1, 0x0e, 0xdd, 0xeb, 0x1f, 0x2b,
  0xf1, 0xf2, 0x3d, 0x11, 0xd1, 0xb7, 0x10, 0xec, 0xf0, 0xb0, 0xad, 0xe9,
  0xe3, 0x13, 0xe7, 0xd4, 0xf1, 0x52, 0x21, 0x34, 0xdf, 0x07, 0xbb, 0xf1,
  0xe5, 0x19, 0x05, 0x15, 0xbb, 0xf7, 0xec, 0x03, 0xe7, 0xf5, 0x20, 0xfd,
  0xe5, 0xc8, 0xf6, 0xf2, 0xba, 0xe0, 0xd8, 0x05, 0xc7, 0xe4, 0x2c, 0xfd,
  0xd9, 0xf6, 0x13, 0x15, 0xb0, 0xf9, 0x30, 0x2b, 0x3e, 0x4e, 0xe6, 0xc8,
  0x0a, 0xe2, 0x0e, 0x36, 0xe9, 0xf7, 0x06, 0x43, 0xc9, 0xb9, 0x05, 0x0e,
  0xd0, 0x3e, 0xf9, 0xf2, 0x0b, 0xc3, 0x07, 0x12, 0xe2, 0xc2, 0xf9, 0xf9,
  0xb6, 0xd0, 0x43, 0x05, 0xb9, 0x16, 0xe0, 0x20, 0xe6, 0x3a, 0x15, 0x1f,
  0xee, 0x38, 0x0e, 0xd0, 0xc5, 0x3e, 0x3b, 0x16, 0xef, 0xc8, 0xf2, 0x2a,
  0xb0, 0xca, 0x1d, 0xc4, 0x54, 0xf3, 0x01, 0xf4, 0xd9, 0x0d, 0x2e, 0x40,
  0x2a, 0x15, 0x04, 0xe2, 0xcf, 0x3d, 0x3f, 0xbc, 0x44, 0xfb, 0x24, 0x49,
  0x72, 0x1c, 0x06, 0xfd, 0x51, 0x07, 0xec, 0x04, 0xc8, 0xe5, 0x3e, 0x29,
  0x21, 0xea, 0x17, 0xec, 0x1d, 0xed, 0x17, 0x21, 0x0a, 0xf7, 0xd2, 0xe4,
  0xeb, 0xe2, 0xdf, 0x16, 0xbe, 0x15, 0xf8, 0xd2, 0xb5, 0x20, 0x0e, 0xf5,
  0x02, 0xff, 0xe0, 0x31, 0x3e, 0xe2, 0x08, 0xe1, 0xc3, 0xc6, 0xd1, 0xee,
  0x1b, 0x3c, 0x09, 0x08, 0x29, 0x04, 0x58, 0x05, 0x0c, 0x27, 0x14, 0xd0,
  0x19, 0xf8, 0x14, 0x02, 0x04, 0x13, 0x24, 0xe2, 0xf0, 0xd2, 0xec, 0x09,
  0xf5, 0xbc, 0xc3, 0xbe, 0xe4, 0xc3, 0xf2, 0xc4, 0x00, 0xcf, 0x37, 0x1e,
  0x0e, 0x0c, 0xca, 0xb5, 0x05, 0x33, 0x2b, 0x4f, 0xb7, 0x32, 0xee, 0x1b,
  0x2c, 0x15, 0xff, 0xff, 0xc1, 0xf5, 0xda, 0x06, 0xe7, 0xe6, 0xc0, 0x0d,
  0x10, 0xdb, 0xca, 0xf6, 0x24, 0x2e, 0x1a, 0xd5, 0x49, 0x2e, 0x1a, 0xb6,
  0x1f, 0xab, 0xb8, 0x19, 0xd1, 0xd0, 0xe2, 0x20, 0x06, 0x39, 0x06, 0x08,
  0xf5, 0xdd, 0xd7, 0xac, 0xec, 0xd7, 0xd1, 0x15, 0xe1, 0x45, 0xf8, 0xa3,
  0xe3, 0xd7, 0xe4, 0x32, 0xfd, 0xea, 0x02, 0xe0, 0xf7, 0x35, 0xbc, 0x07,
  0x13, 0xc3, 0xe3, 0xb7, 0xc8, 0xc2, 0xf3, 0xc7, 0x15, 0x2d, 0x40, 0x26,
  0xcf, 0xc9, 0x0f, 0xd6, 0xbc, 0x11, 0x2b, 0xf3, 0xf7, 0xab, 0xe3, 0xf3,
  0x14, 0x32, 0x0f, 0x2b, 0xb6, 0xc9, 0xf9, 0x06, 0x1a, 0xfb, 0x00, 0x22,
  0xab, 0xc0, 0x08, 0x1b, 0xc9, 0x37, 0xc7, 0xda, 0xf5, 0xf4, 0x16, 0x17,
  0xbc, 0x22, 0x24, 0xd1, 0x1d, 0xdb, 0x39, 0x32, 0x22, 0xea, 0xde, 0xfe,
  0xe2, 0x06, 0x04, 0x0f, 0xda, 0x4a, 0xdf, 0x45, 0x0d, 0xd2, 0xe5, 0x04,
  0xc3, 0x06, 0xf6, 0xec, 0x1c, 0x38, 0xc2, 0xc8, 0xd4, 0xfd, 0xd4, 0x05,
  0x14, 0x19, 0xcd, 0x1a, 0xeb, 0xc6, 0x55, 0xc4, 0x26, 0x27, 0x0e, 0xf2,
  0xf2, 0x10, 0xdd, 0x25, 0xd8, 0x06, 0x2d, 0x05, 0x1f, 0xe3, 0x11, 0x09,
  0x17, 0x09, 0x43, 0x11, 0xed, 0x3d, 0x24, 0xc6, 0xf4, 0xf9, 0x15, 0xf0,
  0xc8, 0xfe, 0xfa, 0x0e, 0xdc, 0x23, 0x40, 0xc9, 0xcb, 0xd1, 0xf7, 0x28,
  0xcf, 0x0a, 0x12, 0x24, 0xca, 0xe8, 0xdd, 0x1f, 0x0f, 0x40, 0x21, 0xf8,
  0xe4, 0xe8, 0xc0, 0xe5, 0xd0, 0x13, 0x02, 0xd1, 0xeb, 0xc0, 0x2a, 0xdc,
  0x07, 0xcf, 0x2a, 0xd8, 0x1f, 0xe8, 0x07, 0xfd, 0xc3, 0x02, 0x1d, 0xf7,
  0x03, 0xef, 0xdb, 0xdc, 0xe1, 0x10, 0xe8, 0x07, 0xb0, 0xcb, 0x0f, 0xc5,
  0xb9, 0x0c, 0xe6, 0x26, 0x09, 0xc4, 0xdb, 0xe7, 0x27, 0x44, 0x1e, 0xb7,
  0x00, 0x31, 0xcb, 0x33, 0xca, 0xd6, 0xd3, 0x2a, 0xdd, 0xe9, 0x05, 0x03,
  0x09, 0x45, 0x1e, 0x1d, 0x1f, 0x00, 0xdd, 0x41, 0xd0, 0xc8, 0x3e, 0xe4,
  0xc4, 0xf5, 0x01, 0x49, 0x01, 0xe1, 0xc6, 0x39, 0xea, 0xe2, 0x32, 0xe9,
  0xe0, 0x3b, 0x2e, 0xd6, 0x3c, 0xb7, 0x15, 0x1f, 0xca, 0xd8, 0x20, 0x0a,
  0x2b, 0xe9, 0xf7, 0x34, 0x21, 0x03, 0x27, 0xe7, 0xd7, 0xd3, 0x31, 0xf9,
  0x3e, 0xfd, 0xea, 0xe8, 0x2c, 0xfd, 0x10, 0x0e, 0x01, 0x37, 0xf7, 0xdf,
  0x1b, 0xd3, 0x05, 0xe1, 0x2e, 0xcf, 0x0f, 0xf2, 0xfc, 0xdd, 0x2e, 0x1c,
  0xef, 0x01, 0xc9, 0x17, 0x2c, 0xba, 0x0f, 0xe0, 0x2e, 0xf4, 0x1a, 0xba,
  0xff, 0xb7, 0xcb, 0x08, 0x01, 0x1b, 0x26, 0x0d, 0xee, 0x35, 0x28, 0x41,
  0xd3, 0xdf, 0x35, 0x11, 0xf9, 0xee, 0x30, 0xd0, 0xe8, 0x28, 0xdd, 0x08,
  0x0d, 0xf6, 0x34, 0xe2, 0xda, 0x1a, 0x30, 0x03, 0x0d, 0x39, 0x37, 0xfa,
  0x1c, 0xe8, 0x37, 0xee, 0x19, 0x02, 0xc3, 0x35, 0x1e, 0xed, 0x37, 0x33,
  0xda, 0x25, 0x34, 0x3a, 0xd6, 0xec, 0xeb, 0xdc, 0x3c, 0x37, 0x39, 0x18,
  0xc6, 0x00, 0xd8, 0x55, 0xf2, 0xda, 0x09, 0x33, 0xc0, 0x3a, 0x02, 0x32,
  0xd2, 0x54, 0x57, 0x02, 0xfa, 0x25, 0xe7, 0x27, 0xd1, 0x35, 0x19, 0xe1,
  0x00, 0xc8, 0x48, 0xf9, 0xf3, 0x40, 0x16, 0x15, 0x20, 0xe4, 0xfe, 0x33,
  0xce, 0x2d, 0xff, 0x1f, 0x13, 0xe5, 0xdb, 0xce, 0xfc, 0xc8, 0x19, 0xd6,
  0x0b, 0x43, 0x3c, 0xe3, 0x2e, 0x4a, 0xdd, 0x0d, 0xf8, 0xcc, 0x16, 0x37,
  0x3f, 0xf1, 0x12, 0xec, 0x3d, 0x52, 0x37, 0x5b, 0xcc, 0x2d, 0x10, 0x3c,
  0xd9, 0x13, 0xd9, 0x06, 0xc9, 0xf3, 0xfe, 0xf9, 0xc6, 0x92, 0x19, 0x0e,
  0xf0, 0xc9, 0x31, 0x4b, 0xd2, 0x4f, 0x0e, 0x16, 0x16, 0x09, 0x2d, 0xef,
  0x2b, 0xd7, 0x3b, 0xcb, 0x4b, 0xe9, 0xde, 0xef, 0x3f, 0xe4, 0x03, 0xf6,
  0x11, 0xe1, 0x1c, 0x2d, 0x25, 0x23, 0x11, 0x02, 0xbb, 0x3c, 0xab, 0xf2,
  0xf3, 0xbf, 0xff, 0xbf, 0xdb, 0x27, 0xc5, 0x14, 0x0f, 0xce, 0xeb, 0xba,
  0xef, 0xda, 0xb5, 0xad, 0xdd, 0x36, 0xeb, 0xbc, 0xe4, 0x02, 0xf5, 0x0e,
  0xdf, 0xfd, 0x1f, 0x11, 0x4c, 0xd9, 0x49, 0x1a, 0xd4, 0x09, 0x22, 0x10,
  0xbf, 0xe2, 0xe1, 0xf7, 0xcc, 0x0b, 0xb4, 0xbe, 0xcc, 0xe8, 0xed, 0xe2,
  0xb9, 0xdb, 0xe9, 0xe7, 0xd4, 0x28, 0x10, 0x05, 0xd4, 0xc5, 0x41, 0xd2,
  0xb0, 0x01, 0xfc, 0x33, 0xbe, 0xdf, 0x17, 0x22, 0x0e, 0xf6, 0xfa, 0xb9,
  0xf1, 0xcc, 0x2a, 0xfd, 0xd4, 0xe6, 0x1f, 0x24, 0x05, 0xdb, 0x0e, 0x2d,
  0xbc, 0xe8, 0x32, 0x12, 0xe2, 0x9f, 0x1c, 0x4f, 0x32, 0x22, 0xd4, 0x09,
  0xeb, 0xd3, 0xed, 0x2f, 0x19, 0xb0, 0x48, 0x13, 0x17, 0x2d, 0x1a, 0xdd,
  0x09, 0x34, 0xd3, 0xfd, 0xd7, 0x21, 0xcc, 0xf6, 0xcb, 0x12, 0x1b, 0xd2,
  0xdf, 0xa1, 0xf9, 0xbd, 0x1b, 0xce, 0x48, 0x25, 0x06, 0xf1, 0xa4, 0xbe,
  0x01, 0x40, 0x12, 0xf1, 0xff, 0xab, 0x28, 0xae, 0xd8, 0x91, 0x25, 0xee,
  0x2d, 0xc1, 0x08, 0xc8, 0xc1, 0x05, 0xc0, 0x0b, 0x18, 0x12, 0xf1, 0x34,
  0xe6, 0xf6, 0x0c, 0xe0, 0x17, 0x67, 0xd2, 0xca, 0x11, 0xb4, 0xcf, 0x13,
  0xa7, 0xed, 0x0f, 0xe0, 0xec, 0x48, 0x0b, 0xc2, 0xd0, 0xd2, 0x09, 0x2b,
  0x20, 0xb2, 0xc7, 0x30, 0xd4, 0x1f, 0xf7, 0x0e, 0x2d, 0xf8, 0xff, 0x17,
  0xd0, 0x10, 0xcc, 0xe3, 0xe1, 0x14, 0x4e, 0x34, 0xf9, 0xfb, 0xe0, 0x3f,
  0xb3, 0x28, 0x0b, 0xe8, 0xfa, 0x2f, 0xc8, 0x11, 0xcc, 0x49, 0x15, 0xfb,
  0x3c, 0x18, 0xed, 0x45, 0x21, 0xed, 0xcd, 0xfd, 0x11, 0xe6, 0xe8, 0x42,
  0x47, 0x2a, 0xc0, 0xd3, 0xec, 0xe8, 0x0a, 0x33, 0xf4, 0xf0, 0x12, 0x3c,
  0xcf, 0xe3, 0xea, 0x04, 0xf4, 0xee, 0xca, 0x14, 0xbe, 0x1d, 0x13, 0x22,
  0x09, 0xf8, 0xee, 0x0c, 0xac, 0xfe, 0x02, 0xee, 0xe0, 0x14, 0x24, 0x6d,
  0xec, 0x2f, 0x0e, 0x38, 0x14, 0x57, 0x22, 0xf1, 0xfb, 0x15, 0x75, 0x2b,
  0xd0, 0xf9, 0x34, 0xf2, 0xf9, 0x2a, 0x4e, 0x5a, 0x15, 0x44, 0x3c, 0xfd,
  0xfa, 0x07, 0x0c, 0xe8, 0xad, 0xbf, 0xb2, 0xe2, 0x26, 0x03, 0x09, 0xeb,
  0xec, 0xe8, 0x08, 0xfb, 0xd3, 0x22, 0xdb, 0xd0, 0x14, 0xd2, 0xf9, 0x04,
  0xd4, 0xf1, 0x49, 0xc5, 0x29, 0xfd, 0xfb, 0xda, 0xe0, 0x18, 0x11, 0x27,
  0x34, 0x20, 0xc1, 0xd6, 0x34, 0xbb, 0x2e, 0x0b, 0x00, 0xcd, 0xce, 0xd5,
  0xef, 0xd7, 0xcd, 0xf7, 0x0e, 0xf9, 0xa1, 0xc9, 0x01, 0x0b, 0x0c, 0x13,
  0xf9, 0xe8, 0x2b, 0x33, 0xd7, 0x0d, 0x08, 0xc8, 0x17, 0x08, 0xf3, 0x16,
  0x0c, 0xc5, 0xc0, 0x05, 0x02, 0x21, 0x08, 0x25, 0xf3, 0xc5, 0x23, 0xaf,
  0xfc, 0xd1, 0xdf, 0x21, 0x1e, 0x25, 0x18, 0x0b, 0x1b, 0x1b, 0xd0, 0xbf,
  0x25, 0x33, 0x17, 0xd1, 0x04, 0xf8, 0x19, 0x03, 0xe3, 0x2b, 0x1b, 0xe4,
  0xc1, 0x62, 0x44, 0xd8, 0xea, 0x07, 0x15, 0x22, 0xdd, 0xb6, 0x30, 0xe0,
  0x1f, 0xef, 0xff, 0x17, 0xfc, 0x02, 0xdf, 0x25, 0xc8, 0x0f, 0xbd, 0xe2,
  0xe9, 0xf2, 0xe6, 0x32, 0xd6, 0xfa, 0xea, 0x0a, 0xac, 0x33, 0xe9, 0xd5,
  0xe9, 0x1c, 0xd1, 0x34, 0xc0, 0x3d, 0x48, 0xca, 0xf5, 0x25, 0xef, 0x3a,
  0xf1, 0xe2, 0xa6, 0xbc, 0xc7, 0xf6, 0x14, 0x07, 0x1d, 0x2e, 0x03, 0x04,
  0x14, 0xf0, 0x1b, 0x1a, 0xce, 0x13, 0x38, 0x4a, 0xec, 0x1c, 0xe0, 0x20,
  0x0a, 0xe6, 0xe1, 0x1d, 0xf3, 0x08, 0xc8, 0xfe, 0xf0, 0xe4, 0x3f, 0xd2,
  0xcb, 0xf5, 0x46, 0x22, 0xcf, 0x1d, 0x11, 0xf7, 0x16, 0x2c, 0x32, 0x1d,
  0x11, 0x29, 0x08, 0xd8, 0xc6, 0x01, 0x2d, 0xf3, 0xee, 0xd6, 0xd1, 0xdd,
  0xe9, 0xcc, 0x21, 0x2f, 0xf2, 0xc1, 0xb9, 0x22, 0x02, 0x05, 0x22, 0x1e,
  0x35, 0xa3, 0xd7, 0x1d, 0x0c, 0xe7, 0x12, 0xf4, 0xe8, 0xf5, 0x2f, 0xcf,
  0x01, 0x0c, 0x02, 0x27, 0x17, 0xc4, 0x23, 0xd6, 0xfa, 0xc4, 0xe6, 0x28,
  0x04, 0x01, 0x5b, 0x08, 0xe8, 0xfa, 0xe0, 0xbe, 0x16, 0x00, 0xd8, 0x06,
  0x27, 0x2c, 0x36, 0x3c, 0x29, 0xf6, 0x00, 0xe3, 0x30, 0xc8, 0x3b, 0xc1,
  0x02, 0xd6, 0xc1, 0xd0, 0x33, 0xfc, 0x05, 0xf5, 0x10, 0xd6, 0xe7, 0xb9,
  0x12, 0x20, 0xeb, 0xf4, 0xfd, 0x2e, 0xf5, 0x36, 0x32, 0x1a, 0xff, 0x15,
  0x6b, 0x1c, 0x04, 0x26, 0x14, 0xf9, 0x14, 0x38, 0xf2, 0xde, 0xf0, 0x32,
  0xde, 0x13, 0xd6, 0xc9, 0x3f, 0xd9, 0xc3, 0x0c, 0xf0, 0xb0, 0xc2, 0xea,
  0x24, 0x36, 0xf0, 0xd0, 0xe7, 0x1d, 0xe2, 0x06, 0xfb, 0x05, 0xed, 0x03,
  0xd7, 0x07, 0x0f, 0x1e, 0xd5, 0x15, 0x3c, 0x42, 0xd4, 0x12, 0x01, 0xea,
  0x03, 0x1f, 0x31, 0x15, 0xe6, 0x19, 0xe7, 0x1a, 0xe9, 0x13, 0x0b, 0xf7,
  0xd9, 0x39, 0x15, 0x1f, 0xe6, 0x0d, 0xe2, 0xde, 0xed, 0xe0, 0x14, 0x03,
  0x25, 0x38, 0xfe, 0x25, 0x1f, 0x5e, 0x2d, 0x46, 0x2e, 0x21, 0x18, 0x46,
  0xdf, 0x1c, 0xe3, 0x43, 0xfd, 0x28, 0x10, 0x1f, 0x0c, 0xd5, 0xf9, 0xad,
  0x25, 0x04, 0x2b, 0x2a, 0xed, 0x3e, 0x02, 0xea, 0xb1, 0x18, 0x3e, 0x16,
  0x47, 0x3b, 0x08, 0x16, 0x04, 0x0a, 0xee, 0x05, 0x06, 0xe3, 0x12, 0x22,
  0x38, 0xd1, 0x43, 0x1e, 0xcc, 0x22, 0x33, 0x1c, 0x1c, 0x07, 0xee, 0x23,
  0xed, 0x32, 0x27, 0x1d, 0x39, 0xd1, 0xf8, 0xf7, 0x15, 0xd9, 0x13, 0xb8,
  0xef, 0x35, 0xdf, 0x33, 0xf2, 0xef, 0xe6, 0xe0, 0x1c, 0x15, 0x12, 0x09,
  0xc2, 0x0a, 0x06, 0xcd, 0x23, 0xce, 0xc1, 0xda, 0xd6, 0xf7, 0x05, 0x18,
  0xc1, 0x00, 0xfa, 0xff, 0xff, 0xce, 0xe7, 0xee, 0x00, 0xe0, 0x1b, 0xf4,
  0xf0, 0x1a, 0x0b, 0xd4, 0xe2, 0x10, 0x0e, 0xe2, 0x15, 0x02, 0xe5, 0xfd,
  0xe3, 0xb9, 0x12, 0xce, 0x04, 0x02, 0x23, 0x29, 0xde, 0xfd, 0x06, 0xd2,
  0xe9, 0xd1, 0x3f, 0xc9, 0xe8, 0xb4, 0x0d, 0x45, 0x00, 0xfd, 0x16, 0x0d,
  0xcf, 0x09, 0xbe, 0x26, 0xda, 0xd6, 0xd8, 0xdc, 0x0c, 0xc8, 0x0e, 0xc0,
  0x04, 0xb9, 0xf3, 0x3d, 0x03, 0x1e, 0x02, 0x40, 0xe5, 0x43, 0x37, 0xd3,
  0x2b, 0x35, 0xd1, 0x28, 0xaf, 0xf3, 0x3f, 0x01, 0xbe, 0xe2, 0x2a, 0x2e,
  0x19, 0x0a, 0x0f, 0x02, 0x15, 0x00, 0xcd, 0xf9, 0x06, 0x16, 0x27, 0x40,
  0x1e, 0xe8, 0x15, 0x49, 0x3b, 0xef, 0x2f, 0xdd, 0xc7, 0x35, 0x1a, 0x0c,
  0xd7, 0x57, 0xdc, 0x21, 0x1b, 0xe5, 0x2c, 0xfe, 0x3a, 0xe2, 0x0d, 0xd7,
  0x2f, 0xfe, 0x2e, 0xfa, 0x2d, 0xe8, 0x2b, 0x22, 0x32, 0xd8, 0xed, 0xbc,
  0xf0, 0xd5, 0xd5, 0x19, 0x4c, 0x0c, 0x14, 0x43, 0x1f, 0x12, 0xe7, 0xad,
  0xfd, 0xf2, 0x00, 0xa2, 0x44, 0x06, 0x4d, 0xf7, 0x0a, 0xbd, 0xdc, 0x0d,
  0x36, 0xce, 0xee, 0x17, 0x3a, 0xd2, 0xda, 0x12, 0x27, 0x4f, 0x0a, 0x28,
  0x2c, 0x17, 0x1a, 0x0b, 0x6c, 0xcb, 0x1d, 0xf3, 0x26, 0xdc, 0xf3, 0x49,
  0x51, 0x0b, 0xb2, 0xc3, 0x4c, 0xb4, 0xa9, 0xd8, 0x18, 0xf9, 0xe6, 0xc0,
  0x0a, 0xb4, 0x11, 0xf5, 0xc5, 0xdf, 0xb9, 0xc6, 0xcc, 0xe3, 0x15, 0xbc,
  0x25, 0x67, 0xed, 0xd5, 0x0c, 0xdb, 0x0c, 0xd3, 0x9a, 0xd4, 0xcb, 0xd7,
  0xc9, 0x3d, 0x17, 0xd0, 0xe2, 0xb7, 0x24, 0x10, 0x35, 0x3c, 0x25, 0x16,
  0x0c, 0xf7, 0x0f, 0xf9, 0xd4, 0x11, 0x16, 0x1b, 0xa7, 0x05, 0xc7, 0xc9,
  0xf9, 0x23, 0x54, 0x51, 0xca, 0xaf, 0xe3, 0x01, 0xa7, 0xf2, 0x3e, 0xef,
  0xff, 0xd5, 0xfa, 0x26, 0xde, 0xdf, 0xf3, 0x2b, 0x03, 0x1b, 0x15, 0xbb,
  0x03, 0xca, 0x19, 0x10, 0xbe, 0x0d, 0x0d, 0x10, 0x32, 0xef, 0xd5, 0x06,
  0x14, 0xdb, 0x09, 0x10, 0xe6, 0xf8, 0x3d, 0x48, 0xcc, 0x50, 0x1d, 0x3e,
  0xc2, 0xbc, 0xfa, 0x30, 0x2d, 0x0d, 0x2b, 0x2d, 0x2a, 0x27, 0xc8, 0xf7,
  0xf6, 0x2d, 0x14, 0x25, 0x3d, 0xf4, 0xf8, 0xe2, 0x06, 0xfd, 0xdf, 0xe8,
  0xc6, 0x46, 0x13, 0xcf, 0xfa, 0xb2, 0xe4, 0x0b, 0x4e, 0xf1, 0x3a, 0xd4,
  0xdc, 0xc3, 0xe4, 0xc6, 0xb1, 0xd3, 0xd1, 0x19, 0xc6, 0x2b, 0x2b, 0x0a,
  0xe7, 0x37, 0x0f, 0x2f, 0xfe, 0xf3, 0xe8, 0x21, 0xd6, 0x06, 0xb9, 0x1b,
  0xc2, 0x2b, 0xd0, 0x34, 0x11, 0x12, 0xfd, 0x0c, 0xb6, 0xe2, 0xff, 0x29,
  0x6a, 0xf0, 0x03, 0x1a, 0x01, 0x27, 0x34, 0x4b, 0x2a, 0x11, 0xc7, 0x0e,
  0xf5, 0x21, 0xe4, 0x4c, 0xf2, 0xf9, 0x08, 0xef, 0xfa, 0x24, 0x0c, 0x3f,
  0xf9, 0x05, 0xe8, 0x25, 0x4d, 0x5e, 0x35, 0x48, 0x17, 0x38, 0x21, 0x3e,
  0xac, 0x06, 0x0a, 0xd2, 0xbd, 0xca, 0x19, 0xeb, 0x06, 0x2b, 0x50, 0xfc,
  0x3f, 0xe6, 0xd2, 0x31, 0x0e, 0x44, 0x4b, 0x2c, 0xfb, 0xc2, 0x14, 0x0a,
  0x21, 0x14, 0xe3, 0x0b, 0xed, 0xfb, 0xf0, 0xc2, 0x05, 0xdb, 0x07, 0xfa,
  0x21, 0x03, 0xfb, 0x08, 0xb0, 0xf9, 0x1b, 0x22, 0x1d, 0xfa, 0x03, 0x19,
  0xb9, 0x29, 0xe2, 0xfc, 0x12, 0x07, 0x32, 0xf2, 0x97, 0x88, 0xfa, 0xf2,
  0xfb, 0xdc, 0xc9, 0xec, 0xf9, 0xdb, 0x1d, 0x2c, 0x10, 0x2f, 0x07, 0x1d,
  0xd5, 0x21, 0xf4, 0xe6, 0xfd, 0xda, 0x11, 0x39, 0xeb, 0xe3, 0x2a, 0x1f,
  0xf9, 0x20, 0x1d, 0x11, 0xe1, 0x10, 0x41, 0x42, 0x98, 0x03, 0xff, 0x03,
  0x4b, 0xd8, 0xf3, 0xe0, 0xff, 0xc5, 0xdd, 0xd8, 0x4f, 0x00, 0xf1, 0xea,
  0x48, 0x1d, 0xd8, 0x21, 0xe6, 0x07, 0xeb, 0x10, 0xfa, 0xe1, 0xf4, 0x0d,
  0x0f, 0x23, 0x0f, 0xeb, 0xfa, 0xfc, 0x21, 0x41, 0x00, 0x00, 0x00, 0x00,
  0x2e, 0xdd, 0xff, 0xff, 0x04, 0x00, 0x00, 0x00, 0x00, 0x07, 0x00, 0x00,
  0x3e, 0x0d, 0x7e, 0x36, 0xfe, 0xc1, 0x32, 0xf4, 0x78, 0xe2, 0x17, 0x23,
  0x20, 0xfc, 0xed, 0xce, 0x33, 0x31, 0x36, 0x2e, 0xdb, 0x4b, 0x08, 0xec,
  0x05, 0x42, 0x05, 0x21, 0xeb, 0x3d, 0x11, 0x0e, 0x1b, 0x3f, 0xab, 0xfe,
  0x55, 0xe8, 0x2e, 0xb7, 0xaa, 0x1f, 0xf2, 0xaf, 0xb2, 0xea, 0xfc, 0x6d,
  0xc8, 0xc3, 0xc6, 0x17, 0xf5, 0xcb, 0x6b, 0xe8, 0x81, 0x73, 0x11, 0xbd,
  0xe7, 0xa3, 0x07, 0x89, 0xff, 0xb1, 0x9e, 0x3f, 0x56, 0x87, 0xfd, 0xea,
  0xc9, 0xa0, 0x0f, 0x1a, 0x30, 0xfa, 0x47, 0xa7, 0xd4, 0x02, 0x0a, 0x02,
  0x48, 0xfe, 0xf0, 0xae, 0xab, 0x0c, 0xff, 0x62, 0x0a, 0xa4, 0x4c, 0x12,
  0x0c, 0xed, 0x30, 0xc3, 0xfc, 0x23, 0x3b, 0xe5, 0x2e, 0x17, 0x1b, 0xc6,
  0x08, 0x43, 0xc0, 0x51, 0x0d, 0xce, 0x11, 0xad, 0xd1, 0x14, 0x65, 0xfa,
  0xf7, 0xda, 0xcb, 0x00, 0x40, 0xbc, 0x0b, 0x86, 0x53, 0xe5, 0x20, 0x08,
  0x63, 0xc2, 0xd3, 0x34, 0x02, 0xd4, 0x03, 0x01, 0xf7, 0xd6, 0x43, 0xf3,
  0xdb, 0xe0, 0xe9, 0x1f, 0x40, 0x2d, 0xee, 0x24, 0x42, 0x19, 0x33, 0x55,
  0x07, 0xfc, 0xf1, 0x1f, 0x1e, 0xdb, 0x49, 0x13, 0x47, 0x45, 0x07, 0x22,
  0xbb, 0xad, 0x05, 0x2b, 0xab, 0x44, 0x26, 0x71, 0x26, 0x93, 0x11, 0x46,
  0x3c, 0x92, 0xec, 0xdb, 0x3d, 0xfd, 0xdf, 0x34, 0x02, 0xe7, 0xff, 0x01,
  0xa7, 0x18, 0x66, 0xeb, 0x3e, 0xd5, 0xd8, 0xe6, 0xb9, 0xd4, 0x09, 0x10,
  0x00, 0x0c, 0xcd, 0xfe, 0x01, 0x4a, 0xc4, 0xd4, 0xbd, 0x38, 0xc6, 0xc2,
  0x19, 0xe9, 0x0b, 0x2c, 0x19, 0xa5, 0xf3, 0x39, 0xe8, 0xfc, 0xf7, 0x10,
  0x1c, 0x14, 0xe7, 0xa3, 0x2e, 0xdd, 0x46, 0x00, 0x96, 0xaa, 0x53, 0x3f,
  0xef, 0xfa, 0xd6, 0x9b, 0x41, 0x2a, 0x4b, 0x05, 0xbc, 0xf6, 0x39, 0xe7,
  0xf1, 0x2b, 0x32, 0xaf, 0x14, 0x26, 0x33, 0xa9, 0x29, 0x2a, 0xe0, 0x28,
  0x2c, 0x29, 0x0d, 0x4e, 0x21, 0x0f, 0xb8, 0xfc, 0x18, 0x46, 0xf7, 0xfb,
  0xd1, 0x45, 0xab, 0xf9, 0x2e, 0x2e, 0xee, 0x2c, 0xab, 0x07, 0xc3, 0xe9,
  0x58, 0xa1, 0xf3, 0xdb, 0x1c, 0x29, 0x05, 0x12, 0xfa, 0xdf, 0x23, 0x4b,
  0xcc, 0xdc, 0x0a, 0x10, 0x26, 0x30, 0x24, 0x51, 0x47, 0xfb, 0x4d, 0x2f,
  0xdf, 0xd5, 0xe2, 0xd6, 0xf8, 0x3b, 0xda, 0xcf, 0x0a, 0x1f, 0xf4, 0xed,
  0x2e, 0x22, 0x21, 0xd3, 0x0a, 0xeb, 0x05, 0xf1, 0x0c, 0xd2, 0xe2, 0xf1,
  0xc1, 0xf9, 0xc2, 0x3c, 0x0e, 0x31, 0x00, 0x0f, 0x10, 0xbd, 0x4a, 0xfc,
  0x38, 0x2e, 0x11, 0x29, 0x0d, 0x13, 0xe5, 0x0c, 0xec, 0x16, 0x30, 0xef,
  0xac, 0xd5, 0x46, 0xdb, 0x4c, 0xc8, 0xf3, 0xf1, 0x37, 0x31, 0x0f, 0xdb,
  0xce, 0x11, 0xbb, 0x21, 0x44, 0x0c, 0xff, 0xc5, 0x33, 0x10, 0x3b, 0xae,
  0xe1, 0x5c, 0x15, 0x15, 0x09, 0x44, 0xde, 0x61, 0x0e, 0x06, 0x0b, 0x5b,
  0x61, 0xdd, 0xf9, 0xfe, 0x5a, 0x4e, 0xcd, 0xc0, 0x0b, 0x75, 0x0c, 0xe7,
  0x20, 0xa4, 0xc5, 0xb3, 0xfd, 0x4b, 0xde, 0x00, 0x2c, 0x96, 0xb2, 0x2e,
  0x0d, 0xba, 0x4c, 0xd4, 0x04, 0x48, 0x01, 0xd1, 0x17, 0x21, 0x38, 0xc5,
  0x02, 0xfc, 0xe8, 0x2a, 0x21, 0x1d, 0x0d, 0x30, 0xd3, 0xca, 0x24, 0x04,
  0xf7, 0x28, 0xb1, 0xf0, 0xc5, 0xb3, 0x02, 0xb8, 0xfe, 0xc7, 0xf3, 0x2d,
  0x36, 0xe5, 0x53, 0xe1, 0x5e, 0x3b, 0x04, 0x4d, 0x21, 0xfa, 0x69, 0xf3,
  0xb7, 0x30, 0xe0, 0xd5, 0x03, 0xfb, 0xab, 0x35, 0x1d, 0x0b, 0xbb, 0x0c,
  0xd7, 0x0a, 0xb7, 0xed, 0xf2, 0xdb, 0xa8, 0xe8, 0xcd, 0x3f, 0x11, 0xcc,
  0x35, 0x2f, 0x61, 0x5a, 0xb2, 0x13, 0x24, 0x06, 0x18, 0x90, 0x62, 0x4d,
  0x0b, 0xcb, 0xfa, 0xf0, 0xc9, 0xdf, 0x2e, 0xdd, 0xae, 0x02, 0x0d, 0xe7,
  0xfb, 0x27, 0x07, 0xd1, 0xfc, 0xc8, 0xa0, 0x1d, 0x3f, 0xb0, 0x05, 0x1f,
  0x0a, 0xa9, 0x36, 0xf0, 0x28, 0xfc, 0xfc, 0x09, 0x64, 0xf8, 0x29, 0x32,
  0xf8, 0xcd, 0x3a, 0xdd, 0x3d, 0x14, 0xe3, 0xe7, 0x09, 0x37, 0xdf, 0xe8,
  0xd8, 0xcc, 0xd7, 0x0a, 0x11, 0x49, 0xc8, 0x46, 0xd6, 0xc9, 0x38, 0x01,
  0xef, 0x20, 0xc6, 0xe2, 0xb4, 0xcf, 0x2e, 0xff, 0x3b, 0x42, 0x29, 0xc1,
  0x14, 0xbc, 0x23, 0x43, 0x3b, 0x16, 0xca, 0xed, 0xa3, 0x28, 0x33, 0xf6,
  0xd7, 0xc6, 0x6a, 0x17, 0x11, 0xde, 0xce, 0xc7, 0xeb, 0xdd, 0x28, 0x19,
  0x08, 0x15, 0xc4, 0xd6, 0x1a, 0x44, 0x10, 0xa7, 0x31, 0x32, 0x24, 0xd6,
  0x3e, 0xb4, 0xea, 0x4a, 0x41, 0xdd, 0xde, 0x4a, 0xf8, 0x21, 0x16, 0xce,
  0x36, 0xb0, 0xb0, 0xa8, 0x4a, 0xc8, 0x28, 0xc9, 0x2a, 0x21, 0x04, 0xfc,
  0xed, 0xaf, 0xf4, 0x22, 0x38, 0xea, 0xf5, 0xec, 0xe6, 0x2f, 0x12, 0x22,
  0xf6, 0x34, 0x38, 0xcc, 0xb7, 0x57, 0xe9, 0x24, 0xcb, 0xbf, 0xdc, 0xde,
  0x2f, 0xae, 0x2d, 0xb0, 0xfd, 0xea, 0x18, 0xa1, 0x30, 0x27, 0xd9, 0x2e,
  0xe4, 0xa3, 0xe9, 0x07, 0x08, 0x65, 0xe1, 0x1b, 0xd7, 0xbc, 0x25, 0x41,
  0x17, 0xb6, 0xda, 0xce, 0xc2, 0x0f, 0x4b, 0xbd, 0xee, 0xa1, 0x05, 0xda,
  0x56, 0xa8, 0x20, 0x22, 0x61, 0x45, 0x6e, 0xfd, 0x2e, 0x03, 0x49, 0xf6,
  0x13, 0x03, 0x02, 0x1e, 0x1a, 0xd9, 0xcf, 0xff, 0x25, 0xc9, 0xd0, 0x37,
  0xf3, 0x3d, 0xb0, 0xbd, 0x57, 0xe6, 0xe6, 0xd8, 0x2d, 0xba, 0x4c, 0xd3,
  0x11, 0x29, 0x14, 0x28, 0xdc, 0x24, 0x24, 0x20, 0xfc, 0x04, 0x2e, 0x08,
  0x12, 0x73, 0xfe, 0x0d, 0xff, 0xcd, 0x04, 0x84, 0xcb, 0x59, 0x15, 0x17,
  0x2a, 0x54, 0xea, 0x05, 0x2b, 0xa3, 0xd6, 0xda, 0xd3, 0x0b, 0xd1, 0x1a,
  0x13, 0x10, 0xed, 0xcc, 0xef, 0x1c, 0xeb, 0xc7, 0x46, 0x21, 0x41, 0xda,
  0x3a, 0xfe, 0x21, 0xc9, 0x12, 0x24, 0x0e, 0x3c, 0xbc, 0xca, 0x8b, 0xef,
  0x1b, 0xe4, 0x1e, 0xdd, 0xf5, 0xd1, 0xee, 0x2e, 0xb1, 0xc4, 0xf8, 0xf1,
  0xff, 0x3c, 0x25, 0xc3, 0x9f, 0xea, 0xdf, 0x4f, 0x5f, 0x5e, 0x4b, 0xbd,
  0x56, 0xdc, 0x4b, 0x2f, 0xbc, 0xce, 0xf5, 0x29, 0x47, 0x36, 0xfb, 0x1c,
  0x2d, 0x96, 0x17, 0xb3, 0xc7, 0x10, 0xb0, 0x0a, 0x5d, 0xb9, 0xad, 0x02,
  0x71, 0x2a, 0x33, 0x9d, 0x5b, 0x26, 0xd8, 0x27, 0x62, 0xbf, 0x52, 0x21,
  0xa8, 0xe7, 0x00, 0x2a, 0xc2, 0xf9, 0xd2, 0x57, 0x35, 0xff, 0xa6, 0xde,
  0x19, 0xfe, 0x29, 0x03, 0x01, 0x3b, 0xe8, 0xb1, 0x04, 0xea, 0x1d, 0x0d,
  0xf7, 0xd2, 0xd3, 0x57, 0xfa, 0xf5, 0xc3, 0x17, 0xe7, 0x98, 0x1c, 0x1f,
  0x33, 0x3d, 0x51, 0xd1, 0x03, 0x12, 0x28, 0xc5, 0x0f, 0xb4, 0xb7, 0xd2,
  0x4d, 0x15, 0x1a, 0xc9, 0xd6, 0x06, 0xc9, 0xc1, 0x40, 0x01, 0xb4, 0xa7,
  0x1a, 0x15, 0xf5, 0xd5, 0xe8, 0x7d, 0x32, 0xdb, 0xc5, 0x18, 0xca, 0x13,
  0xe2, 0x00, 0x1a, 0x46, 0xe0, 0xc3, 0xbe, 0xb8, 0x49, 0xf2, 0xdf, 0xdc,
  0xe8, 0xf2, 0xd0, 0xed, 0x0f, 0x18, 0xad, 0x1a, 0xf7, 0x19, 0xe7, 0x2b,
  0x11, 0x0e, 0x20, 0xfd, 0x34, 0x05, 0xf5, 0xe6, 0x30, 0xf0, 0x0a, 0x3f,
  0x23, 0x10, 0xef, 0x21, 0xbb, 0x05, 0x01, 0x22, 0xd4, 0xcb, 0xbb, 0xdb,
  0x3e, 0xd4, 0x24, 0x46, 0xf7, 0xa5, 0xda, 0x4c, 0xc1, 0xe5, 0xdb, 0x2e,
  0xc2, 0x7b, 0xea, 0xcc, 0x07, 0xc0, 0xe3, 0xfa, 0xce, 0x41, 0xe3, 0x36,
  0xca, 0xb4, 0xcd, 0x14, 0x34, 0xd2, 0x12, 0x09, 0xa7, 0xb9, 0xe6, 0xea,
  0xb6, 0xfa, 0x27, 0x37, 0xff, 0xd2, 0x9c, 0xb8, 0x0f, 0x50, 0xf2, 0xcc,
  0xcf, 0x43, 0xfb, 0xfe, 0x04, 0xed, 0xff, 0x9b, 0xad, 0x20, 0x4f, 0x3c,
  0xc9, 0xa1, 0x60, 0x27, 0x2d, 0x42, 0xb1, 0xcb, 0x51, 0x5e, 0x46, 0xd9,
  0x40, 0xd9, 0xe7, 0x46, 0x1b, 0x3f, 0xa7, 0xd2, 0x2e, 0x14, 0xce, 0xb7,
  0xd3, 0x01, 0xdc, 0x03, 0x1e, 0x50, 0xd2, 0xf7, 0xdb, 0x51, 0xda, 0xae,
  0x2a, 0xc4, 0xb9, 0x1b, 0x5d, 0xef, 0xfd, 0x11, 0x2c, 0xe7, 0x05, 0x3c,
  0xda, 0xa8, 0x29, 0xbc, 0x15, 0x42, 0x14, 0x16, 0x57, 0xf4, 0xc4, 0xfc,
  0xd5, 0x0c, 0x1c, 0x20, 0xef, 0x13, 0x28, 0xc2, 0xef, 0x1f, 0xef, 0x38,
  0xbd, 0x08, 0xef, 0x26, 0x23, 0x0a, 0xf0, 0xd3, 0x33, 0x14, 0x03, 0x12,
  0x10, 0x1f, 0x2a, 0xc9, 0xf1, 0x07, 0xe9, 0xc7, 0x14, 0xcc, 0xe7, 0x1d,
  0x45, 0xb0, 0x3c, 0x2f, 0xf0, 0x34, 0xcf, 0xcb, 0xec, 0xf2, 0xf8, 0xb1,
  0x25, 0xf0, 0xe7, 0xd7, 0x5c, 0x11, 0xe9, 0x53, 0x3c, 0xd1, 0x13, 0x19,
  0x18, 0x3d, 0xfe, 0x27, 0xb6, 0x47, 0xf1, 0x55, 0xd5, 0xcf, 0xf9, 0x3a,
  0xfb, 0x26, 0xec, 0x25, 0x06, 0x43, 0x38, 0x2e, 0x2c, 0x0d, 0xdd, 0x62,
  0x45, 0x1e, 0xe7, 0x17, 0xcc, 0x44, 0xd6, 0x06, 0x2c, 0xe4, 0xa6, 0x24,
  0x3d, 0x12, 0xd2, 0x14, 0x48, 0xed, 0x47, 0x31, 0x0d, 0xfd, 0x35, 0x21,
  0xee, 0xd7, 0x1b, 0xdf, 0xdb, 0xed, 0x35, 0x43, 0xe8, 0x4b, 0x11, 0xd0,
  0xe5, 0xe2, 0x18, 0xf0, 0xcb, 0xde, 0x02, 0x5b, 0xc0, 0xd0, 0x2a, 0xec,
  0x28, 0x00, 0x28, 0x0c, 0xb7, 0xc0, 0xf1, 0xe5, 0xb9, 0x1b, 0xe3, 0xf1,
  0x5c, 0xbd, 0xe0, 0xcb, 0xf1, 0xdc, 0x19, 0x23, 0x21, 0xd5, 0x60, 0x62,
  0xcd, 0xd9, 0xe5, 0xd4, 0xff, 0x3f, 0x13, 0x03, 0xbc, 0xf7, 0x49, 0x1a,
  0xef, 0x14, 0xaa, 0xdd, 0x52, 0x3f, 0x07, 0x9a, 0xdb, 0xdb, 0xd5, 0xd2,
  0x6c, 0xca, 0x79, 0x1d, 0x0e, 0xef, 0x32, 0x16, 0x19, 0x27, 0x5c, 0x45,
  0xd7, 0xe7, 0xa3, 0x31, 0x58, 0x41, 0x1e, 0x04, 0x61, 0xfb, 0x2d, 0x46,
  0x1b, 0xf9, 0xe7, 0xb8, 0x64, 0x3a, 0xbf, 0xc6, 0x37, 0x17, 0x6b, 0x53,
  0xcc, 0x73, 0xe1, 0x39, 0xf2, 0x97, 0xcd, 0xfe, 0xf9, 0xcc, 0x37, 0x17,
  0xff, 0x76, 0xdb, 0xe6, 0xf6, 0x11, 0x0d, 0xf2, 0xc8, 0xe3, 0xd7, 0xcd,
  0x3a, 0x28, 0x48, 0x19, 0xc6, 0x2e, 0xc7, 0xbd, 0xcf, 0xcd, 0x51, 0xa9,
  0xc6, 0xae, 0x29, 0xe9, 0x31, 0x10, 0x24, 0x42, 0xed, 0xd5, 0x0d, 0x30,
  0x6b, 0x37, 0xd5, 0xde, 0x22, 0x71, 0x41, 0xe8, 0x1b, 0x36, 0xe1, 0x3e,
  0x39, 0xbf, 0xe1, 0x1d, 0xf6, 0xe5, 0xdf, 0xc5, 0x35, 0xbf, 0xed, 0x10,
  0x4e, 0x4e, 0xec, 0x18, 0x67, 0x69, 0xa0, 0xe0, 0x51, 0x98, 0xef, 0x05,
  0x20, 0x0f, 0x1b, 0xb7, 0x13, 0x32, 0xde, 0x2e, 0xb3, 0x18, 0xc3, 0xd7,
  0xd9, 0x5e, 0xfc, 0xd7, 0x47, 0x98, 0xb8, 0x1d, 0x62, 0xe8, 0xff, 0xaf,
  0xec, 0xce, 0x1c, 0xf3, 0x02, 0xc5, 0xc0, 0x4c, 0x08, 0x0e, 0xeb, 0x25,
  0x08, 0xef, 0x54, 0xe6, 0xa5, 0x19, 0x03, 0xfb, 0xed, 0xf4, 0xd7, 0xaf,
  0xe5, 0x35, 0x17, 0xfb, 0x22, 0xe6, 0x1f, 0xdc, 0xd6, 0x26, 0x5b, 0xe1,
  0xfc, 0xd7, 0xee, 0x1b, 0x02, 0x08, 0x10, 0x2b, 0x33, 0x0d, 0xe9, 0xc7,
  0x08, 0xf5, 0xfd, 0xf9, 0x24, 0xea, 0x55, 0xea, 0xc1, 0x09, 0xe6, 0xa3,
  0x29, 0x1f, 0x34, 0xc6, 0xda, 0x08, 0x65, 0x4d, 0x40, 0x4d, 0x29, 0xcb,
  0xf4, 0x71, 0x32, 0xbe, 0x45, 0xb9, 0xd8, 0xe8, 0x05, 0x96, 0x3b, 0x38,
  0x37, 0xa7, 0xda, 0xed, 0x29, 0x11, 0xea, 0xcb, 0x36, 0x1e, 0xe6, 0x26,
  0x26, 0xbb, 0xe9, 0x23, 0x15, 0xa2, 0x3e, 0x5a, 0x1b, 0xb1, 0xb5, 0xe3,
  0xca, 0xe7, 0xf8, 0x47, 0x2b, 0x2e, 0x13, 0xdc, 0xbd, 0x6b, 0x40, 0x1a,
  0xee, 0xde, 0x43, 0x54, 0xca, 0xae, 0xfc, 0xec, 0xc3, 0x56, 0xcb, 0x46,
  0x04, 0x16, 0x94, 0x4b, 0x10, 0x44, 0x03, 0x31, 0x2b, 0x3e, 0xbf, 0xec,
  0xe9, 0x42, 0x30, 0x07, 0xb7, 0x41, 0xe6, 0x04, 0xeb, 0x09, 0xd3, 0xbb,
  0x05, 0xe1, 0xd3, 0xfe, 0xd8, 0x14, 0x45, 0x57, 0xcb, 0x54, 0xb0, 0xc3,
  0x2d, 0x3b, 0x11, 0xca, 0xef, 0x19, 0x23, 0xbb, 0xfd, 0xcd, 0x09, 0x51,
  0x39, 0xa3, 0x0a, 0x2a, 0xfc, 0xc0, 0xc4, 0x20, 0x1a, 0x42, 0x20, 0x19,
  0xfc, 0xcb, 0x2c, 0x4b, 0x4b, 0x09, 0x37, 0x1f, 0x7f, 0xf5, 0xe3, 0xc4,
  0x03, 0x87, 0xd4, 0x10, 0xbd, 0x0e, 0x62, 0x50, 0x3d, 0x51, 0x67, 0xd4,
  0x0e, 0x3b, 0x11, 0x55, 0x2c, 0x27, 0x1b, 0xf6, 0x41, 0x24, 0x21, 0x22,
  0x19, 0xba, 0x8c, 0x4f, 0xa9, 0x6a, 0x48, 0x19, 0xd9, 0xe6, 0xe5, 0x1b,
  0xb0, 0xf5, 0xef, 0xfc, 0x00, 0x2c, 0xe3, 0xe9, 0x95, 0x2d, 0x25, 0x3e,
  0x07, 0x0a, 0xc1, 0x21, 0xb7, 0x33, 0x1b, 0x31, 0xeb, 0xc6, 0x0a, 0xcb,
  0xe4, 0x91, 0xc1, 0x15, 0x3e, 0xc7, 0x08, 0x09, 0x50, 0xbb, 0x34, 0x1b,
  0x2d, 0x2b, 0xfb, 0x2f, 0x09, 0xe0, 0x76, 0x05, 0x00, 0xbe, 0xb9, 0x17,
  0xed, 0xfa, 0x18, 0x53, 0xe8, 0x04, 0x2c, 0x50, 0x0e, 0xf3, 0xcf, 0x13,
  0x3d, 0x44, 0x04, 0x3d, 0xde, 0xd2, 0x12, 0x43, 0x5a, 0x32, 0xe0, 0xe7,
  0xeb, 0x2c, 0x44, 0xbe, 0x29, 0xed, 0x02, 0x50, 0x51, 0x06, 0xae, 0x1d,
  0x1f, 0x97, 0x2a, 0x14, 0xe3, 0x4f, 0x2d, 0x3f, 0x4c, 0x28, 0xcd, 0xd2,
  0xef, 0xbb, 0xe0, 0xf8, 0xca, 0x25, 0x31, 0x00, 0xfb, 0x55, 0xb0, 0xd0,
  0xf5, 0xc2, 0x49, 0xe2, 0xd2, 0xdd, 0x1f, 0x2a, 0xd1, 0x33, 0x34, 0xff,
  0xdc, 0x04, 0xdc, 0x2f, 0x29, 0xe2, 0x3c, 0x3d, 0xe6, 0x08, 0xb0, 0x16,
  0x07, 0x1c, 0x2e, 0xe4, 0x00, 0x00, 0x00, 0x00, 0x3e, 0xe4, 0xff, 0xff,
  0x04, 0x00, 0x00, 0x00, 0x00, 0x0e, 0x00, 0x00, 0xe4, 0xed, 0x3d, 0x10,
  0xec, 0x23, 0x14, 0x89, 0xcc, 0xf1, 0xf1, 0xdb, 0x50, 0xd5, 0xf8, 0xbf,
  0x39, 0x04, 0x32, 0x7f, 0x0a, 0xc6, 0x18, 0xbe, 0xd3, 0x40, 0x09, 0xe0,
  0xe2, 0xfe, 0xd5, 0x8a, 0x4d, 0xec, 0x02, 0xb4, 0x49, 0xea, 0x02, 0xdf,
  0x35, 0x1f, 0x2d, 0x43, 0x3b, 0x02, 0x64, 0x09, 0xb4, 0x54, 0xea, 0xc4,
  0x32, 0xf1, 0xda, 0xe7, 0xea, 0xb8, 0x02, 0xda, 0x51, 0xfc, 0x03, 0x14,
  0x47, 0x4f, 0xce, 0xd7, 0x15, 0x05, 0xe9, 0xfe, 0x0f, 0x26, 0x50, 0x07,
  0x09, 0x1e, 0xf9, 0x01, 0x27, 0xdf, 0x24, 0x44, 0x12, 0x35, 0xfd, 0x14,
  0xfe, 0x32, 0xcf, 0x0e, 0xf6, 0xe0, 0xea, 0xf9, 0xe6, 0x1c, 0x24, 0xc0,
  0x5c, 0x2f, 0xf5, 0x59, 0x2f, 0xe4, 0x33, 0x2d, 0x4c, 0x6b, 0x39, 0x5c,
  0xe5, 0x15, 0x74, 0x9c, 0x15, 0xcc, 0xd5, 0xda, 0x35, 0xf1, 0xdc, 0xbe,
  0x42, 0xd5, 0xe6, 0x3b, 0x1e, 0x62, 0xbf, 0xd8, 0xeb, 0x19, 0xf5, 0xf3,
  0xb5, 0xc9, 0xf1, 0xfc, 0xfa, 0xda, 0xe1, 0xe9, 0x22, 0x2a, 0x13, 0xf1,
  0x30, 0xea, 0x34, 0x0c, 0xf7, 0x4a, 0xd0, 0x5a, 0x2d, 0x3d, 0x22, 0x70,
  0x0b, 0xbe, 0x48, 0x12, 0x2f, 0x27, 0x25, 0x6a, 0xf7, 0xb9, 0xe4, 0x5a,
  0x49, 0x08, 0x67, 0xf4, 0x10, 0x24, 0x52, 0xac, 0x00, 0x0f, 0xb0, 0x31,
  0x4a, 0x1e, 0xfd, 0x40, 0x02, 0x22, 0x32, 0xf2, 0x2a, 0xaa, 0x09, 0xff,
  0xa8, 0xc9, 0xbd, 0x62, 0xad, 0x57, 0xf5, 0xd7, 0x7f, 0xfa, 0x77, 0x1d,
  0x3c, 0x0d, 0xc6, 0xe9, 0x3a, 0xc8, 0x14, 0x32, 0xdc, 0xd0, 0xf3, 0xa8,
  0x00, 0xbf, 0x29, 0x01, 0xcd, 0x3a, 0x08, 0xe2, 0xf4, 0x03, 0xdd, 0xd2,
  0xdb, 0x11, 0xf5, 0x0b, 0xf5, 0xf2, 0x0c, 0xdf, 0x38, 0xc2, 0x51, 0x1f,
  0xe7, 0xe1, 0x03, 0x14, 0xe8, 0xfb, 0xf0, 0x28, 0xfc, 0xe8, 0xeb, 0x21,
  0x27, 0x81, 0xcf, 0x33, 0x4c, 0xd7, 0x67, 0x2e, 0x16, 0x00, 0xf2, 0x16,
  0x27, 0x3a, 0x48, 0x19, 0x26, 0x32, 0x05, 0xd2, 0x2b, 0x08, 0xf0, 0x03,
  0xd6, 0xf9, 0x45, 0xbf, 0x35, 0x37, 0xc6, 0x34, 0x21, 0xfb, 0xe2, 0xc9,
  0x42, 0x0e, 0xfd, 0xf4, 0xff, 0x3f, 0xe3, 0xf7, 0x62, 0xd7, 0x1a, 0x35,
  0xa9, 0xeb, 0x01, 0xdf, 0xfd, 0x56, 0x48, 0xe8, 0x25, 0x6d, 0x07, 0xf1,
  0xc8, 0x4d, 0x08, 0x2b, 0xcd, 0xe2, 0x2f, 0x07, 0x2d, 0xfc, 0xcf, 0x5f,
  0xf8, 0xf4, 0xc8, 0xf8, 0x29, 0x00, 0x69, 0x07, 0x24, 0x04, 0xd1, 0xf0,
  0x2e, 0xe9, 0xdb, 0x2e, 0x40, 0xef, 0xd7, 0x38, 0x35, 0x3d, 0x2e, 0xe4,
  0xf3, 0x45, 0xe3, 0xfa, 0xe6, 0x13, 0xeb, 0x3e, 0x08, 0x3f, 0xce, 0xe4,
  0x2c, 0xd6, 0xc6, 0x37, 0x26, 0x10, 0xe8, 0x18, 0x16, 0x53, 0x05, 0x25,
  0x01, 0xdc, 0x00, 0x40, 0x1c, 0x49, 0x55, 0xf9, 0x05, 0x24, 0x30, 0xe5,
  0xc3, 0x1d, 0x3f, 0x02, 0x3c, 0x5a, 0x25, 0x0a, 0x4b, 0x07, 0x04, 0x3e,
  0x3c, 0x2b, 0xf1, 0x51, 0x43, 0x36, 0xec, 0xdb, 0x37, 0xb6, 0x2f, 0x0b,
  0xf1, 0x46, 0x0b, 0xbe, 0xe4, 0xf9, 0x29, 0x2b, 0xe1, 0x32, 0x3d, 0x10,
  0x44, 0xca, 0x42, 0xd8, 0xbb, 0xed, 0xc1, 0xdf, 0x05, 0xfa, 0x1c, 0xd2,
  0xd5, 0xe5, 0x16, 0xf4, 0xcc, 0xe6, 0x11, 0x26, 0x39, 0x38, 0x08, 0x40,
  0x13, 0x27, 0x28, 0x42, 0x1c, 0xe0, 0xf1, 0x14, 0xca, 0xeb, 0x11, 0xec,
  0x31, 0xdb, 0x1b, 0xf2, 0x11, 0x33, 0x22, 0x08, 0xeb, 0xd1, 0x2a, 0xf5,
  0xf9, 0xee, 0xf0, 0x14, 0x3d, 0xca, 0xd3, 0xe8, 0xe9, 0xa7, 0xe1, 0xe5,
  0x12, 0xde, 0x40, 0xf7, 0xf4, 0x52, 0x1d, 0x62, 0x5a, 0xe1, 0x6a, 0x57,
  0xd2, 0x3c, 0x22, 0x00, 0x0e, 0x10, 0x47, 0x13, 0x27, 0x22, 0xe7, 0xcd,
  0x10, 0xcb, 0xfe, 0x69, 0x2a, 0x57, 0x06, 0xcc, 0x07, 0xf3, 0x20, 0xb8,
  0x24, 0xfb, 0x49, 0x37, 0xfb, 0xfd, 0xf8, 0xe9, 0x1d, 0xe6, 0xf5, 0x5c,
  0x19, 0x02, 0x44, 0xfd, 0x09, 0x30, 0x1c, 0x1a, 0x2d, 0xf5, 0xd2, 0xbd,
  0xc5, 0x09, 0x4a, 0xe8, 0x0b, 0xf0, 0xd5, 0x2f, 0x45, 0xa9, 0xdd, 0x1e,
  0xa9, 0x27, 0x1d, 0x1f, 0xd4, 0xd9, 0xf7, 0xcb, 0x10, 0xe8, 0xc1, 0x36,
  0x33, 0xc2, 0xe3, 0x09, 0x3a, 0x00, 0x2e, 0x6d, 0x1f, 0x66, 0x3a, 0xc4,
  0x0e, 0x3d, 0x2d, 0xeb, 0x06, 0xed, 0x3a, 0xfe, 0x14, 0xbe, 0xbc, 0xf5,
  0x25, 0xe5, 0x60, 0x7f, 0xe3, 0xf0, 0x2b, 0x09, 0xe8, 0xd7, 0xfe, 0x61,
  0xbf, 0x27, 0xf3, 0x1f, 0x01, 0xe4, 0xff, 0xcf, 0xcd, 0xf6, 0x11, 0xfb,
  0x1e, 0xd6, 0xf2, 0xda, 0x02, 0xbe, 0x11, 0xf6, 0x12, 0xd1, 0xe4, 0x10,
  0xdf, 0x1b, 0x17, 0xe1, 0xd0, 0xd2, 0x1d, 0xe7, 0x1d, 0x2a, 0xf0, 0xf3,
  0x21, 0x0b, 0x05, 0xed, 0x27, 0xd4, 0xf2, 0xe4, 0xd0, 0x05, 0xda, 0x19,
  0x0c, 0x18, 0x1b, 0xd4, 0xb9, 0x31, 0x1c, 0xe7, 0xda, 0x22, 0x22, 0xdf,
  0xb9, 0x32, 0x26, 0x1a, 0x22, 0xf7, 0x24, 0xd7, 0xdf, 0x18, 0x0c, 0xf9,
  0x26, 0x0f, 0x88, 0x00, 0xe0, 0xad, 0xde, 0xe8, 0xfa, 0xcb, 0xfd, 0xcc,
  0x1e, 0x20, 0x33, 0x3a, 0xe7, 0x13, 0xec, 0x2b, 0x65, 0x10, 0x4a, 0x09,
  0xb0, 0x08, 0x3c, 0xfe, 0x51, 0xe6, 0x48, 0xf9, 0xdb, 0x2f, 0xb5, 0x4d,
  0xd2, 0x00, 0x9e, 0x11, 0x10, 0xcd, 0x1d, 0xff, 0x18, 0x47, 0x1c, 0xda,
  0x55, 0xc0, 0x9e, 0x1b, 0x2b, 0xd7, 0xc6, 0xf7, 0x9a, 0xc2, 0x66, 0xff,
  0x44, 0x07, 0x26, 0xfe, 0x5a, 0xef, 0x47, 0xe8, 0x0f, 0x1d, 0x22, 0xf7,
  0x16, 0xdf, 0x12, 0xc2, 0x4e, 0xaf, 0xc3, 0x07, 0xe8, 0x81, 0x23, 0xfb,
  0x02, 0x91, 0xd9, 0xab, 0xf4, 0xd3, 0xbf, 0xb8, 0xe9, 0x09, 0xce, 0xc6,
  0xd8, 0x19, 0xbc, 0xd0, 0xd7, 0x18, 0x00, 0xbb, 0x02, 0xc2, 0xa5, 0xed,
  0x84, 0xd2, 0xcb, 0x01, 0xbc, 0x58, 0x1a, 0xd8, 0x0a, 0x09, 0xdf, 0x42,
  0x1d, 0x02, 0xf8, 0x4f, 0xe5, 0xbc, 0x05, 0x36, 0xd7, 0x2d, 0x33, 0xfa,
  0x0a, 0x1c, 0x1e, 0x1d, 0x5d, 0x20, 0x53, 0x4b, 0x4a, 0x20, 0x29, 0x21,
  0x42, 0xf9, 0x15, 0xeb, 0xf8, 0xd5, 0x3c, 0xb5, 0x0d, 0xbc, 0xb8, 0x2b,
  0xf9, 0x19, 0xca, 0xb8, 0x0a, 0x3a, 0x01, 0x0f, 0x49, 0x01, 0xec, 0x19,
  0xa9, 0xec, 0x36, 0x56, 0x1e, 0x47, 0x3b, 0x07, 0x1e, 0xee, 0x6c, 0xff,
  0x34, 0x28, 0x01, 0x60, 0x53, 0x49, 0xf7, 0x14, 0x49, 0x29, 0x41, 0x13,
  0x3b, 0x0e, 0xd8, 0x5e, 0xd6, 0x32, 0x32, 0xc7, 0xff, 0x2c, 0x32, 0x23,
  0xff, 0xfc, 0x45, 0xed, 0x36, 0x4d, 0x0b, 0x0d, 0x61, 0x0b, 0xd9, 0xef,
  0x09, 0x37, 0x4d, 0xe4, 0xdf, 0x76, 0x47, 0x48, 0x09, 0xe6, 0x12, 0x1a,
  0x18, 0xe3, 0x3e, 0xc7, 0x26, 0x61, 0xc9, 0x0c, 0x9f, 0x62, 0xb7, 0xb4,
  0xf1, 0x03, 0x01, 0x21, 0xd4, 0x7c, 0xd8, 0x0a, 0xd7, 0xf8, 0x0a, 0x5e,
  0x30, 0xe7, 0xbc, 0x32, 0x3a, 0x10, 0x03, 0xee, 0xac, 0xfd, 0xba, 0x2f,
  0x51, 0x6f, 0xc2, 0x20, 0x4f, 0xf4, 0x96, 0x1f, 0xb7, 0xe8, 0x5f, 0x9d,
  0x25, 0xbd, 0x4b, 0xc2, 0xbe, 0x09, 0x47, 0xb2, 0xdd, 0xe3, 0xc8, 0x2a,
  0xc8, 0xab, 0x02, 0xdc, 0x43, 0xfe, 0x19, 0xd2, 0x03, 0x3a, 0x56, 0xb0,
  0x1f, 0x23, 0x6a, 0x42, 0x51, 0xe6, 0x5d, 0x0c, 0xf7, 0x68, 0x37, 0xa8,
  0x43, 0xe1, 0xd1, 0x24, 0xc2, 0xcf, 0x2c, 0x58, 0x8a, 0xb0, 0xf4, 0xca,
  0x47, 0xfc, 0xbe, 0xe8, 0xc4, 0x30, 0x51, 0xf6, 0x12, 0xa5, 0x5f, 0x5a,
  0x57, 0xed, 0xed, 0x29, 0xc0, 0x0a, 0x1b, 0x3b, 0x0a, 0x47, 0xfc, 0xd5,
  0x5b, 0xc5, 0xa5, 0x58, 0xec, 0xb8, 0xdb, 0x40, 0x99, 0xd3, 0x07, 0x53,
  0xf4, 0xee, 0xcc, 0x1e, 0xab, 0xa2, 0xd0, 0xe3, 0xb6, 0x1e, 0xb8, 0xc3,
  0x55, 0x5b, 0xae, 0xab, 0x0c, 0xe8, 0x3c, 0xac, 0x11, 0xc0, 0x0b, 0x5c,
  0x5f, 0x11, 0x11, 0x44, 0xe7, 0xfe, 0xe4, 0xee, 0xd2, 0x53, 0xd6, 0xb0,
  0x10, 0x57, 0x22, 0x0a, 0x6e, 0xd9, 0x27, 0xb0, 0x31, 0x47, 0xe5, 0xc8,
  0xb5, 0x14, 0x1a, 0x17, 0xa6, 0xc5, 0x40, 0xbb, 0x5b, 0xea, 0xf7, 0x1d,
  0x91, 0xe5, 0xdb, 0xdc, 0x03, 0xb8, 0x3a, 0x45, 0xda, 0xea, 0xea, 0x39,
  0x03, 0x18, 0xbe, 0x62, 0xb7, 0x4d, 0x52, 0x7f, 0xb1, 0xdd, 0x3a, 0x50,
  0xc5, 0x16, 0xd3, 0xbe, 0x26, 0xf2, 0xfc, 0x0f, 0x11, 0xf8, 0x24, 0xed,
  0x2c, 0xfb, 0x42, 0xfd, 0x39, 0xc5, 0x02, 0x05, 0x21, 0xbc, 0x3a, 0xbe,
  0xf6, 0xad, 0x22, 0x29, 0x4c, 0x1c, 0x03, 0x56, 0x2b, 0x3c, 0xfd, 0x1e,
  0x29, 0xd5, 0x0e, 0x0c, 0xc9, 0xe3, 0x41, 0x4e, 0xb0, 0xc5, 0x31, 0xd5,
  0x1e, 0xea, 0x4f, 0xe7, 0xbc, 0xfb, 0xfb, 0x1d, 0xcc, 0x2a, 0x0f, 0x06,
  0xbd, 0xbf, 0x02, 0x5a, 0xde, 0x86, 0x01, 0xfc, 0x45, 0x03, 0x2f, 0x29,
  0xce, 0x1c, 0xe5, 0x2e, 0x7f, 0xea, 0x4f, 0x27, 0xe7, 0x1e, 0x68, 0xef,
  0x58, 0xc5, 0xef, 0xde, 0x02, 0x1c, 0x0b, 0xa0, 0xdc, 0xfb, 0xd4, 0xfd,
  0x2f, 0x38, 0x38, 0xbc, 0x16, 0xdf, 0x17, 0xd5, 0xde, 0x9f, 0x58, 0xe6,
  0xc8, 0x0d, 0x23, 0x32, 0xd7, 0xde, 0x09, 0x3d, 0xd5, 0x5f, 0x5f, 0x2b,
  0x4d, 0x02, 0xff, 0x00, 0x58, 0x21, 0x3b, 0xce, 0xfa, 0xfe, 0x36, 0xc9,
  0xf3, 0x21, 0x40, 0x55, 0x13, 0xe3, 0x46, 0x2b, 0xc5, 0xc9, 0x3d, 0x0b,
  0x07, 0x23, 0x02, 0x96, 0x13, 0x2a, 0x19, 0x4a, 0x56, 0xee, 0x35, 0x52,
  0xa8, 0xdd, 0x34, 0x45, 0xdf, 0x14, 0x59, 0xc8, 0x0e, 0x2b, 0xff, 0x2d,
  0xdd, 0x10, 0xd9, 0xf5, 0x1c, 0xc2, 0x38, 0x1d, 0x56, 0xd8, 0x07, 0x0c,
  0xce, 0xf6, 0x1e, 0xf2, 0xcb, 0xe6, 0xc4, 0xef, 0x2d, 0x23, 0xea, 0xcf,
  0x47, 0xff, 0x05, 0xd4, 0x18, 0xde, 0x08, 0xe9, 0x25, 0x21, 0xc7, 0xdf,
  0xca, 0x03, 0xf9, 0xe3, 0xd1, 0xf8, 0xc4, 0xae, 0xfa, 0x29, 0xf6, 0x0f,
  0xe7, 0x03, 0xe9, 0x1e, 0x4a, 0xfe, 0x4f, 0x11, 0x20, 0x0b, 0xea, 0x42,
  0x29, 0xfa, 0x5c, 0x21, 0xe1, 0x37, 0x26, 0xf8, 0x20, 0x4b, 0xed, 0x30,
  0xd1, 0xe4, 0xc8, 0x32, 0x63, 0xc8, 0x28, 0xc9, 0x0d, 0x02, 0xee, 0xd9,
  0x39, 0x0d, 0x20, 0x44, 0x11, 0x54, 0xc0, 0x28, 0x04, 0xdf, 0x14, 0x0b,
  0x46, 0x27, 0x3e, 0x12, 0xe2, 0xf1, 0x9f, 0x0a, 0x03, 0xe8, 0x57, 0x44,
  0xb5, 0x46, 0x0b, 0x11, 0xf3, 0x55, 0x35, 0x44, 0xf7, 0x2b, 0xd0, 0x07,
  0x3f, 0xf9, 0xff, 0xe7, 0x81, 0x3b, 0xe8, 0xec, 0xd0, 0xe1, 0xf4, 0xf7,
  0x14, 0x12, 0x25, 0x94, 0xfc, 0xdf, 0xd3, 0x12, 0x3c, 0x13, 0xaa, 0x3f,
  0xf7, 0xf2, 0x08, 0xe5, 0x95, 0x3d, 0x09, 0xda, 0xcc, 0xea, 0x07, 0xe0,
  0xb4, 0x9d, 0x1f, 0xe4, 0x17, 0x47, 0xc9, 0xf2, 0x49, 0xe7, 0xe3, 0x1f,
  0x33, 0x21, 0x29, 0xfc, 0x2d, 0x11, 0xd0, 0xc2, 0xa0, 0x16, 0x37, 0xb5,
  0x00, 0xbe, 0x98, 0xd7, 0x43, 0xc1, 0x02, 0x0f, 0xfd, 0xcb, 0x46, 0x8b,
  0x0a, 0x16, 0x2f, 0x03, 0x56, 0x20, 0xfc, 0x42, 0x02, 0x3a, 0xf0, 0xd5,
  0x01, 0x18, 0x1b, 0xb7, 0x19, 0x46, 0xba, 0xe7, 0x1e, 0x24, 0x90, 0x05,
  0x20, 0xf3, 0xef, 0x09, 0xea, 0x25, 0x53, 0xd3, 0xf7, 0xc7, 0xf7, 0x4b,
  0x0f, 0x48, 0x47, 0x62, 0xb8, 0x1e, 0x09, 0x95, 0x08, 0x55, 0x22, 0x1d,
  0xd1, 0x60, 0xcc, 0x25, 0xdb, 0x32, 0x32, 0x24, 0xd4, 0x49, 0x3b, 0x0a,
  0xda, 0x17, 0xd6, 0x25, 0x28, 0xd8, 0x48, 0xeb, 0x31, 0x0d, 0x10, 0x1a,
  0xd4, 0x21, 0xf1, 0xc4, 0x32, 0x47, 0xdb, 0xf1, 0x69, 0x30, 0xc6, 0xf0,
  0x46, 0xd2, 0x39, 0x0b, 0x29, 0xec, 0xf7, 0x36, 0xf2, 0xec, 0x3a, 0xc6,
  0x2d, 0x19, 0xaf, 0x32, 0xe6, 0xba, 0x09, 0xee, 0x1c, 0xd1, 0xe2, 0x44,
  0x4d, 0x12, 0x15, 0xc4, 0xfc, 0x04, 0xb8, 0xfe, 0x00, 0xda, 0x19, 0x1d,
  0x17, 0xc8, 0x46, 0x4c, 0x67, 0xc0, 0x36, 0x8e, 0x42, 0xfb, 0x45, 0x59,
  0xf8, 0xe3, 0xdb, 0x2f, 0xa7, 0x49, 0x0d, 0xd6, 0x53, 0xfd, 0x23, 0xc3,
  0xe6, 0x4f, 0xe9, 0x47, 0x45, 0x48, 0x0c, 0x50, 0xf3, 0xd4, 0x38, 0xd5,
  0xe0, 0x14, 0x02, 0x5f, 0x3f, 0xab, 0x03, 0xf0, 0x98, 0x15, 0xaf, 0x5d,
  0xa4, 0xf1, 0xc8, 0xd3, 0xea, 0x7f, 0x2b, 0xd3, 0x78, 0x09, 0xc4, 0x2f,
  0x23, 0xcf, 0x49, 0xdd, 0x03, 0x61, 0xc3, 0x00, 0x2c, 0x11, 0x0c, 0xe1,
  0x5f, 0xe9, 0x77, 0x1d, 0xe4, 0xe8, 0x73, 0x07, 0x0f, 0xfd, 0x5d, 0x39,
  0x3d, 0x40, 0xdd, 0x67, 0x1c, 0x24, 0x3f, 0x42, 0xab, 0xd6, 0x51, 0x16,
  0x0b, 0x0c, 0x69, 0xcc, 0xb0, 0x6b, 0xec, 0xf2, 0xef, 0xb7, 0x44, 0x10,
  0x57, 0xfa, 0x73, 0x4c, 0x6c, 0xd0, 0x61, 0x62, 0x16, 0x56, 0xce, 0x08,
  0x3b, 0xf5, 0x06, 0xe1, 0xe3, 0xec, 0xd7, 0xad, 0xeb, 0x1e, 0xd1, 0xa3,
  0x4d, 0x5e, 0xb1, 0x24, 0xe0, 0xbd, 0xdf, 0x3d, 0xe0, 0x4b, 0x0a, 0xec,
  0xd4, 0x05, 0xf0, 0xd6, 0x47, 0x3d, 0x14, 0x2e, 0x1b, 0x83, 0x51, 0xba,
  0xf0, 0x11, 0x02, 0x2d, 0xc0, 0x21, 0x2c, 0xa1, 0x28, 0x26, 0x42, 0x24,
  0xf4, 0xa4, 0x49, 0x29, 0x3b, 0xaf, 0x02, 0xfa, 0x59, 0x17, 0x37, 0x4a,
  0xf9, 0xb6, 0x37, 0x0a, 0x06, 0xc7, 0x1c, 0x2a, 0x10, 0x46, 0xb4, 0x39,
  0xf2, 0xcc, 0x12, 0x20, 0x27, 0xd2, 0x14, 0x0c, 0xf6, 0x01, 0x03, 0x1b,
  0x09, 0xda, 0xdb, 0x10, 0xfb, 0xfc, 0x02, 0xd6, 0x1d, 0x1b, 0x10, 0x12,
  0x2c, 0x27, 0x3a, 0xc0, 0xb0, 0x47, 0x2f, 0xf5, 0x2f, 0x97, 0xf7, 0x2c,
  0x1a, 0xf6, 0x3d, 0xb7, 0x29, 0x2b, 0xef, 0x0c, 0xf8, 0x02, 0x1f, 0xf9,
  0xe7, 0x1c, 0x0f, 0x36, 0x7f, 0xc3, 0x47, 0xe5, 0xe0, 0xc0, 0xdc, 0x1b,
  0x40, 0x38, 0x1c, 0xe5, 0xce, 0x12, 0xf2, 0xb3, 0x09, 0x32, 0x24, 0x16,
  0x0a, 0x02, 0x40, 0x53, 0x0f, 0x3e, 0xf2, 0x27, 0xc1, 0xc4, 0x3d, 0x12,
  0xef, 0x03, 0x13, 0xea, 0xc0, 0x13, 0xe1, 0x27, 0x2a, 0xc7, 0xf2, 0x19,
  0x27, 0x0e, 0xea, 0xdf, 0x1f, 0x02, 0xff, 0x30, 0x14, 0xce, 0x55, 0x0f,
  0xec, 0xed, 0x01, 0x52, 0x39, 0xf9, 0x23, 0xe5, 0x24, 0x39, 0x20, 0x39,
  0x39, 0x35, 0xf4, 0x43, 0xfa, 0xe1, 0x1b, 0x21, 0x0b, 0xdd, 0x35, 0x2d,
  0xff, 0x35, 0xf5, 0x44, 0xf2, 0xbd, 0xe3, 0xef, 0x13, 0xad, 0x20, 0x20,
  0x39, 0x13, 0x0a, 0x08, 0x63, 0x18, 0xe1, 0xeb, 0x1c, 0xd3, 0x0f, 0xec,
  0x15, 0xce, 0x14, 0x0c, 0xc8, 0x09, 0x01, 0xfe, 0x24, 0xed, 0x0c, 0xef,
  0xfa, 0x15, 0x12, 0x1f, 0x22, 0xdb, 0xc2, 0x0b, 0xfe, 0x0f, 0x19, 0xce,
  0x01, 0xd5, 0x21, 0xfc, 0xd6, 0xf7, 0xc7, 0x48, 0xc7, 0x3c, 0xd8, 0x33,
  0x25, 0x1d, 0xf0, 0xf7, 0x0a, 0x24, 0xf4, 0xf6, 0xe8, 0xe9, 0xff, 0xf0,
  0x3b, 0x02, 0xe4, 0x0b, 0x26, 0xd6, 0x0c, 0x2c, 0x2b, 0xdf, 0xf6, 0xcf,
  0x3c, 0xda, 0xd9, 0x0f, 0x1b, 0xcf, 0x0b, 0xb9, 0x2c, 0xda, 0xb6, 0x03,
  0xcc, 0x2c, 0xc3, 0x2f, 0xfe, 0x2f, 0xff, 0x28, 0x26, 0xd4, 0xef, 0xe8,
  0x4e, 0xc8, 0x36, 0xe4, 0xdf, 0x03, 0xce, 0xfb, 0x06, 0x0a, 0xcf, 0xf8,
  0xbc, 0xe8, 0x12, 0x1c, 0xf0, 0xea, 0x15, 0xda, 0x19, 0xc9, 0xbf, 0x2b,
  0xd1, 0x4f, 0xbd, 0xaf, 0x50, 0x14, 0x0e, 0xf3, 0x1d, 0x08, 0xe6, 0x25,
  0xf0, 0x08, 0x00, 0x00, 0x0b, 0x3b, 0x25, 0xb7, 0xe7, 0xf1, 0x16, 0xbc,
  0x30, 0x11, 0x10, 0x21, 0x14, 0xd5, 0x22, 0xf2, 0xdc, 0x27, 0x26, 0x1a,
  0x0a, 0x35, 0x32, 0xdd, 0x0d, 0x19, 0xcd, 0x05, 0x10, 0x11, 0x14, 0xf1,
  0xc3, 0x0f, 0x3f, 0x23, 0x2a, 0xc7, 0x12, 0x2f, 0xd3, 0x29, 0x2f, 0x07,
  0x5b, 0x1e, 0xd3, 0xd2, 0x5c, 0xfa, 0xdb, 0x43, 0x17, 0xba, 0xce, 0x23,
  0x1d, 0xf9, 0x15, 0xd9, 0xc8, 0xef, 0xfc, 0xc1, 0x65, 0x74, 0x14, 0xe6,
  0xef, 0xe0, 0xf1, 0xcc, 0xf5, 0xce, 0x3c, 0x28, 0x38, 0x29, 0x39, 0xf5,
  0xf3, 0xd8, 0x3a, 0xe7, 0x18, 0x6e, 0x51, 0xf8, 0x2e, 0xe3, 0xf0, 0x22,
  0x42, 0x13, 0x1c, 0xe6, 0xf1, 0xd1, 0x08, 0x14, 0x15, 0x1e, 0x1f, 0xca,
  0xbd, 0x12, 0xcb, 0xb8, 0x2a, 0x46, 0x36, 0x2a, 0x39, 0xc7, 0x19, 0x4f,
  0xcd, 0xbb, 0xdd, 0x2f, 0xb7, 0x17, 0x01, 0xbe, 0xcf, 0xcc, 0x4c, 0x43,
  0xd8, 0x1c, 0x2d, 0xed, 0x34, 0x19, 0x2b, 0x6d, 0x3c, 0xeb, 0x25, 0x36,
  0xad, 0xdf, 0x4e, 0x52, 0x14, 0xfa, 0xe0, 0x1d, 0x7f, 0xff, 0x6d, 0xfb,
  0x60, 0x01, 0xed, 0x22, 0xe4, 0x10, 0xee, 0xff, 0xe0, 0x49, 0xf8, 0xf6,
  0x51, 0xe0, 0xeb, 0xfc, 0xfc, 0xe7, 0x6c, 0xb8, 0x52, 0x0f, 0x60, 0xff,
  0x21, 0xe7, 0x3c, 0x3d, 0x20, 0xd6, 0x6f, 0xcb, 0xbd, 0x37, 0x10, 0x99,
  0x60, 0x54, 0x3d, 0xf6, 0x5e, 0xc0, 0xf4, 0x46, 0x4d, 0xd3, 0xe6, 0xd4,
  0xbf, 0xf8, 0x23, 0x63, 0xd9, 0x73, 0xfa, 0xd8, 0xe9, 0xf5, 0xcb, 0x00,
  0x32, 0xe4, 0xc3, 0x1e, 0xc9, 0x4d, 0x50, 0x0c, 0xe6, 0x0e, 0xdc, 0xf5,
  0x15, 0xf6, 0xe8, 0x45, 0xe6, 0xb3, 0xc7, 0x81, 0x37, 0x6c, 0x22, 0x70,
  0x66, 0xfe, 0xca, 0x16, 0x44, 0x94, 0xec, 0x6b, 0xfd, 0xf5, 0xf2, 0x08,
  0xc3, 0xb5, 0x21, 0x15, 0xdf, 0x24, 0xe6, 0x1c, 0x57, 0xce, 0x10, 0x11,
  0x2b, 0x33, 0x1b, 0xe2, 0x1c, 0x5d, 0x3d, 0x36, 0x0e, 0x44, 0xf6, 0xc2,
  0xcd, 0x73, 0x3a, 0xcb, 0x2d, 0xc7, 0x25, 0xde, 0xf5, 0xb7, 0x7c, 0x2f,
  0xca, 0xb7, 0x53, 0xd7, 0xbc, 0x9b, 0xac, 0x24, 0xb0, 0x49, 0xc1, 0x88,
  0x3c, 0x1f, 0xdc, 0xe2, 0xda, 0x37, 0x16, 0xf1, 0xcf, 0x9a, 0x18, 0xcc,
  0xdb, 0xcc, 0xe7, 0xe3, 0x9a, 0xa9, 0xfb, 0x4a, 0xdb, 0x45, 0xfb, 0x41,
  0x0e, 0x21, 0x5c, 0xb3, 0xd1, 0x1e, 0xd1, 0x40, 0xaf, 0x1b, 0xf0, 0x24,
  0x5d, 0x11, 0x35, 0x53, 0x23, 0xb0, 0xd5, 0x65, 0xd4, 0xd5, 0x4a, 0x11,
  0x25, 0xbf, 0x2f, 0x1e, 0x1b, 0xf6, 0xef, 0xe2, 0x09, 0x28, 0xb1, 0xf5,
  0x06, 0x08, 0xec, 0x2d, 0x56, 0x52, 0x0b, 0xba, 0xc9, 0xc9, 0x17, 0x45,
  0xd2, 0x91, 0x05, 0x1b, 0x4b, 0x0f, 0x42, 0xfe, 0x2d, 0xfe, 0x07, 0x10,
  0x1b, 0xdc, 0x2f, 0x0b, 0xfa, 0xe5, 0xbb, 0xf4, 0x51, 0xec, 0xfa, 0x2e,
  0x02, 0xd1, 0xcc, 0x35, 0xf1, 0x4d, 0xdb, 0x0d, 0x52, 0x0c, 0x15, 0x0d,
  0x27, 0xfb, 0x15, 0x1f, 0xba, 0xf2, 0x21, 0x2d, 0x0a, 0x16, 0xca, 0xc5,
  0x44, 0xa3, 0x4b, 0xb0, 0x44, 0xdd, 0x45, 0x3f, 0x0f, 0xe2, 0x36, 0x49,
  0x2f, 0x0b, 0xec, 0xfa, 0x4b, 0x2f, 0x28, 0x1f, 0xfb, 0x29, 0xdb, 0x25,
  0x09, 0xbc, 0x2e, 0x12, 0x0c, 0x37, 0x08, 0xf3, 0xe7, 0x6b, 0xba, 0xf7,
  0xd0, 0xea, 0xcb, 0xdc, 0xeb, 0xd0, 0x38, 0xbc, 0x37, 0x47, 0xde, 0xe9,
  0xed, 0xb7, 0xf4, 0x45, 0x0b, 0x67, 0x49, 0xda, 0x2a, 0x01, 0xee, 0x46,
  0x4a, 0xdd, 0x35, 0x3b, 0x49, 0xc9, 0xe0, 0x26, 0xbe, 0xbe, 0x38, 0xc0,
  0x3a, 0x69, 0x11, 0xcd, 0x05, 0xed, 0xe6, 0x55, 0x48, 0x16, 0xfe, 0x2e,
  0x17, 0x44, 0xc6, 0x36, 0xe8, 0xde, 0xf2, 0xef, 0xeb, 0x1c, 0x02, 0xf9,
  0xf5, 0x8b, 0x35, 0xd2, 0xd5, 0x38, 0x5b, 0x4b, 0xcf, 0x01, 0x3e, 0x0c,
  0xff, 0x12, 0x41, 0x00, 0xe1, 0x23, 0x31, 0xf2, 0xf7, 0xbd, 0xf7, 0xf8,
  0x76, 0x0b, 0x27, 0x7f, 0x0b, 0x11, 0xf7, 0xdb, 0x0a, 0x90, 0x3d, 0x51,
  0xfb, 0x11, 0xc3, 0xcf, 0x07, 0xfa, 0xd9, 0xb6, 0xce, 0xd5, 0x0d, 0xa8,
  0x3d, 0x36, 0x0a, 0xd4, 0x2f, 0x81, 0x23, 0xc1, 0x3a, 0x16, 0xf2, 0x22,
  0x09, 0x22, 0x0c, 0x3f, 0xe1, 0x4b, 0xf0, 0x00, 0x2e, 0xdc, 0x39, 0xc0,
  0xd7, 0x1b, 0x1a, 0x32, 0xdb, 0xc7, 0xd7, 0xcd, 0x42, 0x1a, 0xf5, 0xf0,
  0xd2, 0x17, 0x05, 0x22, 0x1e, 0xcd, 0x1d, 0x1f, 0x16, 0x19, 0x20, 0xef,
  0x12, 0xdf, 0x2b, 0xfb, 0x22, 0xf1, 0x1c, 0xd9, 0xdb, 0xc9, 0xff, 0xf9,
  0x2b, 0x24, 0x46, 0xb7, 0x03, 0x41, 0xcc, 0xf8, 0x3f, 0x06, 0x4b, 0x20,
  0xf8, 0xd4, 0x0c, 0xed, 0xf7, 0xec, 0xf0, 0xcc, 0xef, 0x3c, 0xd2, 0x0b,
  0xe6, 0x26, 0x1d, 0x31, 0xcf, 0x17, 0x2f, 0x30, 0x30, 0x10, 0xfa, 0xe2,
  0x15, 0x02, 0x4e, 0x22, 0x52, 0x35, 0x39, 0x1c, 0x24, 0xd3, 0x3a, 0xf0,
  0xd6, 0x31, 0x26, 0x17, 0xe8, 0x7f, 0xed, 0xd6, 0x0c, 0x14, 0xd4, 0xe8,
  0xcd, 0xed, 0xe7, 0xd2, 0x3f, 0x3a, 0x3d, 0xf4, 0x2b, 0xc8, 0xff, 0x09,
  0xe2, 0x57, 0x3c, 0x1c, 0xe7, 0x3d, 0x23, 0xdb, 0x0c, 0x00, 0x1a, 0x44,
  0xf8, 0xd4, 0x02, 0x09, 0x24, 0xdf, 0x3b, 0x5c, 0x1d, 0x63, 0x3a, 0xc7,
  0x0d, 0xee, 0x28, 0x0e, 0x49, 0xf0, 0xed, 0x41, 0xe9, 0xd9, 0x0a, 0xfd,
  0x2c, 0x32, 0x25, 0x06, 0x22, 0x44, 0x35, 0x03, 0x36, 0x30, 0x3a, 0x42,
  0xde, 0xca, 0x2e, 0x25, 0xca, 0x0c, 0x41, 0x2c, 0xe0, 0xff, 0xfc, 0x03,
  0xe8, 0xe6, 0xe4, 0xff, 0x04, 0xbe, 0x40, 0xf8, 0x3a, 0x28, 0x00, 0xf9,
  0x12, 0xe4, 0xe6, 0x06, 0xfb, 0xe3, 0xfe, 0x01, 0xc9, 0x32, 0xe7, 0xf5,
  0xfc, 0x15, 0xe6, 0x33, 0x0a, 0x1f, 0xe3, 0x04, 0x38, 0x0f, 0xe9, 0x24,
  0xcc, 0xe5, 0x0e, 0x1e, 0xf0, 0xc5, 0xfe, 0xf4, 0xcf, 0x13, 0xec, 0xcd,
  0x24, 0x0e, 0xef, 0x01, 0x02, 0xe5, 0xe5, 0x0b, 0x06, 0xd7, 0x09, 0xf1,
  0x01, 0x30, 0xd7, 0x35, 0x0b, 0x19, 0xd9, 0xf6, 0x0a, 0xfb, 0xe4, 0x20,
  0x26, 0x12, 0xc4, 0x3c, 0x34, 0xde, 0x00, 0xf1, 0xeb, 0x0d, 0x14, 0x01,
  0x22, 0xd0, 0x38, 0x28, 0x29, 0x05, 0xde, 0xee, 0x37, 0x16, 0xee, 0x21,
  0x01, 0x33, 0x44, 0x34, 0xcf, 0xfe, 0x12, 0x20, 0xfc, 0x1a, 0x16, 0xe7,
  0xf6, 0xfa, 0xdf, 0xd9, 0xd7, 0x0a, 0xed, 0xc6, 0xd2, 0x09, 0x35, 0x17,
  0xd9, 0x10, 0x2f, 0x1a, 0x09, 0xe1, 0xf8, 0xe8, 0x1c, 0xf8, 0x3b, 0x19,
  0x32, 0x26, 0x07, 0x33, 0x12, 0x27, 0xcf, 0x2b, 0xe8, 0xdb, 0xf4, 0x39,
  0x23, 0x33, 0x13, 0xd3, 0x25, 0x26, 0xda, 0xe4, 0x17, 0x09, 0x1e, 0xff,
  0x38, 0x41, 0x27, 0x27, 0x29, 0x27, 0xf3, 0x2b, 0xfa, 0x1e, 0xfd, 0xd1,
  0xda, 0xdd, 0xd9, 0xca, 0x1b, 0xd3, 0xc0, 0x4b, 0x11, 0xda, 0x12, 0x1e,
  0xc7, 0x1c, 0x12, 0x3f, 0x2f, 0xe2, 0xd7, 0xed, 0x42, 0xfc, 0x45, 0xdc,
  0x2b, 0x08, 0x1a, 0x01, 0x3b, 0x0c, 0x0c, 0x21, 0x14, 0x39, 0x3d, 0x5a,
  0x2f, 0xcc, 0x35, 0xce, 0xcd, 0x8b, 0xdf, 0x1d, 0x4f, 0xe5, 0xd8, 0x33,
  0x43, 0x7f, 0xcd, 0x3a, 0x39, 0xe5, 0x03, 0xe2, 0x41, 0xc0, 0x0e, 0x42,
  0xaf, 0x16, 0xf7, 0x28, 0xff, 0xf3, 0x1f, 0xbe, 0xdf, 0xf7, 0x40, 0x19,
  0x19, 0x50, 0x05, 0x4d, 0x0a, 0x25, 0xe2, 0x1a, 0xd3, 0xb0, 0x54, 0xf3,
  0xd9, 0x3a, 0xd6, 0x33, 0xab, 0xb3, 0x27, 0x2a, 0x35, 0xc0, 0x55, 0xdb,
  0x19, 0xc1, 0x26, 0xe0, 0x7e, 0x1a, 0x14, 0xd6, 0xe1, 0xf7, 0xe0, 0xd9,
  0xed, 0x2d, 0xf9, 0x16, 0xc6, 0x3f, 0x19, 0x2c, 0xe7, 0x39, 0xcf, 0xcb,
  0xef, 0x22, 0x0e, 0xdd, 0x22, 0xcc, 0xe7, 0xd4, 0xd9, 0xca, 0x2c, 0x00,
  0xc3, 0x43, 0xcd, 0xee, 0xfc, 0x02, 0x2f, 0xed, 0xc6, 0xe7, 0xf5, 0xfd,
  0x17, 0x48, 0xed, 0x40, 0x11, 0xe1, 0xab, 0x00, 0x38, 0xc1, 0x28, 0xb9,
  0xda, 0xd0, 0xef, 0x2a, 0x14, 0xc8, 0x37, 0x02, 0xae, 0xf7, 0xcc, 0x40,
  0x64, 0x3d, 0x21, 0x28, 0xf2, 0x03, 0xcf, 0x43, 0xb2, 0x35, 0x2a, 0x00,
  0xb6, 0x31, 0xec, 0x25, 0xbd, 0xa7, 0xf2, 0x43, 0x5e, 0x1f, 0x1e, 0x01,
  0xd8, 0x25, 0x2a, 0x35, 0x5c, 0x06, 0xdc, 0x41, 0xc8, 0x81, 0x18, 0x13,
  0xfc, 0x27, 0x4b, 0x33, 0x4d, 0x78, 0xb9, 0x3f, 0x0b, 0xf0, 0xfe, 0xdb,
  0x06, 0xdb, 0xf0, 0x12, 0xee, 0x26, 0xd7, 0x1a, 0xd8, 0x3f, 0x14, 0x34,
  0x05, 0xd6, 0x12, 0xc3, 0x15, 0x13, 0x4d, 0x04, 0xf6, 0x01, 0xd5, 0x15,
  0xce, 0xc6, 0x2a, 0xbd, 0x15, 0xd9, 0x36, 0x12, 0x24, 0x20, 0x09, 0xd0,
  0x52, 0xe4, 0x0f, 0x19, 0x3d, 0x4f, 0x7d, 0x0a, 0x00, 0xeb, 0x1c, 0xc9,
  0xbe, 0x4b, 0x29, 0xc5, 0x2c, 0x22, 0xc4, 0xab, 0xf5, 0xf0, 0x25, 0x1d,
  0xdb, 0xef, 0xab, 0x2c, 0xfd, 0x09, 0xe4, 0x15, 0xe9, 0x1e, 0xd3, 0xdb,
  0x16, 0x11, 0xc8, 0xfb, 0x2f, 0x47, 0xf1, 0x05, 0x3e, 0xf1, 0xd4, 0x22,
  0xf7, 0x01, 0x17, 0xe1, 0x25, 0x00, 0x46, 0xc3, 0x4d, 0x21, 0xaa, 0x12,
  0x59, 0xcf, 0x0f, 0xd4, 0xe3, 0xf4, 0xfe, 0xed, 0xbb, 0xfb, 0xe7, 0xd6,
  0xf5, 0x35, 0xcc, 0x44, 0x01, 0x00, 0xb5, 0x30, 0x28, 0x36, 0x14, 0x45,
  0xd1, 0x06, 0x1e, 0xfc, 0xee, 0x4a, 0x01, 0xc6, 0x46, 0x29, 0xcf, 0xe1,
  0xf5, 0xc8, 0xc6, 0x0d, 0x41, 0xf6, 0x1a, 0x6b, 0xc5, 0xc6, 0x3b, 0xbe,
  0xef, 0xc2, 0x3f, 0x3b, 0xff, 0xbf, 0x08, 0xc9, 0x35, 0x48, 0x18, 0xf5,
  0xfa, 0x34, 0xda, 0x1f, 0x1c, 0xd2, 0xda, 0x19, 0xcc, 0xf7, 0xcf, 0x1a,
  0xa4, 0x14, 0x01, 0xe1, 0xe0, 0x50, 0xdc, 0x47, 0x44, 0x34, 0x23, 0x04,
  0xc9, 0xd4, 0xf7, 0x25, 0x14, 0x00, 0x50, 0xf8, 0x1f, 0x2d, 0xec, 0x01,
  0xef, 0x07, 0xfc, 0xcb, 0x54, 0x16, 0xdf, 0xe8, 0xff, 0x0d, 0x2e, 0x43,
  0x1b, 0x13, 0xf5, 0x2d, 0x2a, 0xb6, 0xea, 0x14, 0x19, 0x13, 0x2a, 0xf3,
  0x28, 0xe0, 0x02, 0x14, 0x20, 0x15, 0x45, 0xfb, 0x5b, 0x7f, 0x0f, 0xfb,
  0x41, 0xfb, 0xca, 0x03, 0xec, 0xf0, 0x3a, 0x10, 0x38, 0xf9, 0x44, 0xbd,
  0x2f, 0x1d, 0x31, 0xca, 0x56, 0x03, 0xea, 0x08, 0x2e, 0x05, 0x04, 0xe5,
  0x34, 0xfc, 0x0a, 0xc2, 0x58, 0xa5, 0x3f, 0x1c, 0x1d, 0x43, 0xcc, 0x03,
  0x2d, 0x2d, 0xdf, 0x44, 0xc9, 0xf4, 0x15, 0xdc, 0x1d, 0x1f, 0x2b, 0x36,
  0x3d, 0xc1, 0xfb, 0x40, 0x32, 0x6d, 0x2b, 0x3b, 0x3a, 0xe5, 0x12, 0x14,
  0x05, 0xf0, 0x0c, 0x34, 0x29, 0x15, 0xf1, 0x0a, 0x35, 0xfd, 0x3e, 0xb7,
  0x03, 0xf6, 0x01, 0x45, 0xf1, 0x03, 0xd6, 0xf5, 0x02, 0x13, 0x0e, 0x5b,
  0xee, 0x0d, 0xed, 0x2a, 0x8c, 0x03, 0xee, 0xdd, 0xd8, 0xe4, 0xf9, 0xcd,
  0x53, 0xb4, 0x07, 0x17, 0x4a, 0x0b, 0x3c, 0x44, 0xc8, 0x10, 0xe3, 0x1a,
  0x2f, 0xd9, 0x0f, 0x2c, 0xfe, 0x19, 0xcb, 0x8d, 0xf9, 0x10, 0x10, 0x3a,
  0x0c, 0xee, 0x1f, 0x41, 0xeb, 0xf8, 0xff, 0x34, 0x23, 0x10, 0x45, 0xf2,
  0xc3, 0x06, 0x0d, 0xe8, 0x55, 0xd7, 0x0f, 0x15, 0x2f, 0xf1, 0x00, 0x04,
  0xf8, 0xee, 0xf9, 0xe3, 0x00, 0x00, 0x00, 0x00, 0x4e, 0xf2, 0xff, 0xff,
  0x04, 0x00, 0x00, 0x00, 0x80, 0x03, 0x00, 0x00, 0xfb, 0x4b, 0x8a, 0x3c,
  0x1b, 0x30, 0x89, 0xbd, 0x77, 0x72, 0x1b, 0xbd, 0x27, 0xdc, 0xa5, 0xbd,
  0x93, 0xe0, 0x90, 0x3d, 0xc3, 0x44, 0x2a, 0xbe, 0xba, 0xb7, 0xa7, 0x3c,
  0x37, 0xb3, 0xf7, 0x3d, 0x43, 0x75, 0xba, 0xbd, 0x63, 0x59, 0x23, 0x3e,
  0x5d, 0xff, 0x0c, 0x3e, 0x53, 0x94, 0xbd, 0xbc, 0xd9, 0x9b, 0x3d, 0xbe,
  0x32, 0x2e, 0x2e, 0xbe, 0xf8, 0xcb, 0x84, 0x3d, 0x51, 0xca, 0x07, 0x3e,
  0xc2, 0x9c, 0x1d, 0x3c, 0x22, 0x40, 0x87, 0xbd, 0x66, 0x8e, 0x27, 0x3e,
  0x14, 0xcf, 0xca, 0xbd, 0x02, 0xdb, 0xe3, 0x3d, 0x63, 0x8b, 0xc0, 0xbd,
  0x78, 0x31, 0xf9, 0xb9, 0x73, 0xef, 0x74, 0x3d, 0x51, 0x31, 0x11, 0xbd,
  0x36, 0x0c, 0x2a, 0xbd, 0xea, 0xd1, 0x2b, 0xbe, 0x27, 0x91, 0x08, 0x3e,
  0x58, 0xa8, 0xc3, 0xbc, 0x59, 0x63, 0x50, 0xbd, 0xab, 0x2f, 0x04, 0x3e,
  0xfc, 0x80, 0xa5, 0x3c, 0x5a, 0x85, 0x08, 0xbc, 0x5b, 0x7d, 0xde, 0x3d,
  0x9c, 0xe0, 0xb3, 0x3d, 0x0c, 0x26, 0xb4, 0x3d, 0xab, 0x45, 0xab, 0x3d,
  0xa3, 0x44, 0xfb, 0x3d, 0x70, 0x2f, 0x8d, 0xbc, 0xab, 0x4b, 0xbd, 0x3d,
  0x65, 0x45, 0x8f, 0xbc, 0x0e, 0x71, 0x45, 0x3b, 0x67, 0x2c, 0x74, 0x3d,
  0x6b, 0xea, 0x58, 0xbd, 0xe9, 0xeb, 0x68, 0x3d, 0x7a, 0xe8, 0x5a, 0xbd,
  0x47, 0x27, 0x5a, 0xbd, 0x3c, 0x6e, 0x3d, 0x3e, 0xb2, 0x04, 0x88, 0x3c,
  0x73, 0xae, 0x6b, 0xbd, 0x2c, 0x15, 0x3d, 0x3e, 0xb8, 0x80, 0xe1, 0x3c,
  0xd6, 0xe8, 0x7e, 0x39, 0x60, 0xdb, 0xa5, 0xbd, 0x97, 0xdb, 0xee, 0x3c,
  0x9c, 0xfc, 0x82, 0xbc, 0xec, 0xdf, 0x22, 0x3d, 0x87, 0x50, 0x24, 0xbe,
  0x09, 0x82, 0x65, 0x3e, 0x0c, 0x7e, 0x25, 0x3c, 0x5e, 0x76, 0xa6, 0x3d,
  0x2e, 0xd1, 0x1e, 0x3d, 0xca, 0xaa, 0xe8, 0x3d, 0x2a, 0x57, 0xbc, 0x3d,
  0x84, 0x74, 0x0a, 0xbe, 0xaa, 0xd7, 0x73, 0xbd, 0x56, 0x1f, 0x8b, 0xbe,
  0x05, 0xc1, 0x43, 0xbd, 0x45, 0xc8, 0x2f, 0x3b, 0xfe, 0xfa, 0x5f, 0x3e,
  0xfe, 0x5f, 0x96, 0x3d, 0xd3, 0xfa, 0x86, 0xbd, 0x37, 0xe7, 0x59, 0x3c,
  0x28, 0xf8, 0x1e, 0x3e, 0x03, 0xac, 0x14, 0x3d, 0xab, 0xae, 0x00, 0x3e,
  0x63, 0xdb, 0x53, 0xbc, 0xf3, 0x8f, 0x21, 0xbd, 0x09, 0x33, 0xc2, 0x3c,
  0xf5, 0x3e, 0x11, 0x3e, 0x86, 0xe9, 0x06, 0x3e, 0xff, 0x62, 0xbb, 0xbd,
  0xa0, 0x80, 0xce, 0x3d, 0xf7, 0xcf, 0x86, 0x3d, 0x54, 0xce, 0xf3, 0x3d,
  0x70, 0x5f, 0x96, 0x3d, 0x1b, 0xac, 0x34, 0xbe, 0x66, 0x1c, 0xae, 0xbd,
  0x70, 0x39, 0x38, 0x3d, 0xac, 0xce, 0xd3, 0x3c, 0xee, 0x7d, 0x18, 0x3e,
  0x3e, 0x71, 0x63, 0xbe, 0x79, 0x87, 0xc6, 0x3c, 0x77, 0x28, 0x98, 0x3d,
  0x90, 0x22, 0x0c, 0xbd, 0xb8, 0xbd, 0x2d, 0x3e, 0x1f, 0x4c, 0xeb, 0x3d,
  0xb1, 0xe6, 0xf6, 0xbc, 0x32, 0x06, 0x20, 0xbd, 0x27, 0x11, 0x83, 0x3e,
  0xf9, 0x39, 0x28, 0xbe, 0x4e, 0xd3, 0xd1, 0xb9, 0xc5, 0xa7, 0x71, 0xbd,
  0x62, 0x24, 0x31, 0x3e, 0x97, 0x1b, 0x69, 0x3c, 0xa2, 0x24, 0x5d, 0x3d,
  0xff, 0x88, 0x07, 0x3c, 0x6b, 0x6d, 0x69, 0x3d, 0x32, 0x72, 0xea, 0x3d,
  0xbb, 0x11, 0x8f, 0xbc, 0x31, 0xb6, 0x0a, 0x3e, 0x5f, 0xf1, 0xdd, 0x3d,
  0xe6, 0xdb, 0x74, 0x3e, 0x69, 0x89, 0x0d, 0x3d, 0xaa, 0xb2, 0xe6, 0xbd,
  0xfb, 0xc8, 0x93, 0x3d, 0xa4, 0x96, 0x96, 0xbd, 0x78, 0x97, 0xe9, 0x3b,
  0x3f, 0x79, 0x8a, 0xbd, 0x96, 0xc2, 0xeb, 0xbd, 0xbc, 0x37, 0xc8, 0xbd,
  0x3b, 0xcd, 0x2a, 0x3d, 0xa2, 0x50, 0x31, 0xba, 0x55, 0xaf, 0x04, 0xbe,
  0x5d, 0x6f, 0x81, 0xbd, 0xb4, 0x71, 0x2b, 0x3d, 0xda, 0x1c, 0x51, 0x3e,
  0x1b, 0xdc, 0x58, 0xbc, 0xcd, 0x3e, 0x02, 0x3c, 0xed, 0xea, 0x01, 0x3e,
  0x19, 0xf8, 0x0f, 0xbe, 0x14, 0xe3, 0xa1, 0x3d, 0x88, 0x70, 0xd2, 0x3d,
  0xef, 0x48, 0x5a, 0x3e, 0xfb, 0x57, 0xf4, 0xbd, 0xeb, 0xf4, 0xdf, 0xbc,
  0xce, 0x7a, 0xcd, 0xbd, 0xd8, 0x97, 0x4b, 0x3e, 0xcf, 0xfc, 0xb8, 0xbc,
  0x53, 0x34, 0x9f, 0xba, 0xbf, 0xd8, 0x32, 0xbd, 0xe6, 0x80, 0x66, 0x3e,
  0xd6, 0xae, 0x98, 0xbd, 0xf3, 0x53, 0x5d, 0xbe, 0x73, 0x5a, 0x82, 0x3d,
  0xca, 0x33, 0x01, 0x3e, 0x1e, 0x8a, 0x90, 0x3d, 0x5e, 0x28, 0xbb, 0xbc,
  0xe3, 0x14, 0x77, 0x3d, 0x77, 0x1f, 0x03, 0x3c, 0x67, 0x02, 0x33, 0x3e,
  0xe2, 0x25, 0x13, 0x3d, 0x48, 0xb0, 0x8e, 0xbd, 0x79, 0x36, 0x4f, 0x3d,
  0x2c, 0xeb, 0xf5, 0x3d, 0x97, 0x2a, 0x6d, 0xbe, 0x63, 0x3e, 0x42, 0x3b,
  0x3f, 0x85, 0x99, 0x3d, 0x7f, 0xa2, 0xef, 0x3d, 0x8a, 0x3a, 0x03, 0x3e,
  0x25, 0x11, 0xa3, 0xbc, 0x80, 0xc8, 0xbf, 0xbd, 0x3b, 0x11, 0x05, 0x3e,
  0xe2, 0x70, 0xf4, 0x3d, 0x96, 0x74, 0x53, 0x3d, 0x2d, 0xe3, 0xd0, 0x3c,
  0x23, 0x8a, 0x4d, 0xbe, 0x2f, 0x5b, 0x16, 0xbe, 0x63, 0xe7, 0x96, 0xbd,
  0xcf, 0xb6, 0xf5, 0x3d, 0x14, 0xaf, 0x13, 0x3d, 0x51, 0x2d, 0x2a, 0x3d,
  0x80, 0x3e, 0x05, 0x3e, 0xc5, 0x1e, 0xe9, 0xbd, 0xb4, 0xcc, 0xdb, 0x3d,
  0xcc, 0xdc, 0xa7, 0xbd, 0xd4, 0xfb, 0xd6, 0xbd, 0x68, 0x4b, 0x50, 0xbe,
  0x75, 0xd1, 0x82, 0x3e, 0xbf, 0xae, 0xa9, 0xbd, 0x9d, 0xd6, 0x0c, 0xbd,
  0x68, 0x75, 0x0e, 0x3e, 0x4c, 0x3d, 0x23, 0x3d, 0x1e, 0x0c, 0x2b, 0xbd,
  0x4f, 0x1b, 0xd2, 0x3b, 0x8d, 0xdd, 0x0d, 0xbd, 0xab, 0xa5, 0xba, 0xbd,
  0xa7, 0xcf, 0xce, 0x3d, 0xcf, 0xcb, 0x31, 0xbe, 0x92, 0x7f, 0xd5, 0x3d,
  0x2c, 0xb2, 0x8a, 0xbd, 0x38, 0x53, 0x14, 0x3e, 0x91, 0xf4, 0x1d, 0x3e,
  0x37, 0x9c, 0xe1, 0x3c, 0x5a, 0x2b, 0x3e, 0xbe, 0x53, 0x6f, 0xdd, 0xbd,
  0x75, 0xd1, 0x83, 0xbc, 0x52, 0x02, 0x5f, 0xbc, 0x09, 0x16, 0xe6, 0x3c,
  0x09, 0x97, 0x6d, 0xbd, 0xf4, 0x16, 0x0d, 0x3e, 0x55, 0x1d, 0x38, 0x3e,
  0xb3, 0x6b, 0xcf, 0xbd, 0x6a, 0x47, 0x10, 0xbe, 0x94, 0xaa, 0x8e, 0xbd,
  0x45, 0xc6, 0x67, 0x3c, 0xdd, 0xc7, 0xf5, 0xbc, 0xa8, 0x17, 0x9f, 0x3d,
  0xb7, 0xa7, 0x2e, 0xbe, 0x74, 0x40, 0xf6, 0x3d, 0xf4, 0x48, 0x31, 0xbe,
  0x21, 0xe7, 0xf2, 0x3d, 0x6e, 0x82, 0x41, 0x3e, 0x9c, 0xaa, 0x83, 0xbd,
  0x6f, 0x54, 0x9e, 0x3d, 0x43, 0x74, 0xcb, 0xbc, 0x69, 0x8b, 0x20, 0x3b,
  0xc6, 0x60, 0x84, 0xbd, 0x1f, 0xd9, 0xea, 0xbc, 0x5b, 0x72, 0x46, 0x3e,
  0x34, 0x79, 0x1c, 0x3d, 0x0d, 0xff, 0xf6, 0xbd, 0x5e, 0xec, 0x0a, 0x3e,
  0x73, 0x06, 0x89, 0xbd, 0x00, 0x00, 0x00, 0x00, 0xde, 0xf5, 0xff, 0xff,
  0x04, 0x00, 0x00, 0x00, 0x80, 0x00, 0x00, 0x00, 0x81, 0xff, 0x57, 0xbc,
  0xd4, 0xac, 0xde, 0xb9, 0xae, 0x2f, 0xbf, 0xba, 0xe5, 0x57, 0x66, 0xbb,
  0xfd, 0x67, 0xad, 0xba, 0x9e, 0x49, 0x19, 0xbb, 0xe4, 0x47, 0x77, 0xba,
  0xa5, 0x70, 0x53, 0x39, 0xf0, 0x6b, 0x64, 0xbb, 0xac, 0x35, 0x47, 0x3b,
  0xde, 0x0d, 0x2d, 0xbc, 0x5e, 0xe8, 0x2d, 0xbb, 0x8e, 0x20, 0xab, 0xb9,
  0xba, 0xfd, 0xe7, 0xbb, 0x8c, 0xa9, 0xc4, 0xba, 0xdb, 0x5b, 0xbf, 0xbc,
  0xbc, 0x0c, 0xc1, 0x39, 0x0a, 0xe7, 0x98, 0xbc, 0xd7, 0xc3, 0x43, 0xbb,
  0x56, 0x4c, 0xc0, 0x38, 0xe5, 0x9a, 0xb9, 0xba, 0x74, 0x38, 0xe9, 0xba,
  0xb1, 0x80, 0xc0, 0xb9, 0x6d, 0x44, 0x84, 0x38, 0x21, 0x82, 0x68, 0xbb,
  0x00, 0xfa, 0x01, 0x3b, 0xc6, 0xbc, 0x0e, 0xbd, 0xa2, 0xd0, 0xab, 0xb8,
  0x7c, 0xa1, 0x37, 0x37, 0x94, 0x0a, 0xc5, 0xbc, 0x1d, 0xbe, 0x70, 0x39,
  0x1f, 0xa6, 0x17, 0x3a, 0x00, 0x00, 0x00, 0x00, 0x6e, 0xf6, 0xff, 0xff,
  0x04, 0x00, 0x00, 0x00, 0x04, 0x00, 0x00, 0x00, 0xfd, 0xff, 0xff, 0xff,
  0x7e, 0xf6, 0xff, 0xff, 0x04, 0x00, 0x00, 0x00, 0x40, 0x00, 0x00, 0x00,
  0x2f, 0x90, 0xb8, 0x3c, 0x86, 0x7e, 0x5f, 0x3c, 0x2b, 0xcc, 0x43, 0x3c,
  0xbc, 0xa6, 0x3a, 0x3c, 0x49, 0x0c, 0xc5, 0xbb, 0xf6, 0xc4, 0xc8, 0x3c,
  0x2a, 0x02, 0x9f, 0x3c, 0xca, 0x31, 0x6d, 0x3c, 0x90, 0xd2, 0x7f, 0x3c,
  0x65, 0x4c, 0x3a, 0x3c, 0xfa, 0xea, 0x7b, 0x3c, 0xa7, 0xf5, 0x4e, 0x3c,
  0xde, 0x90, 0x4a, 0x3c, 0x91, 0x6e, 0x96, 0x3c, 0xd2, 0xf1, 0x9e, 0x3c,
  0xb2, 0x84, 0x88, 0x3c, 0x00, 0x00, 0x00, 0x00, 0xce, 0xf6, 0xff, 0xff,
  0x04, 0x00, 0x00, 0x00, 0x40, 0x00, 0x00, 0x00, 0x54, 0x66, 0x8a, 0xb8,
  0x0c, 0x16, 0x2d, 0xba, 0x1f, 0x8c, 0xdb, 0xbb, 0x6a, 0x84, 0x6f, 0xbc,
  0x50, 0xf8, 0x11, 0x3b, 0x03, 0x35, 0x4b, 0xbc, 0xc6, 0x31, 0x1c, 0xbb,
  0x8b, 0x9e, 0xc3, 0xb9, 0x08, 0xc7, 0xf9, 0xbb, 0xb9, 0x0c, 0xfe, 0xba,
  0x80, 0x28, 0x14, 0xbc, 0xe1, 0xec, 0xf6, 0xbb, 0x93, 0xe8, 0xe1, 0x39,
  0xc0, 0xd4, 0xd7, 0xbb, 0x07, 0x91, 0xea, 0xbb, 0x6d, 0x86, 0xfc, 0xbb,
  0x00, 0x00, 0x00, 0x00, 0x1e, 0xf7, 0xff, 0xff, 0x04, 0x00, 0x00, 0x00,
  0x04, 0x00, 0x00, 0x00, 0x01, 0x00, 0x00, 0x00, 0x2e, 0xf7, 0xff, 0xff,
  0x04, 0x00, 0x00, 0x00, 0x04, 0x00, 0x00, 0x00, 0x01, 0x00, 0x00, 0x00,
  0x3e, 0xf7, 0xff, 0xff, 0x04, 0x00, 0x00, 0x00, 0x04, 0x00, 0x00, 0x00,
  0x00, 0x00, 0x00, 0x00, 0x4e, 0xf7, 0xff, 0xff, 0x04, 0x00, 0x00, 0x00,
  0x04, 0x00, 0x00, 0x00, 0x10, 0x00, 0x00, 0x00, 0x5e, 0xf7, 0xff, 0xff,
  0x04, 0x00, 0x00, 0x00, 0x04, 0x00, 0x00, 0x00, 0x40, 0x00, 0x00, 0x00,
  0x6e, 0xf7, 0xff, 0xff, 0x04, 0x00, 0x00, 0x00, 0x80, 0x00, 0x00, 0x00,
  0x04, 0x44, 0xa3, 0xbb, 0x4b, 0x8d, 0x46, 0x3a, 0x43, 0xa5, 0x18, 0xbb,
  0xfd, 0xdd, 0x44, 0x3c, 0xd8, 0x8e, 0x46, 0x3b, 0xa3, 0xab, 0xc2, 0xb9,
  0xa4, 0x7e, 0xb5, 0xb9, 0x93, 0x49, 0x14, 0xb9, 0x32, 0x22, 0x87, 0x3a,
  0x2a, 0xb6, 0x92, 0xb9, 0x57, 0x95, 0xfe, 0x3b, 0x41, 0x0e, 0x9c, 0x3a,
  0xb7, 0xea, 0x92, 0xbc, 0x2c, 0xba, 0x62, 0x3c, 0xa6, 0x39, 0xe0, 0x3b,
  0x0e, 0xc8, 0x93, 0xbc, 0x90, 0xfc, 0x4a, 0x3c, 0x3e, 0x7f, 0x24, 0xbb,
  0x40, 0x3d, 0x7f, 0x38, 0x9b, 0x05, 0xe9, 0x3a, 0x43, 0x9a, 0x32, 0xbc,
  0x37, 0xd2, 0x88, 0x3c, 0x18, 0xea, 0x38, 0xbc, 0xee, 0x88, 0x7a, 0xbc,
  0x37, 0x01, 0x1c, 0xb9, 0x5b, 0x47, 0xd2, 0xb9, 0x51, 0xbb, 0x72, 0xbc,
  0x7c, 0x56, 0x93, 0xba, 0x1c, 0x63, 0xdc, 0x39, 0xb9, 0x53, 0xc0, 0xb9,
  0xae, 0x32, 0xce, 0x3b, 0x9e, 0x15, 0x3d, 0x3c, 0x00, 0x00, 0x00, 0x00,
  0xfe, 0xf7, 0xff, 0xff, 0x04, 0x00, 0x00, 0x00, 0x04, 0x00, 0x00, 0x00,
  0x02, 0x00, 0x00, 0x00, 0x0e, 0xf8, 0xff, 0xff, 0x04, 0x00, 0x00, 0x00,
  0x04, 0x00, 0x00, 0x00, 0x20, 0x00, 0x00, 0x00, 0x1e, 0xf8, 0xff, 0xff,
  0x04, 0x00, 0x00, 0x00, 0x04, 0x00, 0x00, 0x00, 0x02, 0x00, 0x00, 0x00,
  0x2e, 0xf8, 0xff, 0xff, 0x04, 0x00, 0x00, 0x00, 0x04, 0x00, 0x00, 0x00,
  0x10, 0x8f, 0xb7, 0x3a, 0x00, 0x00, 0x00, 0x00, 0x00, 0x00, 0x00, 0x00,
  0x9c, 0xd9, 0xff, 0xff, 0x00, 0x00, 0x00, 0x00, 0x00, 0x00, 0x00, 0x00,
  0x00, 0x00, 0x00, 0x00, 0xac, 0xd9, 0xff, 0xff, 0x0f, 0x00, 0x00, 0x00,
  0x4d, 0x4c, 0x49, 0x52, 0x20, 0x43, 0x6f, 0x6e, 0x76, 0x65, 0x72, 0x74,
  0x65, 0x64, 0x2e, 0x00, 0x01, 0x00, 0x00, 0x00, 0x14, 0x00, 0x00, 0x00,
  0x00, 0x00, 0x0e, 0x00, 0x18, 0x00, 0x04, 0x00, 0x08, 0x00, 0x0c, 0x00,
  0x10, 0x00, 0x14, 0x00, 0x0e, 0x00, 0x00, 0x00, 0xc4, 0x09, 0x00, 0x00,
  0xb8, 0x09, 0x00, 0x00, 0xac, 0x09, 0x00, 0x00, 0x14, 0x00, 0x00, 0x00,
  0x04, 0x00, 0x00, 0x00, 0x04, 0x00, 0x00, 0x00, 0x6d, 0x61, 0x69, 0x6e,
  0x00, 0x00, 0x00, 0x00, 0x29, 0x00, 0x00, 0x00, 0x64, 0x09, 0x00, 0x00,
  0x04, 0x09, 0x00, 0x00, 0xcc, 0x08, 0x00, 0x00, 0x90, 0x08, 0x00, 0x00,
  0x4c, 0x08, 0x00, 0x00, 0x24, 0x08, 0x00, 0x00, 0xe8, 0x07, 0x00, 0x00,
  0xa8, 0x07, 0x00, 0x00, 0x58, 0x07, 0x00, 0x00, 0x14, 0x07, 0x00, 0x00,
  0xd4, 0x06, 0x00, 0x00, 0x8c, 0x06, 0x00, 0x00, 0x54, 0x06, 0x00, 0x00,
  0x30, 0x06, 0x00, 0x00, 0xe4, 0x05, 0x00, 0x00, 0xa8, 0x05, 0x00, 0x00,
  0x70, 0x05, 0x00, 0x00, 0x3c, 0x05, 0x00, 0x00, 0x0c, 0x05, 0x00, 0x00,
  0xcc, 0x04, 0x00, 0x00, 0x8c, 0x04, 0x00, 0x00, 0x58, 0x04, 0x00, 0x00,
  0x1c, 0x04, 0x00, 0x00, 0xdc, 0x03, 0x00, 0x00, 0x9c, 0x03, 0x00, 0x00,
  0x64, 0x03, 0x00, 0x00, 0x40, 0x03, 0x00, 0x00, 0x00, 0x03, 0x00, 0x00,
  0xc4, 0x02, 0x00, 0x00, 0x8c, 0x02, 0x00, 0x00, 0x58, 0x02, 0x00, 0x00,
  0x28, 0x02, 0x00, 0x00, 0xe8, 0x01, 0x00, 0x00, 0xa8, 0x01, 0x00, 0x00,
  0x6c, 0x01, 0x00, 0x00, 0x2c, 0x01, 0x00, 0x00, 0xec, 0x00, 0x00, 0x00,
  0xb4, 0x00, 0x00, 0x00, 0x74, 0x00, 0x00, 0x00, 0x38, 0x00, 0x00, 0x00,
  0x04, 0x00, 0x00, 0x00, 0xaa, 0xf7, 0xff, 0xff, 0x00, 0x00, 0x00, 0x0b,
  0x09, 0x00, 0x00, 0x00, 0x18, 0x00, 0x00, 0x00, 0x0c, 0x00, 0x00, 0x00,
  0x04, 0x00, 0x00, 0x00, 0xc0, 0xda, 0xff, 0xff, 0x01, 0x00, 0x00, 0x00,
  0x3c, 0x00, 0x00, 0x00, 0x02, 0x00, 0x00, 0x00, 0x3b, 0x00, 0x00, 0x00,
  0x01, 0x00, 0x00, 0x00, 0xda, 0xf7, 0xff, 0xff, 0x00, 0x00, 0x00, 0x1e,
  0x08, 0x00, 0x00, 0x00, 0x24, 0x00, 0x00, 0x00, 0x18, 0x00, 0x00, 0x00,
  0x04, 0x00, 0x00, 0x00, 0x9a, 0xf9, 0xff, 0xff, 0x04, 0x00, 0x00, 0x00,
  0x01, 0x00, 0x00, 0x00, 0x01, 0x00, 0x00, 0x00, 0x01, 0x00, 0x00, 0x00,
  0x3b, 0x00, 0x00, 0x00, 0x01, 0x00, 0x00, 0x00, 0x3a, 0x00, 0x00, 0x00,
  0x12, 0xf8, 0xff, 0xff, 0x00, 0x00, 0x00, 0x31, 0x07, 0x00, 0x00, 0x00,
  0x20, 0x00, 0x00, 0x00, 0x14, 0x00, 0x00, 0x00, 0x04, 0x00, 0x00, 0x00,
  0xee, 0xfa, 0xff, 0xff, 0x01, 0x00, 0x00, 0x00, 0x01, 0x00, 0x00, 0x00,
  0x01, 0x00, 0x00, 0x00, 0x3a, 0x00, 0x00, 0x00, 0x03, 0x00, 0x00, 0x00,
  0x39, 0x00, 0x00, 0x00, 0x13, 0x00, 0x00, 0x00, 0x33, 0x00, 0x00, 0x00,
  0x4e, 0xf8, 0xff, 0xff, 0x00, 0x00, 0x00, 0x0a, 0x06, 0x00, 0x00, 0x00,
  0x18, 0x00, 0x00, 0x00, 0x0c, 0x00, 0x00, 0x00, 0x04, 0x00, 0x00, 0x00,
  0x64, 0xdb, 0xff, 0xff, 0x01, 0x00, 0x00, 0x00, 0x39, 0x00, 0x00, 0x00,
  0x03, 0x00, 0x00, 0x00, 0x37, 0x00, 0x00, 0x00, 0x09, 0x00, 0x00, 0x00,
  0x38, 0x00, 0x00, 0x00, 0x82, 0xf8, 0xff, 0xff, 0x00, 0x00, 0x00, 0x20,
  0x04, 0x00, 0x00, 0x00, 0x1c, 0x00, 0x00, 0x00, 0x10, 0x00, 0x00, 0x00,
  0x04, 0x00, 0x00, 0x00, 0xc4, 0xfa, 0xff, 0xff, 0x01, 0x00, 0x00, 0x00,
  0x01, 0x00, 0x00, 0x00, 0x38, 0x00, 0x00, 0x00, 0x04, 0x00, 0x00, 0x00,
  0x36, 0x00, 0x00, 0x00, 0x09, 0x00, 0x00, 0x00, 0x08, 0x00, 0x00, 0x00,
  0x09, 0x00, 0x00, 0x00, 0xbe, 0xf8, 0xff, 0xff, 0x00, 0x00, 0x00, 0x20,
  0x04, 0x00, 0x00, 0x00, 0x1c, 0x00, 0x00, 0x00, 0x10, 0x00, 0x00, 0x00,
  0x04, 0x00, 0x00, 0x00, 0x7e, 0xfa, 0xff, 0xff, 0x01, 0x00, 0x00, 0x00,
  0x01, 0x00, 0x00, 0x00, 0x37, 0x00, 0x00, 0x00, 0x04, 0x00, 0x00, 0x00,
  0x36, 0x00, 0x00, 0x00, 0x08, 0x00, 0x00, 0x00, 0x09, 0x00, 0x00, 0x00,
  0x09, 0x00, 0x00, 0x00, 0xfa, 0xf8, 0xff, 0xff, 0x00, 0x00, 0x00, 0x3b,
  0x05, 0x00, 0x00, 0x00, 0x1c, 0x00, 0x00, 0x00, 0x10, 0x00, 0x00, 0x00,
  0x04, 0x00, 0x00, 0x00, 0xba, 0xfa, 0xff, 0xff, 0x03, 0x00, 0x00, 0x00,
  0x01, 0x00, 0x00, 0x00, 0x36, 0x00, 0x00, 0x00, 0x03, 0x00, 0x00, 0x00,
  0x34, 0x00, 0x00, 0x00, 0x35, 0x00, 0x00, 0x00, 0x0a, 0x00, 0x00, 0x00,
  0x32, 0xf9, 0xff, 0xff, 0x00, 0x00, 0x00, 0x20, 0x04, 0x00, 0x00, 0x00,
  0x1c, 0x00, 0x00, 0x00, 0x10, 0x00, 0x00, 0x00, 0x04, 0x00, 0x00, 0x00,
  0xb2, 0xfa, 0xff, 0xff, 0x01, 0x00, 0x00, 0x00, 0x01, 0x00, 0x00, 0x00,
  0x35, 0x00, 0x00, 0x00, 0x04, 0x00, 0x00, 0x00, 0x32, 0x00, 0x00, 0x00,
  0x09, 0x00, 0x00, 0x00, 0x02, 0x00, 0x00, 0x00, 0x09, 0x00, 0x00, 0x00,
  0x6e, 0xf9, 0xff, 0xff, 0x00, 0x00, 0x00, 0x20, 0x04, 0x00, 0x00, 0x00,
  0x1c, 0x00, 0x00, 0x00, 0x10, 0x00, 0x00, 0x00, 0x04, 0x00, 0x00, 0x00,
  0xee, 0xfa, 0xff, 0xff, 0x01, 0x00, 0x00, 0x00, 0x01, 0x00, 0x00, 0x00,
  0x34, 0x00, 0x00, 0x00, 0x04, 0x00, 0x00, 0x00, 0x32, 0x00, 0x00, 0x00,
  0x08, 0x00, 0x00, 0x00, 0x09, 0x00, 0x00, 0x00, 0x09, 0x00, 0x00, 0x00,
  0x4e, 0xf9, 0xff, 0xff, 0x00, 0x00, 0x00, 0x34, 0x18, 0x00, 0x00, 0x00,
  0x0c, 0x00, 0x00, 0x00, 0x04, 0x00, 0x00, 0x00, 0xbc, 0xdc, 0xff, 0xff,
  0x01, 0x00, 0x00, 0x00, 0x33, 0x00, 0x00, 0x00, 0x02, 0x00, 0x00, 0x00,
  0x31, 0x00, 0x00, 0x00, 0x0a, 0x00, 0x00, 0x00, 0xd6, 0xf9, 0xff, 0xff,
  0x00, 0x00, 0x00, 0x37, 0x03, 0x00, 0x00, 0x00, 0x1c, 0x00, 0x00, 0x00,
  0x10, 0x00, 0x00, 0x00, 0x04, 0x00, 0x00, 0x00, 0xce, 0xfa, 0xff, 0xff,
  0x00, 0x00, 0x00, 0x02, 0x01, 0x00, 0x00, 0x00, 0x32, 0x00, 0x00, 0x00,
  0x01, 0x00, 0x00, 0x00, 0x31, 0x00, 0x00, 0x00, 0x06, 0xfa, 0xff, 0xff,
  0x00, 0x00, 0x00, 0x0b, 0x09, 0x00, 0x00, 0x00, 0x1c, 0x00, 0x00, 0x00,
  0x10, 0x00, 0x00, 0x00, 0x04, 0x00, 0x00, 0x00, 0xfe, 0xfa, 0xff, 0xff,
  0x00, 0x00, 0x00, 0x01, 0x01, 0x00, 0x00, 0x00, 0x31, 0x00, 0x00, 0x00,
  0x02, 0x00, 0x00, 0x00, 0x30, 0x00, 0x00, 0x00, 0x05, 0x00, 0x00, 0x00,
  0x3a, 0xfa, 0xff, 0xff, 0x00, 0x00, 0x00, 0x1e, 0x08, 0x00, 0x00, 0x00,
  0x24, 0x00, 0x00, 0x00, 0x18, 0x00, 0x00, 0x00, 0x04, 0x00, 0x00, 0x00,
  0xfa, 0xfb, 0xff, 0xff, 0x04, 0x00, 0x00, 0x00, 0x01, 0x00, 0x00, 0x00,
  0x01, 0x00, 0x00, 0x00, 0x01, 0x00, 0x00, 0x00, 0x30, 0x00, 0x00, 0x00,
  0x01, 0x00, 0x00, 0x00, 0x2f, 0x00, 0x00, 0x00, 0x72, 0xfa, 0xff, 0xff,
  0x00, 0x00, 0x00, 0x31, 0x07, 0x00, 0x00, 0x00, 0x20, 0x00, 0x00, 0x00,
  0x14, 0x00, 0x00, 0x00, 0x04, 0x00, 0x00, 0x00, 0x4e, 0xfd, 0xff, 0xff,
  0x02, 0x00, 0x00, 0x00, 0x01, 0x00, 0x00, 0x00, 0x01, 0x00, 0x00, 0x00,
  0x2f, 0x00, 0x00, 0x00, 0x03, 0x00, 0x00, 0x00, 0x2e, 0x00, 0x00, 0x00,
  0x3e, 0x00, 0x00, 0x00, 0x27, 0x00, 0x00, 0x00, 0xde, 0xfa, 0xff, 0xff,
  0x0b, 0x00, 0x00, 0x00, 0x10, 0x00, 0x00, 0x00, 0x04, 0x00, 0x00, 0x00,
  0x01, 0x00, 0x00, 0x00, 0x3e, 0x00, 0x00, 0x00, 0x01, 0x00, 0x00, 0x00,
  0x12, 0x00, 0x00, 0x00, 0xce, 0xfa, 0xff, 0xff, 0x00, 0x00, 0x00, 0x0a,
  0x06, 0x00, 0x00, 0x00, 0x18, 0x00, 0x00, 0x00, 0x0c, 0x00, 0x00, 0x00,
  0x04, 0x00, 0x00, 0x00, 0xe4, 0xdd, 0xff, 0xff, 0x01, 0x00, 0x00, 0x00,
  0x2e, 0x00, 0x00, 0x00, 0x03, 0x00, 0x00, 0x00, 0x2c, 0x00, 0x00, 0x00,
  0x09, 0x00, 0x00, 0x00, 0x2d, 0x00, 0x00, 0x00, 0x02, 0xfb, 0xff, 0xff,
  0x00, 0x00, 0x00, 0x20, 0x04, 0x00, 0x00, 0x00, 0x1c, 0x00, 0x00, 0x00,
  0x10, 0x00, 0x00, 0x00, 0x04, 0x00, 0x00, 0x00, 0x44, 0xfd, 0xff, 0xff,
  0x01, 0x00, 0x00, 0x00, 0x01, 0x00, 0x00, 0x00, 0x2d, 0x00, 0x00, 0x00,
  0x04, 0x00, 0x00, 0x00, 0x2b, 0x00, 0x00, 0x00, 0x09, 0x00, 0x00, 0x00,
  0x08, 0x00, 0x00, 0x00, 0x09, 0x00, 0x00, 0x00, 0x3e, 0xfb, 0xff, 0xff,
  0x00, 0x00, 0x00, 0x20, 0x04, 0x00, 0x00, 0x00, 0x1c, 0x00, 0x00, 0x00,
  0x10, 0x00, 0x00, 0x00, 0x04, 0x00, 0x00, 0x00, 0xfe, 0xfc, 0xff, 0xff,
  0x01, 0x00, 0x00, 0x00, 0x01, 0x00, 0x00, 0x00, 0x2c, 0x00, 0x00, 0x00,
  0x04, 0x00, 0x00, 0x00, 0x2b, 0x00, 0x00, 0x00, 0x08, 0x00, 0x00, 0x00,
  0x09, 0x00, 0x00, 0x00, 0x09, 0x00, 0x00, 0x00, 0x7a, 0xfb, 0xff, 0xff,
  0x00, 0x00, 0x00, 0x3b, 0x05, 0x00, 0x00, 0x00, 0x1c, 0x00, 0x00, 0x00,
  0x10, 0x00, 0x00, 0x00, 0x04, 0x00, 0x00, 0x00, 0x3a, 0xfd, 0xff, 0xff,
  0x03, 0x00, 0x00, 0x00, 0x01, 0x00, 0x00, 0x00, 0x2b, 0x00, 0x00, 0x00,
  0x03, 0x00, 0x00, 0x00, 0x28, 0x00, 0x00, 0x00, 0x2a, 0x00, 0x00, 0x00,
  0x03, 0x00, 0x00, 0x00, 0xb2, 0xfb, 0xff, 0xff, 0x00, 0x00, 0x00, 0x15,
  0x0a, 0x00, 0x00, 0x00, 0x18, 0x00, 0x00, 0x00, 0x0c, 0x00, 0x00, 0x00,
  0x04, 0x00, 0x00, 0x00, 0xc8, 0xde, 0xff, 0xff, 0x01, 0x00, 0x00, 0x00,
  0x2a, 0x00, 0x00, 0x00, 0x02, 0x00, 0x00, 0x00, 0x29, 0x00, 0x00, 0x00,
  0x04, 0x00, 0x00, 0x00, 0xe2, 0xfb, 0xff, 0xff, 0x00, 0x00, 0x00, 0x20,
  0x04, 0x00, 0x00, 0x00, 0x1c, 0x00, 0x00, 0x00, 0x10, 0x00, 0x00, 0x00,
  0x04, 0x00, 0x00, 0x00, 0x62, 0xfd, 0xff, 0xff, 0x01, 0x00, 0x00, 0x00,
  0x01, 0x00, 0x00, 0x00, 0x29, 0x00, 0x00, 0x00, 0x04, 0x00, 0x00, 0x00,
  0x26, 0x00, 0x00, 0x00, 0x09, 0x00, 0x00, 0x00, 0x02, 0x00, 0x00, 0x00,
  0x09, 0x00, 0x00, 0x00, 0x1e, 0xfc, 0xff, 0xff, 0x00, 0x00, 0x00, 0x20,
  0x04, 0x00, 0x00, 0x00, 0x1c, 0x00, 0x00, 0x00, 0x10, 0x00, 0x00, 0x00,
  0x04, 0x00, 0x00, 0x00, 0x9e, 0xfd, 0xff, 0xff, 0x01, 0x00, 0x00, 0x00,
  0x01, 0x00, 0x00, 0x00, 0x28, 0x00, 0x00, 0x00, 0x04, 0x00, 0x00, 0x00,
  0x26, 0x00, 0x00, 0x00, 0x08, 0x00, 0x00, 0x00, 0x09, 0x00, 0x00, 0x00,
  0x09, 0x00, 0x00, 0x00, 0xfe, 0xfb, 0xff, 0xff, 0x00, 0x00, 0x00, 0x34,
  0x18, 0x00, 0x00, 0x00, 0x0c, 0x00, 0x00, 0x00, 0x04, 0x00, 0x00, 0x00,
  0x6c, 0xdf, 0xff, 0xff, 0x01, 0x00, 0x00, 0x00, 0x27, 0x00, 0x00, 0x00,
  0x02, 0x00, 0x00, 0x00, 0x25, 0x00, 0x00, 0x00, 0x0a, 0x00, 0x00, 0x00,
  0x86, 0xfc, 0xff, 0xff, 0x00, 0x00, 0x00, 0x37, 0x03, 0x00, 0x00, 0x00,
  0x1c, 0x00, 0x00, 0x00, 0x10, 0x00, 0x00, 0x00, 0x04, 0x00, 0x00, 0x00,
  0x7e, 0xfd, 0xff, 0xff, 0x00, 0x00, 0x00, 0x02, 0x01, 0x00, 0x00, 0x00,
  0x26, 0x00, 0x00, 0x00, 0x01, 0x00, 0x00, 0x00, 0x25, 0x00, 0x00, 0x00,
  0xb6, 0xfc, 0xff, 0xff, 0x00, 0x00, 0x00, 0x0b, 0x09, 0x00, 0x00, 0x00,
  0x1c, 0x00, 0x00, 0x00, 0x10, 0x00, 0x00, 0x00, 0x04, 0x00, 0x00, 0x00,
  0xae, 0xfd, 0xff, 0xff, 0x00, 0x00, 0x00, 0x01, 0x01, 0x00, 0x00, 0x00,
  0x25, 0x00, 0x00, 0x00, 0x02, 0x00, 0x00, 0x00, 0x24, 0x00, 0x00, 0x00,
  0x0b, 0x00, 0x00, 0x00, 0xea, 0xfc, 0xff, 0xff, 0x00, 0x00, 0x00, 0x1e,
  0x08, 0x00, 0x00, 0x00, 0x24, 0x00, 0x00, 0x00, 0x18, 0x00, 0x00, 0x00,
  0x04, 0x00, 0x00, 0x00, 0xaa, 0xfe, 0xff, 0xff, 0x04, 0x00, 0x00, 0x00,
  0x01, 0x00, 0x00, 0x00, 0x01, 0x00, 0x00, 0x00, 0x01, 0x00, 0x00, 0x00,
  0x24, 0x00, 0x00, 0x00, 0x01, 0x00, 0x00, 0x00, 0x23, 0x00, 0x00, 0x00,
  0x2a, 0xfe, 0xff, 0xff, 0x00, 0x00, 0x00, 0x31, 0x07, 0x00, 0x00, 0x00,
  0x2c, 0x00, 0x00, 0x00, 0x20, 0x00, 0x00, 0x00, 0x10, 0x00, 0x00, 0x00,
  0x00, 0x00, 0x0a, 0x00, 0x0c, 0x00, 0x00, 0x00, 0x04, 0x00, 0x08, 0x00,
  0x0a, 0x00, 0x00, 0x00, 0x02, 0x00, 0x00, 0x00, 0x01, 0x00, 0x00, 0x00,
  0x01, 0x00, 0x00, 0x00, 0x23, 0x00, 0x00, 0x00, 0x03, 0x00, 0x00, 0x00,
  0x22, 0x00, 0x00, 0x00, 0x3d, 0x00, 0x00, 0x00, 0x1d, 0x00, 0x00, 0x00,
  0x9a, 0xfd, 0xff, 0xff, 0x0b, 0x00, 0x00, 0x00, 0x10, 0x00, 0x00, 0x00,
  0x04, 0x00, 0x00, 0x00, 0x01, 0x00, 0x00, 0x00, 0x3d, 0x00, 0x00, 0x00,
  0x01, 0x00, 0x00, 0x00, 0x11, 0x00, 0x00, 0x00, 0x8a, 0xfd, 0xff, 0xff,
  0x00, 0x00, 0x00, 0x0a, 0x06, 0x00, 0x00, 0x00, 0x18, 0x00, 0x00, 0x00,
  0x0c, 0x00, 0x00, 0x00, 0x04, 0x00, 0x00, 0x00, 0xa0, 0xe0, 0xff, 0xff,
  0x01, 0x00, 0x00, 0x00, 0x22, 0x00, 0x00, 0x00, 0x03, 0x00, 0x00, 0x00,
  0x20, 0x00, 0x00, 0x00, 0x09, 0x00, 0x00, 0x00, 0x21, 0x00, 0x00, 0x00,
  0xbe, 0xfd, 0xff, 0xff, 0x00, 0x00, 0x00, 0x20, 0x04, 0x00, 0x00, 0x00,
  0x24, 0x00, 0x00, 0x00, 0x18, 0x00, 0x00, 0x00, 0x0c, 0x00, 0x00, 0x00,
  0x08, 0x00, 0x08, 0x00, 0x00, 0x00, 0x04, 0x00, 0x08, 0x00, 0x00, 0x00,
  0x01, 0x00, 0x00, 0x00, 0x01, 0x00, 0x00, 0x00, 0x21, 0x00, 0x00, 0x00,
  0x04, 0x00, 0x00, 0x00, 0x1f, 0x00, 0x00, 0x00, 0x09, 0x00, 0x00, 0x00,
  0x08, 0x00, 0x00, 0x00, 0x09, 0x00, 0x00, 0x00, 0x02, 0xfe, 0xff, 0xff,
  0x00, 0x00, 0x00, 0x20, 0x04, 0x00, 0x00, 0x00, 0x1c, 0x00, 0x00, 0x00,
  0x10, 0x00, 0x00, 0x00, 0x04, 0x00, 0x00, 0x00, 0xc2, 0xff, 0xff, 0xff,
  0x01, 0x00, 0x00, 0x00, 0x01, 0x00, 0x00, 0x00, 0x20, 0x00, 0x00, 0x00,
  0x04, 0x00, 0x00, 0x00, 0x1f, 0x00, 0x00, 0x00, 0x08, 0x00, 0x00, 0x00,
  0x09, 0x00, 0x00, 0x00, 0x09, 0x00, 0x00, 0x00, 0x46, 0xff, 0xff, 0xff,
  0x00, 0x00, 0x00, 0x3b, 0x05, 0x00, 0x00, 0x00, 0x24, 0x00, 0x00, 0x00,
  0x18, 0x00, 0x00, 0x00, 0x0c, 0x00, 0x00, 0x00, 0x00, 0x00, 0x06, 0x00,
  0x08, 0x00, 0x04, 0x00, 0x06, 0x00, 0x00, 0x00, 0x03, 0x00, 0x00, 0x00,
  0x01, 0x00, 0x00, 0x00, 0x1f, 0x00, 0x00, 0x00, 0x03, 0x00, 0x00, 0x00,
  0x1e, 0x00, 0x00, 0x00, 0x06, 0x00, 0x00, 0x00, 0x07, 0x00, 0x00, 0x00,
  0x86, 0xff, 0xff, 0xff, 0x00, 0x00, 0x00, 0x20, 0x04, 0x00, 0x00, 0x00,
  0x2c, 0x00, 0x00, 0x00, 0x20, 0x00, 0x00, 0x00, 0x14, 0x00, 0x00, 0x00,
  0x00, 0x00, 0x0e, 0x00, 0x08, 0x00, 0x00, 0x00, 0x00, 0x00, 0x00, 0x00,
  0x00, 0x00, 0x04, 0x00, 0x0e, 0x00, 0x00, 0x00, 0x01, 0x00, 0x00, 0x00,
  0x01, 0x00, 0x00, 0x00, 0x1e, 0x00, 0x00, 0x00, 0x04, 0x00, 0x00, 0x00,
  0x1c, 0x00, 0x00, 0x00, 0x08, 0x00, 0x00, 0x00, 0x09, 0x00, 0x00, 0x00,
  0x09, 0x00, 0x00, 0x00, 0x6e, 0xfe, 0xff, 0xff, 0x00, 0x00, 0x00, 0x34,
  0x18, 0x00, 0x00, 0x00, 0x0c, 0x00, 0x00, 0x00, 0x04, 0x00, 0x00, 0x00,
  0xdc, 0xe1, 0xff, 0xff, 0x01, 0x00, 0x00, 0x00, 0x1d, 0x00, 0x00, 0x00,
  0x02, 0x00, 0x00, 0x00, 0x1b, 0x00, 0x00, 0x00, 0x0a, 0x00, 0x00, 0x00,
  0x00, 0x00, 0x0e, 0x00, 0x1a, 0x00, 0x08, 0x00, 0x0c, 0x00, 0x10, 0x00,
  0x07, 0x00, 0x14, 0x00, 0x0e, 0x00, 0x00, 0x00, 0x00, 0x00, 0x00, 0x37,
  0x03, 0x00, 0x00, 0x00, 0x24, 0x00, 0x00, 0x00, 0x18, 0x00, 0x00, 0x00,
  0x0c, 0x00, 0x00, 0x00, 0x00, 0x00, 0x06, 0x00, 0x08, 0x00, 0x07, 0x00,
  0x06, 0x00, 0x00, 0x00, 0x00, 0x00, 0x00, 0x02, 0x01, 0x00, 0x00, 0x00,
  0x1c, 0x00, 0x00, 0x00, 0x01, 0x00, 0x00, 0x00, 0x1b, 0x00, 0x00, 0x00,
  0x6e, 0xff, 0xff, 0xff, 0x02, 0x00, 0x00, 0x00, 0x10, 0x00, 0x00, 0x00,
  0x04, 0x00, 0x00, 0x00, 0x01, 0x00, 0x00, 0x00, 0x1b, 0x00, 0x00, 0x00,
  0x02, 0x00, 0x00, 0x00, 0x1a, 0x00, 0x00, 0x00, 0x15, 0x00, 0x00, 0x00,
  0x62, 0xff, 0xff, 0xff, 0x00, 0x00, 0x00, 0x01, 0x01, 0x00, 0x00, 0x00,
  0x24, 0x00, 0x00, 0x00, 0x18, 0x00, 0x00, 0x00, 0x04, 0x00, 0x00, 0x00,
  0x54, 0xff, 0xff, 0xff, 0x00, 0x00, 0x00, 0x01, 0x02, 0x00, 0x00, 0x00,
  0x01, 0x00, 0x00, 0x00, 0x01, 0x00, 0x00, 0x00, 0x1a, 0x00, 0x00, 0x00,
  0x03, 0x00, 0x00, 0x00, 0x19, 0x00, 0x00, 0x00, 0x10, 0x00, 0x00, 0x00,
  0x0c, 0x00, 0x00, 0x00, 0x46, 0xff, 0xff, 0xff, 0x00, 0x00, 0x00, 0x34,
  0x18, 0x00, 0x00, 0x00, 0x0c, 0x00, 0x00, 0x00, 0x04, 0x00, 0x00, 0x00,
  0xb4, 0xe2, 0xff, 0xff, 0x01, 0x00, 0x00, 0x00, 0x19, 0x00, 0x00, 0x00,
  0x02, 0x00, 0x00, 0x00, 0x18, 0x00, 0x00, 0x00, 0x0d, 0x00, 0x00, 0x00,
  0x00, 0x00, 0x0a, 0x00, 0x10, 0x00, 0x04, 0x00, 0x08, 0x00, 0x0c, 0x00,
  0x0a, 0x00, 0x00, 0x00, 0x02, 0x00, 0x00, 0x00, 0x10, 0x00, 0x00, 0x00,
  0x04, 0x00, 0x00, 0x00, 0x01, 0x00, 0x00, 0x00, 0x18, 0x00, 0x00, 0x00,
  0x02, 0x00, 0x00, 0x00, 0x17, 0x00, 0x00, 0x00, 0x14, 0x00, 0x00, 0x00,
  0x00, 0x00, 0x0e, 0x00, 0x18, 0x00, 0x08, 0x00, 0x0c, 0x00, 0x10, 0x00,
  0x07, 0x00, 0x14, 0x00, 0x0e, 0x00, 0x00, 0x00, 0x00, 0x00, 0x00, 0x01,
  0x01, 0x00, 0x00, 0x00, 0x30, 0x00, 0x00, 0x00, 0x24, 0x00, 0x00, 0x00,
  0x10, 0x00, 0x00, 0x00, 0x0c, 0x00, 0x10, 0x00, 0x00, 0x00, 0x08, 0x00,
  0x0c, 0x00, 0x07, 0x00, 0x0c, 0x00, 0x00, 0x00, 0x00, 0x00, 0x00, 0x01,
  0x02, 0x00, 0x00, 0x00, 0x01, 0x00, 0x00, 0x00, 0x01, 0x00, 0x00, 0x00,
  0x17, 0x00, 0x00, 0x00, 0x03, 0x00, 0x00, 0x00, 0x16, 0x00, 0x00, 0x00,
  0x0f, 0x00, 0x00, 0x00, 0x0e, 0x00, 0x00, 0x00, 0x00, 0x00, 0x0e, 0x00,
  0x14, 0x00, 0x00, 0x00, 0x08, 0x00, 0x0c, 0x00, 0x07, 0x00, 0x10, 0x00,
  0x0e, 0x00, 0x00, 0x00, 0x00, 0x00, 0x00, 0x34, 0x18, 0x00, 0x00, 0x00,
  0x0c, 0x00, 0x00, 0x00, 0x04, 0x00, 0x00, 0x00, 0x7c, 0xe3, 0xff, 0xff,
  0x01, 0x00, 0x00, 0x00, 0x16, 0x00, 0x00, 0x00, 0x02, 0x00, 0x00, 0x00,
  0x00, 0x00, 0x00, 0x00, 0x0d, 0x00, 0x00, 0x00, 0x01, 0x00, 0x00, 0x00,
  0x3c, 0x00, 0x00, 0x00, 0x01, 0x00, 0x00, 0x00, 0x00, 0x00, 0x00, 0x00,
  0x3f, 0x00, 0x00, 0x00, 0xc0, 0x1b, 0x00, 0x00, 0x44, 0x1b, 0x00, 0x00,
  0xd0, 0x1a, 0x00, 0x00, 0x7c, 0x1a, 0x00, 0x00, 0x28, 0x1a, 0x00, 0x00,
  0xc0, 0x19, 0x00, 0x00, 0x80, 0x19, 0x00, 0x00, 0x3c, 0x19, 0x00, 0x00,
  0xcc, 0x18, 0x00, 0x00, 0x60, 0x18, 0x00, 0x00, 0x04, 0x18, 0x00, 0x00,
  0xa0, 0x17, 0x00, 0x00, 0x44, 0x17, 0x00, 0x00, 0xfc, 0x16, 0x00, 0x00,
  0xa0, 0x16, 0x00, 0x00, 0x50, 0x16, 0x00, 0x00, 0x8c, 0x14, 0x00, 0x00,
  0xf8, 0x13, 0x00, 0x00, 0x70, 0x13, 0x00, 0x00, 0x0c, 0x13, 0x00, 0x00,
  0xbc, 0x12, 0x00, 0x00, 0x6c, 0x12, 0x00, 0x00, 0xfc, 0x11, 0x00, 0x00,
  0x10, 0x11, 0x00, 0x00, 0x48, 0x10, 0x00, 0x00, 0xd4, 0x0f, 0x00, 0x00,
  0xe0, 0x0e, 0x00, 0x00, 0x10, 0x0e, 0x00, 0x00, 0xc0, 0x0d, 0x00, 0x00,
  0x3c, 0x0d, 0x00, 0x00, 0xf0, 0x0c, 0x00, 0x00, 0xa0, 0x0c, 0x00, 0x00,
  0x38, 0x0c, 0x00, 0x00, 0xcc, 0x0b, 0x00, 0x00, 0x6c, 0x0b, 0x00, 0x00,
  0xf0, 0x0a, 0x00, 0x00, 0x74, 0x0a, 0x00, 0x00, 0xe8, 0x09, 0x00, 0x00,
  0x98, 0x09, 0x00, 0x00, 0x10, 0x09, 0x00, 0x00, 0xc4, 0x08, 0x00, 0x00,
  0x74, 0x08, 0x00, 0x00, 0x30, 0x08, 0x00, 0x00, 0xe0, 0x07, 0x00, 0x00,
  0x74, 0x07, 0x00, 0x00, 0x08, 0x07, 0x00, 0x00, 0xa4, 0x06, 0x00, 0x00,
  0x28, 0x06, 0x00, 0x00, 0xac, 0x05, 0x00, 0x00, 0x1c, 0x05, 0x00, 0x00,
  0xcc, 0x04, 0x00, 0x00, 0x44, 0x04, 0x00, 0x00, 0xf8, 0x03, 0x00, 0x00,
  0xa8, 0x03, 0x00, 0x00, 0x58, 0x03, 0x00, 0x00, 0xec, 0x02, 0x00, 0x00,
  0x80, 0x02, 0x00, 0x00, 0x1c, 0x02, 0x00, 0x00, 0xa0, 0x01, 0x00, 0x00,
  0x24, 0x01, 0x00, 0x00, 0xd4, 0x00, 0x00, 0x00, 0x74, 0x00, 0x00, 0x00,
  0x04, 0x00, 0x00, 0x00, 0xa0, 0xff, 0xff, 0xff, 0x48, 0x00, 0x00, 0x00,
  0x04, 0x00, 0x00, 0x00, 0x39, 0x00, 0x00, 0x00, 0x73, 0x65, 0x71, 0x75,
  0x65, 0x6e, 0x74, 0x69, 0x61, 0x6c, 0x2f, 0x63, 0x6f, 0x6e, 0x76, 0x31,
  0x64, 0x5f, 0x74, 0x72, 0x61, 0x6e, 0x73, 0x70, 0x6f, 0x73, 0x65, 0x5f,
  0x31, 0x2f, 0x63, 0x6f, 0x6e, 0x76, 0x31, 0x64, 0x5f, 0x74, 0x72, 0x61,
  0x6e, 0x73, 0x70, 0x6f, 0x73, 0x65, 0x5f, 0x64, 0x65, 0x71, 0x75, 0x61,
  0x6e, 0x74, 0x69, 0x7a, 0x65, 0x00, 0x00, 0x00, 0x04, 0x00, 0x00, 0x00,
  0x20, 0x00, 0x00, 0x00, 0x01, 0x00, 0x00, 0x00, 0x07, 0x00, 0x00, 0x00,
  0x10, 0x00, 0x00, 0x00, 0x0c, 0x00, 0x0c, 0x00, 0x04, 0x00, 0x00, 0x00,
  0x00, 0x00, 0x08, 0x00, 0x0c, 0x00, 0x00, 0x00, 0x44, 0x00, 0x00, 0x00,
  0x04, 0x00, 0x00, 0x00, 0x37, 0x00, 0x00, 0x00, 0x73, 0x65, 0x71, 0x75,
  0x65, 0x6e, 0x74, 0x69, 0x61, 0x6c, 0x2f, 0x63, 0x6f, 0x6e, 0x76, 0x31,
  0x64, 0x5f, 0x74, 0x72, 0x61, 0x6e, 0x73, 0x70, 0x6f, 0x73, 0x65, 0x2f,
  0x63, 0x6f, 0x6e, 0x76, 0x31, 0x64, 0x5f, 0x74, 0x72, 0x61, 0x6e, 0x73,
  0x70, 0x6f, 0x73, 0x65, 0x5f, 0x64, 0x65, 0x71, 0x75, 0x61, 0x6e, 0x74,
  0x69, 0x7a, 0x65, 0x00, 0x04, 0x00, 0x00, 0x00, 0x10, 0x00, 0x00, 0x00,
  0x01, 0x00, 0x00, 0x00, 0x07, 0x00, 0x00, 0x00, 0x10, 0x00, 0x00, 0x00,
  0x18, 0xe6, 0xff, 0xff, 0x38, 0x00, 0x00, 0x00, 0x3d, 0x00, 0x00, 0x00,
  0x20, 0x00, 0x00, 0x00, 0x18, 0x00, 0x00, 0x00, 0x04, 0x00, 0x00, 0x00,
  0x03, 0x00, 0x00, 0x00, 0xff, 0xff, 0xff, 0xff, 0xff, 0xff, 0xff, 0xff,
  0x01, 0x00, 0x00, 0x00, 0x94, 0xe5, 0xff, 0xff, 0x08, 0x00, 0x00, 0x00,
  0x49, 0x64, 0x65, 0x6e, 0x74, 0x69, 0x74, 0x79, 0x00, 0x00, 0x00, 0x00,
  0x03, 0x00, 0x00, 0x00, 0x01, 0x00, 0x00, 0x00, 0x01, 0x00, 0x00, 0x00,
  0x01, 0x00, 0x00, 0x00, 0x64, 0xe6, 0xff, 0xff, 0x64, 0x00, 0x00, 0x00,
  0x3c, 0x00, 0x00, 0x00, 0x20, 0x00, 0x00, 0x00, 0x18, 0x00, 0x00, 0x00,
  0x04, 0x00, 0x00, 0x00, 0x03, 0x00, 0x00, 0x00, 0xff, 0xff, 0xff, 0xff,
  0xff, 0xff, 0xff, 0xff, 0x01, 0x00, 0x00, 0x00, 0xe0, 0xe5, 0xff, 0xff,
  0x36, 0x00, 0x00, 0x00, 0x73, 0x65, 0x71, 0x75, 0x65, 0x6e, 0x74, 0x69,
  0x61, 0x6c, 0x2f, 0x63, 0x6f, 0x6e, 0x76, 0x31, 0x64, 0x5f, 0x74, 0x72,
  0x61, 0x6e, 0x73, 0x70, 0x6f, 0x73, 0x65, 0x5f, 0x32, 0x2f, 0x63, 0x6f,
  0x6e, 0x76, 0x31, 0x64, 0x5f, 0x74, 0x72, 0x61, 0x6e, 0x73, 0x70, 0x6f,
  0x73, 0x65, 0x2f, 0x53, 0x71, 0x75, 0x65, 0x65, 0x7a, 0x65, 0x00, 0x00,
  0x03, 0x00, 0x00, 0x00, 0x01, 0x00, 0x00, 0x00, 0x01, 0x00, 0x00, 0x00,
  0x01, 0x00, 0x00, 0x00, 0xdc, 0xe6, 0xff, 0xff, 0x60, 0x00, 0x00, 0x00,
  0x3b, 0x00, 0x00, 0x00, 0x24, 0x00, 0x00, 0x00, 0x1c, 0x00, 0x00, 0x00,
  0x04, 0x00, 0x00, 0x00, 0x04, 0x00, 0x00, 0x00, 0xff, 0xff, 0xff, 0xff,
  0x01, 0x00, 0x00, 0x00, 0xff, 0xff, 0xff, 0xff, 0x01, 0x00, 0x00, 0x00,
  0x5c, 0xe6, 0xff, 0xff, 0x2f, 0x00, 0x00, 0x00, 0x73, 0x65, 0x71, 0x75,
  0x65, 0x6e, 0x74, 0x69, 0x61, 0x6c, 0x2f, 0x63, 0x6f, 0x6e, 0x76, 0x31,
  0x64, 0x5f, 0x74, 0x72, 0x61, 0x6e, 0x73, 0x70, 0x6f, 0x73, 0x65, 0x5f,
  0x32, 0x2f, 0x63, 0x6f, 0x6e, 0x76, 0x31, 0x64, 0x5f, 0x74, 0x72, 0x61,
  0x6e, 0x73, 0x70, 0x6f, 0x73, 0x65, 0x31, 0x00, 0x04, 0x00, 0x00, 0x00,
  0x01, 0x00, 0x00, 0x00, 0x01, 0x00, 0x00, 0x00, 0x01, 0x00, 0x00, 0x00,
  0x01, 0x00, 0x00, 0x00, 0x36, 0xe8, 0xff, 0xff, 0x00, 0x00, 0x00, 0x02,
  0x50, 0x00, 0x00, 0x00, 0x3a, 0x00, 0x00, 0x00, 0x0c, 0x00, 0x00, 0x00,
  0x04, 0x00, 0x00, 0x00, 0xc0, 0xe6, 0xff, 0xff, 0x36, 0x00, 0x00, 0x00,
  0x73, 0x65, 0x71, 0x75, 0x65, 0x6e, 0x74, 0x69, 0x61, 0x6c, 0x2f, 0x63,
  0x6f, 0x6e, 0x76, 0x31, 0x64, 0x5f, 0x74, 0x72, 0x61, 0x6e, 0x73, 0x70,
  0x6f, 0x73, 0x65, 0x5f, 0x32, 0x2f, 0x63, 0x6f, 0x6e, 0x76, 0x31, 0x64,
  0x5f, 0x74, 0x72, 0x61, 0x6e, 0x73, 0x70, 0x6f, 0x73, 0x65, 0x2f, 0x63,
  0x6f, 0x6e, 0x63, 0x61, 0x74, 0x31, 0x00, 0x00, 0x01, 0x00, 0x00, 0x00,
  0x04, 0x00, 0x00, 0x00, 0x96, 0xe8, 0xff, 0xff, 0x00, 0x00, 0x00, 0x02,
  0x58, 0x00, 0x00, 0x00, 0x39, 0x00, 0x00, 0x00, 0x0c, 0x00, 0x00, 0x00,
  0x04, 0x00, 0x00, 0x00, 0x20, 0xe7, 0xff, 0xff, 0x3e, 0x00, 0x00, 0x00,
  0x73, 0x65, 0x71, 0x75, 0x65, 0x6e, 0x74, 0x69, 0x61, 0x6c, 0x2f, 0x63,
  0x6f, 0x6e, 0x76, 0x31, 0x64, 0x5f, 0x74, 0x72, 0x61, 0x6e, 0x73, 0x70,
  0x6f, 0x73, 0x65, 0x5f, 0x32, 0x2f, 0x63, 0x6f, 0x6e, 0x76, 0x31, 0x64,
  0x5f, 0x74, 0x72, 0x61, 0x6e, 0x73, 0x70, 0x6f, 0x73, 0x65, 0x2f, 0x73,
  0x74, 0x72, 0x69, 0x64, 0x65, 0x64, 0x5f, 0x73, 0x6c, 0x69, 0x63, 0x65,
  0x5f, 0x31, 0x00, 0x00, 0x01, 0x00, 0x00, 0x00, 0x02, 0x00, 0x00, 0x00,
  0xfe, 0xe8, 0xff, 0xff, 0x00, 0x00, 0x00, 0x02, 0x58, 0x00, 0x00, 0x00,
  0x38, 0x00, 0x00, 0x00, 0x0c, 0x00, 0x00, 0x00, 0x04, 0x00, 0x00, 0x00,
  0x88, 0xe7, 0xff, 0xff, 0x3c, 0x00, 0x00, 0x00, 0x73, 0x65, 0x71, 0x75,
  0x65, 0x6e, 0x74, 0x69, 0x61, 0x6c, 0x2f, 0x63, 0x6f, 0x6e, 0x76, 0x31,
  0x64, 0x5f, 0x74, 0x72, 0x61, 0x6e, 0x73, 0x70, 0x6f, 0x73, 0x65, 0x5f,
  0x32, 0x2f, 0x63, 0x6f, 0x6e, 0x76, 0x31, 0x64, 0x5f, 0x74, 0x72, 0x61,
  0x6e, 0x73, 0x70, 0x6f, 0x73, 0x65, 0x2f, 0x73, 0x74, 0x72, 0x69, 0x64,
  0x65, 0x64, 0x5f, 0x73, 0x6c, 0x69, 0x63, 0x65, 0x00, 0x00, 0x00, 0x00,
  0x01, 0x00, 0x00, 0x00, 0x01, 0x00, 0x00, 0x00, 0x66, 0xe9, 0xff, 0xff,
